<pad>	0
</s>	0
<unk>	0
<s>	0
ha	-0
▁k	-1
▁-	-2
▁ha	-3
ar	-4
▁s	-5
▁m	-6
▁t	-7
▁a	-8
hi	-9
na	-10
▁b	-11
▁e	-12
▁hai	-13
▁d	-14
▁j	-15
an	-16
▁na	-17
ra	-18
ya	-19
▁ki	-20
▁ka	-21
hu	-22
en	-23
▁g	-24
▁p	-25
ho	-26
▁ba	-27
la	-28
▁sa	-29
▁se	-30
▁ko	-31
▁men	-32
is	-33
in	-34
▁ma	-35
▁ja	-36
▁v	-37
▁ra	-38
il	-39
ta	-40
un	-41
▁ke	-42
da	-43
▁ho	-44
▁c	-45
▁u	-46
ir	-47
hin	-48
▁n	-49
he	-50
ye	-51
▁hu	-52
▁z	-53
▁bhi	-54
▁to	-55
▁hain	-56
▁ta	-57
▁kar	-58
han	-59
at	-60
▁ham	-61
kh	-62
te	-63
▁nahin	-64
sh	-65
▁mu	-66
▁dil	-67
ur	-68
▁sha	-69
on	-70
ch	-71
▁tu	-72
▁ga	-73
▁kya	-74
har	-75
ti	-76
▁l	-77
▁va	-78
▁vo	-79
va	-80
▁ye	-81
▁pa	-82
▁kha	-83
▁cha	-84
▁de	-85
▁la	-86
ik	-87
▁khu	-88
▁r	-89
▁jo	-90
▁us	-91
▁q	-92
ga	-93
▁f	-94
ma	-95
▁hi	-96
ara	-97
▁ne	-98
▁da	-99
▁is	-100
▁tha	-101
▁ab	-102
▁o	-103
▁par	-104
▁gha	-105
▁ap	-106
ne	-107
▁muj	-108
▁main	-109
▁za	-110
uch	-111
▁gu	-112
man	-113
iya	-114
▁ya	-115
gar	-116
▁be	-117
er	-118
▁hun	-119
uchh	-120
hir	-121
▁koi	-122
▁dar	-123
▁kis	-124
▁ai	-125
▁an	-126
zar	-127
li	-128
gi	-129
▁jan	-130
▁aur	-131
le	-132
▁su	-133
▁kuchh	-134
▁pe	-135
▁qa	-136
▁har	-137
sa	-138
za	-139
▁mir	-140
yun	-141
▁i	-142
▁tir	-143
▁rah	-144
ba	-145
ira	-146
▁phir	-147
▁sar	-148
▁gaya	-149
▁tum	-150
hr	-151
▁kab	-152
▁ik	-153
▁di	-154
ish	-155
ge	-156
▁si	-157
▁hua	-158
▁gar	-159
▁ish	-160
▁dekh	-161
gh	-162
fa	-163
▁bar	-164
▁le	-165
th	-166
jh	-167
▁jis	-168
▁ishq	-169
yan	-170
yar	-171
▁mujhe	-172
ul	-173
▁gham	-174
▁mujh	-175
sha	-176
▁aj	-177
st	-178
▁ch	-179
▁mer	-180
▁kah	-181
hun	-182
ni	-183
ka	-184
▁raha	-185
iye	-186
▁ni	-187
▁as	-188
▁ru	-189
▁jab	-190
rat	-191
▁fa	-192
▁bat	-193
▁thi	-194
▁tara	-195
ang	-196
▁kyun	-197
▁ban	-198
▁kam	-199
▁sab	-200
▁bad	-201
▁du	-202
▁mil	-203
▁un	-204
▁gul	-205
▁ek	-206
▁ji	-207
▁tak	-208
di	-209
▁do	-210
ban	-211
▁mo	-212
▁jae	-213
▁man	-214
▁so	-215
▁dek	-216
hon	-217
▁ter	-218
bar	-219
hut	-220
mat	-221
▁kabhi	-222
▁kahan	-223
mi	-224
▁nik	-225
bat	-226
▁mire	-227
▁the	-228
▁kisi	-229
▁mar	-230
ja	-231
▁gai	-232
▁nazar	-233
si	-234
▁sam	-235
▁mi	-236
ari	-237
▁apne	-238
ani	-239
era	-240
▁bu	-241
▁zin	-242
qi	-243
▁ah	-244
▁bahut	-245
▁rahe	-246
ise	-247
▁magar	-248
▁ut	-249
al	-250
▁tiri	-251
gah	-252
▁kiya	-253
▁tire	-254
▁in	-255
dar	-256
▁naz	-257
▁ghar	-258
de	-259
var	-260
▁din	-261
▁gae	-262
▁mah	-263
▁zinda	-264
hiye	-265
▁sun	-266
uq	-267
▁tujh	-268
▁hue	-269
▁apni	-270
▁yad	-271
qa	-272
us	-273
▁kh	-274
▁dun	-275
hab	-276
▁ak	-277
▁agar	-278
▁jal	-279
▁rang	-280
kin	-281
▁miri	-282
▁hui	-283
▁shab	-284
▁nigah	-285
▁hota	-286
▁has	-287
▁yar	-288
▁shi	-289
▁rat	-290
▁hava	-291
▁bas	-292
um	-293
▁khud	-294
▁sak	-295
▁diya	-296
▁mau	-297
▁liye	-298
van	-299
▁khuda	-300
▁ro	-301
▁jahan	-302
▁tarah	-303
▁far	-304
▁mere	-305
▁meri	-306
▁sho	-307
it	-308
▁yun	-309
lam	-310
cha	-311
▁zindagi	-312
▁lo	-313
▁ar	-314
sta	-315
▁dard	-316
▁ae	-317
▁tar	-318
bi	-319
enge	-320
▁aya	-321
▁duniya	-322
▁kahin	-323
shi	-324
qat	-325
▁ada	-326
hul	-327
▁khva	-328
▁mai	-329
▁apna	-330
▁teri	-331
▁ankh	-332
▁baz	-333
shk	-334
▁ju	-335
▁chal	-336
▁bhar	-337
▁bi	-338
▁dam	-339
habbat	-340
▁mohabbat	-341
jhe	-342
▁lag	-343
▁pah	-344
▁sham	-345
dan	-346
▁tan	-347
▁kare	-348
▁hus	-349
▁jana	-350
▁khat	-351
▁jane	-352
▁khi	-353
▁husn	-354
lib	-355
▁hal	-356
▁vahi	-357
hen	-358
▁kaun	-359
▁sath	-360
kar	-361
▁abhi	-362
hra	-363
lat	-364
▁chash	-365
▁saf	-366
gha	-367
▁nam	-368
▁lekin	-369
tar	-370
▁chu	-371
▁zul	-372
▁mera	-373
▁rakh	-374
▁chan	-375
ve	-376
▁han	-377
▁af	-378
▁bada	-379
▁rahi	-380
▁um	-381
▁qat	-382
▁ku	-383
▁vafa	-384
yat	-385
khon	-386
ut	-387
▁ais	-388
▁chashm	-389
▁hath	-390
▁shahr	-391
▁mira	-392
zi	-393
rab	-394
▁use	-395
▁khak	-396
san	-397
▁log	-398
▁bahar	-399
pa	-400
hal	-401
▁tama	-402
▁pai	-403
▁chand	-404
▁lab	-405
▁dekha	-406
▁karte	-407
▁shar	-408
▁zar	-409
▁alam	-410
▁chho	-411
▁tira	-412
▁hoga	-413
▁tere	-414
▁it	-415
▁khun	-416
▁hamen	-417
▁jin	-418
tam	-419
▁go	-420
▁sama	-421
▁vaq	-422
▁guzar	-423
▁jun	-424
▁sub	-425
▁suk	-426
▁kahte	-427
▁ankhon	-428
▁gir	-429
▁sahi	-430
▁khush	-431
min	-432
shan	-433
▁tala	-434
▁aina	-435
zr	-436
▁shauq	-437
che	-438
▁dur	-439
▁vaqt	-440
▁dagh	-441
▁jata	-442
▁laga	-443
▁khaya	-444
▁khabar	-445
▁sada	-446
▁me	-447
▁chara	-448
▁dost	-449
kan	-450
▁zulf	-451
dhar	-452
▁ata	-453
▁puchh	-454
ikha	-455
▁tera	-456
▁utha	-457
▁khvab	-458
anj	-459
▁bha	-460
▁mun	-461
▁zaban	-462
yon	-463
▁chale	-464
▁tujhe	-465
ud	-466
▁hon	-467
▁kho	-468
▁vah	-469
▁dast	-470
▁jigar	-471
▁akhir	-472
zan	-473
▁dush	-474
▁khayal	-475
▁li	-476
▁jate	-477
▁mat	-478
▁khan	-479
▁chahiye	-480
▁chhu	-481
sar	-482
▁bazm	-483
bab	-484
chch	-485
▁var	-486
▁achch	-487
ke	-488
▁tas	-489
▁ghair	-490
dam	-491
yad	-492
▁arz	-493
▁yak	-494
▁bana	-495
▁zakh	-496
fat	-497
▁bo	-498
▁suna	-499
▁sitam	-500
ib	-501
mana	-502
▁san	-503
▁samajh	-504
jr	-505
▁yan	-506
▁ghalib	-507
uf	-508
▁umr	-509
▁ul	-510
dda	-511
▁ad	-512
▁ahl	-513
▁ate	-514
▁liya	-515
▁zakhm	-516
▁zamin	-517
gan	-518
▁pan	-519
▁yahi	-520
▁mauj	-521
▁surat	-522
▁taraf	-523
ad	-524
▁ghu	-525
▁subh	-526
▁nas	-527
▁hijr	-528
▁pas	-529
▁rak	-530
▁ashi	-531
ki	-532
▁pur	-533
shat	-534
jha	-535
sat	-536
▁pyar	-537
▁dekhte	-538
iz	-539
▁shakh	-540
tan	-541
▁bait	-542
▁band	-543
▁kham	-544
su	-545
fil	-546
▁te	-547
▁tanha	-548
vat	-549
▁chhod	-550
▁chaman	-551
vaz	-552
▁az	-553
▁karo	-554
▁junun	-555
sad	-556
▁fur	-557
▁kaf	-558
▁mudda	-559
▁vas	-560
▁guzr	-561
▁pi	-562
▁inti	-563
▁manz	-564
lak	-565
▁jam	-566
▁hote	-567
▁nikal	-568
▁yahan	-569
tab	-570
▁dushman	-571
▁safar	-572
ton	-573
▁kun	-574
▁khul	-575
▁khana	-576
▁nikla	-577
▁pahle	-578
▁sukhan	-579
shna	-580
▁kit	-581
▁tab	-582
▁vale	-583
▁jaise	-584
▁ankhen	-585
▁kal	-586
▁aise	-587
▁fira	-588
▁hoti	-589
▁naq	-590
khi	-591
▁lut	-592
▁dhun	-593
▁gard	-594
▁jati	-595
▁phul	-596
▁dariya	-597
▁char	-598
▁zara	-599
ind	-600
mal	-601
▁nis	-602
▁firaq	-603
hta	-604
nam	-605
▁ras	-606
▁kash	-607
sht	-608
▁lagta	-609
ram	-610
mane	-611
▁roz	-612
▁milta	-613
am	-614
hat	-615
nat	-616
▁at	-617
▁bhul	-618
▁jise	-619
▁manzil	-620
her	-621
▁ashna	-622
▁dikha	-623
▁zamana	-624
▁pat	-625
▁badal	-626
▁kaise	-627
ab	-628
▁al	-629
▁pad	-630
▁uth	-631
▁asman	-632
id	-633
daz	-634
▁saqi	-635
▁shayad	-636
ikr	-637
sam	-638
▁asad	-639
▁qaya	-640
gu	-641
fas	-642
kha	-643
▁rukh	-644
▁divar	-645
▁jalva	-646
▁aza	-647
kht	-648
mid	-649
▁kij	-650
▁jaen	-651
▁aisa	-652
▁kais	-653
▁mile	-654
are	-655
had	-656
ila	-657
▁ag	-658
▁kan	-659
▁ashk	-660
▁kaha	-661
▁shai	-662
▁munh	-663
val	-664
▁mas	-665
▁eh	-666
▁mehr	-667
▁qadam	-668
▁hasti	-669
▁qayamat	-670
▁qar	-671
manna	-672
▁khin	-673
▁sahra	-674
▁tamanna	-675
ine	-676
vana	-677
▁ghaza	-678
▁juda	-679
▁mila	-680
▁nikle	-681
▁tamam	-682
▁che	-683
▁pahun	-684
▁rau	-685
▁dhund	-686
▁kahun	-687
▁aisi	-688
▁shama	-689
▁shika	-690
▁tumhar	-691
▁vahshat	-692
ham	-693
lah	-694
▁bata	-695
▁puch	-696
▁karen	-697
▁hasrat	-698
▁ati	-699
▁raz	-700
▁sau	-701
▁kiye	-702
▁zamane	-703
▁arzu	-704
▁paya	-705
▁daman	-706
ane	-707
▁dhu	-708
▁sad	-709
▁tumhen	-710
▁re	-711
▁abr	-712
▁lage	-713
▁hamare	-714
▁charagh	-715
▁tamasha	-716
▁shu	-717
▁uda	-718
▁siva	-719
▁atish	-720
mar	-721
hara	-722
▁chi	-723
lim	-724
hane	-725
▁bal	-726
▁maj	-727
▁sara	-728
▁qatil	-729
▁varna	-730
▁age	-731
▁bul	-732
▁baqi	-733
▁maal	-734
▁hamari	-735
fta	-736
zat	-737
▁qis	-738
▁baithe	-739
▁ranj	-740
▁jaega	-741
ju	-742
iyan	-743
▁dua	-744
▁qadar	-745
▁sahar	-746
▁achchha	-747
hre	-748
sal	-749
▁ara	-750
▁soz	-751
▁gain	-752
▁lahu	-753
▁naqsh	-754
hid	-755
▁ajab	-756
▁bala	-757
▁saba	-758
▁andaz	-759
▁karta	-760
▁usi	-761
araz	-762
▁gali	-763
▁haq	-764
hista	-765
▁hazar	-766
▁sharab	-767
hani	-768
▁fit	-769
▁admi	-770
▁baad	-771
▁ashiq	-772
▁parda	-773
▁jhu	-774
▁jaun	-775
▁intizar	-776
▁khe	-777
▁mis	-778
▁sakta	-779
▁ahista	-780
eh	-781
▁ane	-782
▁baten	-783
▁hayat	-784
ri	-785
▁il	-786
ftar	-787
▁mit	-788
▁saz	-789
▁ansu	-790
▁khar	-791
▁sake	-792
▁kahiye	-793
▁kharab	-794
▁mahfil	-795
lab	-796
▁rab	-797
▁daur	-798
▁khal	-799
▁panv	-800
▁pare	-801
▁khatir	-802
▁samjha	-803
uk	-804
vai	-805
▁nama	-806
▁ulfat	-807
bul	-808
▁kai	-809
▁itna	-810
▁sang	-811
▁maalum	-812
bu	-813
▁nau	-814
▁rus	-815
▁hans	-816
▁jala	-817
▁insan	-818
▁am	-819
▁kaho	-820
▁nala	-821
▁vasl	-822
▁dekhna	-823
▁shakhs	-824
qam	-825
ran	-826
▁fas	-827
▁gah	-828
▁gira	-829
▁hosh	-830
hte	-831
▁zo	-832
vani	-833
▁bich	-834
▁tegh	-835
▁dekho	-836
▁karun	-837
▁pareshan	-838
ft	-839
khti	-840
▁and	-841
▁bhu	-842
▁hae	-843
▁asar	-844
▁sach	-845
▁saya	-846
▁badan	-847
▁fursat	-848
eb	-849
▁av	-850
▁iz	-851
uhar	-852
▁bis	-853
▁jit	-854
▁maq	-855
▁avaz	-856
▁dida	-857
▁mana	-858
rar	-859
▁jao	-860
▁mal	-861
▁tal	-862
▁para	-863
▁shor	-864
▁soch	-865
▁utar	-866
▁chala	-867
▁khudi	-868
ghan	-869
▁isi	-870
▁kije	-871
▁pata	-872
▁tabi	-873
▁zauq	-874
▁bagha	-875
▁guzre	-876
lon	-877
▁jag	-878
▁taq	-879
▁dete	-880
▁pade	-881
se	-882
eban	-883
▁afs	-884
▁bagh	-885
▁pani	-886
▁talab	-887
▁hat	-888
▁len	-889
▁qad	-890
▁lutf	-891
▁mushk	-892
▁nafas	-893
▁saman	-894
▁chhupa	-895
far	-896
sib	-897
▁pu	-898
shta	-899
▁ahd	-900
▁ave	-901
▁had	-902
▁haqi	-903
▁lete	-904
▁maut	-905
▁maza	-906
▁havas	-907
sim	-908
uma	-909
▁but	-910
▁moh	-911
▁sur	-912
▁allah	-913
▁jante	-914
▁makan	-915
▁divana	-916
▁vala	-917
▁kaisi	-918
▁haqiqat	-919
re	-920
uz	-921
▁baha	-922
▁bane	-923
▁hona	-924
▁sura	-925
▁kahen	-926
▁qarar	-927
▁unhen	-928
▁gareban	-929
▁haz	-930
▁lam	-931
▁pya	-932
▁faza	-933
▁kahe	-934
▁shik	-935
▁guman	-936
hed	-937
jar	-938
sab	-939
vir	-940
▁bin	-941
▁pal	-942
▁rag	-943
▁sari	-944
▁samjhe	-945
▁mushkil	-946
▁im	-947
▁bara	-948
▁barq	-949
▁dava	-950
▁tark	-951
▁hasil	-952
▁karti	-953
▁khamo	-954
▁ghazal	-955
vab	-956
▁ud	-957
▁qur	-958
▁tah	-959
▁adam	-960
▁chup	-961
▁dukh	-962
▁guna	-963
▁jaegi	-964
▁karna	-965
▁paida	-966
fi	-967
sti	-968
urda	-969
▁eti	-970
▁chak	-971
▁hija	-972
▁jafa	-973
▁qatra	-974
▁khinch	-975
▁den	-976
▁juz	-977
▁kat	-978
ishna	-979
▁khur	-980
▁niya	-981
▁samb	-982
▁siya	-983
▁hamara	-984
▁mausam	-985
▁tabiat	-986
▁tishna	-987
▁kyunkar	-988
▁lik	-989
▁bakh	-990
▁chiz	-991
▁ikhti	-992
▁gardish	-993
bad	-994
onon	-995
▁vir	-996
▁bura	-997
▁khub	-998
▁chalo	-999
▁divan	-1000
▁donon	-1001
▁idhar	-1002
▁ummid	-1003
▁zafar	-1004
▁khushi	-1005
▁qismat	-1006
▁tanhai	-1007
▁dekhiye	-1008
iyat	-1009
▁dal	-1010
▁jaz	-1011
▁sah	-1012
▁fikr	-1013
▁josh	-1014
▁nava	-1015
▁sabr	-1016
▁sine	-1017
▁falak	-1018
▁rasta	-1019
▁udhar	-1020
▁shokhi	-1021
▁tasvir	-1022
hish	-1023
sana	-1024
▁ruh	-1025
istan	-1026
▁ghun	-1027
▁gila	-1028
▁musa	-1029
▁nagh	-1030
▁rish	-1031
▁sans	-1032
▁shah	-1033
▁kahta	-1034
▁maqam	-1035
▁sabab	-1036
im	-1037
▁ana	-1038
▁der	-1039
▁bach	-1040
▁chha	-1041
▁muqa	-1042
▁nash	-1043
▁vali	-1044
▁zikr	-1045
▁vahan	-1046
▁zahir	-1047
▁chahta	-1048
▁furqat	-1049
▁hairat	-1050
▁jaenge	-1051
▁shaikh	-1052
▁tumhare	-1053
me	-1054
jum	-1055
sin	-1056
shar	-1057
▁bik	-1058
▁dan	-1059
▁koh	-1060
▁tut	-1061
▁van	-1062
ushan	-1063
▁itni	-1064
▁lagi	-1065
▁mast	-1066
▁sher	-1067
▁bhala	-1068
▁faraz	-1069
▁khula	-1070
▁baghair	-1071
she	-1072
▁lu	-1073
zzat	-1074
▁miz	-1075
▁sir	-1076
▁saza	-1077
▁kahna	-1078
▁raste	-1079
▁samne	-1080
▁shokh	-1081
▁zalim	-1082
▁lazzat	-1083
▁raushan	-1084
▁sae	-1085
▁yaq	-1086
lamat	-1087
▁garm	-1088
▁hogi	-1089
▁hone	-1090
▁sare	-1091
raz	-1092
uri	-1093
▁dub	-1094
▁nar	-1095
▁mash	-1096
▁thin	-1097
▁guzri	-1098
▁karam	-1099
▁muddat	-1100
as	-1101
giz	-1102
▁zab	-1103
▁taba	-1104
▁jaiye	-1105
▁tagha	-1106
▁hargiz	-1107
▁rakhte	-1108
▁achchhi	-1109
▁samajhte	-1110
dad	-1111
▁azi	-1112
▁maz	-1113
▁nai	-1114
▁saj	-1115
anjir	-1116
▁likh	-1117
▁dhuan	-1118
▁hunar	-1119
▁jalib	-1120
▁janan	-1121
▁ghubar	-1122
▁zanjir	-1123
▁khushbu	-1124
mil	-1125
zaj	-1126
▁iq	-1127
thar	-1128
▁gun	-1129
▁pae	-1130
▁bujh	-1131
▁fana	-1132
▁harf	-1133
▁jism	-1134
▁nind	-1135
▁umid	-1136
▁banda	-1137
▁bayan	-1138
▁hisab	-1139
▁javab	-1140
▁suraj	-1141
▁dastan	-1142
bal	-1143
fan	-1144
ful	-1145
ura	-1146
isal	-1147
▁bah	-1148
▁dha	-1149
▁sina	-1150
▁dasht	-1151
▁hijab	-1152
▁honge	-1153
▁jagah	-1154
▁kafir	-1155
▁sharar	-1156
▁taghaful	-1157
▁dad	-1158
▁tod	-1159
▁asan	-1160
▁imti	-1161
▁mura	-1162
▁pahc	-1163
▁raqi	-1164
▁yaro	-1165
▁bhula	-1166
▁chuka	-1167
▁mange	-1168
▁mizaj	-1169
▁sharm	-1170
▁visal	-1171
▁bulbul	-1172
▁muddaa	-1173
▁mehrban	-1174
▁patthar	-1175
▁sambhal	-1176
lu	-1177
▁aq	-1178
▁dho	-1179
▁tho	-1180
▁vaa	-1181
guzar	-1182
▁abad	-1183
▁dari	-1184
▁faiz	-1185
▁lala	-1186
▁marg	-1187
▁gunah	-1188
▁khane	-1189
▁nasib	-1190
▁rahta	-1191
▁yunhi	-1192
▁nishan	-1193
▁gulshan	-1194
▁rahguzar	-1195
gal	-1196
▁ri	-1197
vafa	-1198
▁baya	-1199
▁pari	-1200
▁qaba	-1201
▁dekhe	-1202
▁fareb	-1203
▁paira	-1204
▁rafta	-1205
▁raqib	-1206
▁rashk	-1207
▁sauda	-1208
▁sitar	-1209
▁taqat	-1210
▁bikhar	-1211
▁hathon	-1212
▁mohsin	-1213
▁rakkha	-1214
▁rusvai	-1215
▁shikva	-1216
▁khvahish	-1217
khe	-1218
kta	-1219
ghar	-1220
▁gan	-1221
▁jur	-1222
▁pin	-1223
▁tuk	-1224
▁uja	-1225
▁khas	-1226
▁pesh	-1227
▁qatl	-1228
▁vaiz	-1229
▁basti	-1230
▁haram	-1231
▁khata	-1232
▁talak	-1233
▁bevafa	-1234
▁jauhar	-1235
▁bayaban	-1236
▁ila	-1237
▁say	-1238
▁zan	-1239
undar	-1240
▁deta	-1241
▁akbar	-1242
▁ehsan	-1243
▁janta	-1244
▁naseh	-1245
▁qasam	-1246
▁sanam	-1247
▁hazrat	-1248
▁naghma	-1249
▁talash	-1250
▁ikhtiyar	-1251
▁samundar	-1252
if	-1253
don	-1254
nun	-1255
shr	-1256
▁pha	-1257
▁pir	-1258
▁zer	-1259
▁ghur	-1260
▁jurm	-1261
▁tava	-1262
▁zabt	-1263
▁hamin	-1264
▁hashr	-1265
▁kahne	-1266
▁khara	-1267
▁logon	-1268
▁chehra	-1269
▁chehre	-1270
▁dekhun	-1271
▁saghar	-1272
▁tumhari	-1273
dat	-1274
khta	-1275
vish	-1276
▁ija	-1277
▁kin	-1278
▁nur	-1279
▁ruk	-1280
▁tap	-1281
▁lakh	-1282
▁shoa	-1283
▁aksar	-1284
▁dilon	-1285
▁halat	-1286
▁kaisa	-1287
▁kitab	-1288
▁etibar	-1289
vv	-1290
▁jha	-1291
▁lad	-1292
▁vaj	-1293
juman	-1294
shish	-1295
▁badh	-1296
▁fasl	-1297
▁haus	-1298
▁kami	-1299
▁tang	-1300
▁garmi	-1301
▁girya	-1302
▁kitna	-1303
▁sakti	-1304
▁gharaz	-1305
du	-1306
bil	-1307
▁ake	-1308
▁gum	-1309
▁kise	-1310
▁masi	-1311
▁naya	-1312
▁faqat	-1313
▁karne	-1314
▁kitne	-1315
▁kitni	-1316
▁nihan	-1317
▁qafas	-1318
▁rahen	-1319
▁sabhi	-1320
▁pairahan	-1321
vi	-1322
▁y	-1323
oge	-1324
gahi	-1325
gana	-1326
▁bam	-1327
▁meh	-1328
▁mus	-1329
▁ajib	-1330
▁baja	-1331
▁shad	-1332
▁zahr	-1333
▁bhari	-1334
▁chahe	-1335
▁chali	-1336
▁jamal	-1337
▁miyan	-1338
▁barbad	-1339
▁gardan	-1340
▁khanda	-1341
▁shikayat	-1342
one	-1343
shni	-1344
▁she	-1345
▁utt	-1346
▁aziz	-1347
▁bahr	-1348
▁dhal	-1349
▁diye	-1350
▁faro	-1351
▁kahi	-1352
▁bujha	-1353
▁chhed	-1354
▁didar	-1355
▁hanga	-1356
▁marne	-1357
▁parde	-1358
▁darkar	-1359
▁javani	-1360
▁khizan	-1361
▁raushni	-1362
kr	-1363
ll	-1364
chi	-1365
mad	-1366
zam	-1367
▁aql	-1368
▁faq	-1369
▁tez	-1370
diyon	-1371
▁abru	-1372
▁dhup	-1373
▁itne	-1374
▁khol	-1375
▁numa	-1376
▁pada	-1377
▁rasm	-1378
▁chhup	-1379
▁judai	-1380
▁sahil	-1381
▁sakht	-1382
▁sayyad	-1383
▁shahid	-1384
tal	-1385
kash	-1386
▁lun	-1387
▁mur	-1388
▁asir	-1389
▁azma	-1390
▁goya	-1391
▁taka	-1392
▁tari	-1393
▁siyah	-1394
▁yaqin	-1395
▁kijiye	-1396
▁matlab	-1397
▁bichhad	-1398
▁pahuncha	-1399
dir	-1400
arib	-1401
jiye	-1402
savv	-1403
▁bol	-1404
▁mub	-1405
▁mut	-1406
▁azad	-1407
▁bina	-1408
▁guft	-1409
▁hali	-1410
▁kada	-1411
▁nazr	-1412
▁shir	-1413
▁nadan	-1414
▁yaani	-1415
▁ghafil	-1416
▁masiha	-1417
▁shisha	-1418
▁tasavv	-1419
▁zindan	-1420
▁shikast	-1421
bra	-1422
isa	-1423
ure	-1424
▁nae	-1425
▁mizh	-1426
▁shak	-1427
▁shan	-1428
▁bacha	-1429
▁hasin	-1430
▁khair	-1431
▁maani	-1432
▁milne	-1433
▁pyare	-1434
▁rahte	-1435
▁saval	-1436
▁baitha	-1437
▁begana	-1438
▁fitrat	-1439
▁ghazab	-1440
▁kidhar	-1441
▁manind	-1442
▁pinhan	-1443
▁anjuman	-1444
▁ghuncha	-1445
▁tumhara	-1446
▁pahunche	-1447
ghaz	-1448
khla	-1449
mkin	-1450
▁maa	-1451
▁avar	-1452
▁ehti	-1453
▁fais	-1454
▁lena	-1455
▁raho	-1456
▁zulm	-1457
▁baton	-1458
▁khali	-1459
▁milti	-1460
▁niyaz	-1461
▁pahlu	-1462
▁shana	-1463
▁tufan	-1464
▁zahid	-1465
▁nashat	-1466
▁phirte	-1467
▁rakhta	-1468
▁rishta	-1469
▁khanjar	-1470
▁mahshar	-1471
▁mizhgan	-1472
▁tasavvur	-1473
br	-1474
jat	-1475
mak	-1476
tin	-1477
▁ib	-1478
▁ur	-1479
hbat	-1480
yyat	-1481
▁dau	-1482
▁did	-1483
▁laf	-1484
tirab	-1485
▁adab	-1486
▁dima	-1487
▁mara	-1488
▁musk	-1489
▁rasa	-1490
▁saka	-1491
▁badla	-1492
▁bazar	-1493
▁khvar	-1494
▁musaf	-1495
▁raten	-1496
▁vaste	-1497
▁ghabra	-1498
▁jinhen	-1499
▁karvan	-1500
▁shirin	-1501
▁sohbat	-1502
▁takall	-1503
▁thahar	-1504
▁iztirab	-1505
▁shabnam	-1506
ji	-1507
yo	-1508
zir	-1509
▁ub	-1510
▁bai	-1511
▁rut	-1512
▁taj	-1513
▁tur	-1514
▁zam	-1515
miyan	-1516
ughan	-1517
▁azar	-1518
▁badi	-1519
▁haya	-1520
▁khel	-1521
▁mita	-1522
▁padi	-1523
▁udas	-1524
▁dosti	-1525
▁halqa	-1526
▁hujum	-1527
▁kamal	-1528
▁khafa	-1529
▁lagti	-1530
▁malum	-1531
▁nigar	-1532
▁vasim	-1533
▁chhoda	-1534
▁hausla	-1535
▁maqtal	-1536
▁imtihan	-1537
▁musafir	-1538
▁salamat	-1539
hri	-1540
son	-1541
zur	-1542
▁qu	-1543
dari	-1544
mmat	-1545
shid	-1546
▁adu	-1547
▁zeh	-1548
sibat	-1549
▁dega	-1550
▁dila	-1551
▁mahv	-1552
▁misl	-1553
▁akela	-1554
▁bimar	-1555
▁kiran	-1556
▁lakht	-1557
▁ravan	-1558
▁sukun	-1559
▁uthta	-1560
▁andher	-1561
▁bismil	-1562
▁dikhai	-1563
▁fasana	-1564
▁himmat	-1565
▁kahani	-1566
▁majnun	-1567
▁musibat	-1568
▁pahchan	-1569
▁darmiyan	-1570
irat	-1571
iyad	-1572
ushi	-1573
▁cho	-1574
▁ise	-1575
▁lau	-1576
▁sal	-1577
▁sil	-1578
▁zor	-1579
▁aish	-1580
▁bazi	-1581
▁dahr	-1582
▁mili	-1583
▁pate	-1584
▁qadr	-1585
▁sair	-1586
▁sirf	-1587
▁taza	-1588
▁basar	-1589
▁bulan	-1590
▁dekhi	-1591
▁khila	-1592
▁misal	-1593
▁muqad	-1594
▁sahab	-1595
▁valon	-1596
▁dekhta	-1597
▁dimagh	-1598
▁gharib	-1599
▁hamdam	-1600
▁nashin	-1601
▁shoala	-1602
ugu	-1603
uju	-1604
esha	-1605
▁sai	-1606
▁tun	-1607
▁dara	-1608
▁khil	-1609
▁lafz	-1610
▁rone	-1611
▁zehn	-1612
▁chuke	-1613
▁fitna	-1614
▁giran	-1615
▁guhar	-1616
▁qarib	-1617
▁rahat	-1618
▁shukr	-1619
▁zarra	-1620
▁avargi	-1621
▁faisla	-1622
▁hairan	-1623
▁havaon	-1624
▁parvaz	-1625
▁afsurda	-1626
▁guftugu	-1627
▁hamesha	-1628
▁khamosh	-1629
▁nikalti	-1630
▁khamoshi	-1631
▁takalluf	-1632
dh	-1633
hur	-1634
isi	-1635
par	-1636
qab	-1637
vari	-1638
▁ain	-1639
▁ast	-1640
▁kas	-1641
▁lae	-1642
▁sin	-1643
▁val	-1644
iyega	-1645
stuju	-1646
▁aine	-1647
▁hina	-1648
▁nale	-1649
▁sail	-1650
▁sata	-1651
▁tarz	-1652
▁vada	-1653
▁ziya	-1654
▁barpa	-1655
▁kamar	-1656
▁musal	-1657
▁banaya	-1658
▁fughan	-1659
▁puchhe	-1660
▁rakkhe	-1661
▁justuju	-1662
ub	-1663
dai	-1664
jam	-1665
kam	-1666
luq	-1667
nan	-1668
▁ao	-1669
▁ge	-1670
▁naf	-1671
▁bosa	-1672
▁dana	-1673
▁jama	-1674
▁jine	-1675
▁mang	-1676
▁arman	-1677
▁khauf	-1678
▁manzar	-1679
▁puchho	-1680
▁tumhin	-1681
▁khalvat	-1682
▁gulistan	-1683
je	-1684
qe	-1685
flat	-1686
▁aen	-1687
▁hur	-1688
▁pak	-1689
▁zid	-1690
alluq	-1691
▁dena	-1692
▁fara	-1693
▁ilti	-1694
▁iman	-1695
▁leta	-1696
▁mahr	-1697
▁mina	-1698
▁nazm	-1699
▁pich	-1700
▁tada	-1701
▁taqa	-1702
▁vahm	-1703
▁avval	-1704
▁dahan	-1705
▁digar	-1706
▁jitna	-1707
▁kusha	-1708
▁munta	-1709
▁shair	-1710
▁sikha	-1711
▁vaada	-1712
▁vajud	-1713
▁kushta	-1714
▁parast	-1715
▁rangin	-1716
▁sarapa	-1717
▁thahre	-1718
▁ziyada	-1719
▁ghaflat	-1720
▁muskura	-1721
▁nashsha	-1722
▁taalluq	-1723
▁aram	-1724
▁barg	-1725
▁chin	-1726
▁jave	-1727
▁laut	-1728
▁maha	-1729
▁masa	-1730
▁paik	-1731
▁safa	-1732
▁sune	-1733
▁chhan	-1734
▁farma	-1735
▁hunuz	-1736
▁iqrar	-1737
▁jalve	-1738
▁khizr	-1739
▁parva	-1740
▁rusva	-1741
▁sakte	-1742
▁shakl	-1743
▁sunte	-1744
▁tadap	-1745
▁parvana	-1746
▁rukhsat	-1747
▁khurshid	-1748
oh	-1749
gad	-1750
ida	-1751
ist	-1752
kon	-1753
chal	-1754
tabi	-1755
usuf	-1756
yyar	-1757
▁aks	-1758
▁fan	-1759
▁fis	-1760
▁ram	-1761
▁soc	-1762
▁vat	-1763
▁chah	-1764
▁jada	-1765
▁jaur	-1766
▁jazb	-1767
▁jite	-1768
▁rahn	-1769
▁rind	-1770
▁sarv	-1771
▁vara	-1772
▁dinon	-1773
▁gulab	-1774
▁matam	-1775
▁mitti	-1776
▁namak	-1777
▁qissa	-1778
▁shola	-1779
▁viran	-1780
▁yusuf	-1781
▁daulat	-1782
▁dekhne	-1783
▁dilbar	-1784
▁garche	-1785
▁jannat	-1786
▁kashti	-1787
▁paigha	-1788
▁taskin	-1789
▁muqaddar	-1790
af	-1791
os	-1792
lal	-1793
lan	-1794
hana	-1795
sand	-1796
vvat	-1797
▁ang	-1798
▁dab	-1799
▁guz	-1800
▁huk	-1801
▁nak	-1802
▁nim	-1803
▁bade	-1804
▁gale	-1805
▁ulti	-1806
▁aftab	-1807
▁anjam	-1808
▁faqir	-1809
▁jabin	-1810
▁khubi	-1811
▁lamha	-1812
▁likha	-1813
▁masti	-1814
▁nazuk	-1815
▁palat	-1816
▁payam	-1817
▁phiri	-1818
▁rahne	-1819
▁vatan	-1820
▁chamak	-1821
▁intiha	-1822
▁thahra	-1823
▁agarche	-1824
hil	-1825
sra	-1826
yam	-1827
vara	-1828
▁bhe	-1829
▁daa	-1830
▁ilm	-1831
▁jum	-1832
▁nan	-1833
▁zat	-1834
▁azal	-1835
▁kade	-1836
▁mata	-1837
▁pech	-1838
▁qaid	-1839
▁qais	-1840
▁samt	-1841
▁afsos	-1842
▁agahi	-1843
▁andar	-1844
▁baith	-1845
▁ghata	-1846
▁hansi	-1847
▁khira	-1848
▁kucha	-1849
▁nashe	-1850
▁panch	-1851
▁dikhla	-1852
▁gauhar	-1853
▁likhun	-1854
▁taqaza	-1855
▁taqdir	-1856
▁dhundte	-1857
▁fariyad	-1858
▁giraftar	-1859
dha	-1860
gis	-1861
▁uq	-1862
hosh	-1863
▁til	-1864
laqat	-1865
▁amal	-1866
▁azab	-1867
▁gesu	-1868
▁hove	-1869
▁isti	-1870
▁jhut	-1871
▁kali	-1872
▁lene	-1873
▁mard	-1874
▁thak	-1875
▁avara	-1876
▁chain	-1877
▁jalte	-1878
▁janen	-1879
▁khatm	-1880
▁labon	-1881
▁nisar	-1882
▁pukar	-1883
▁qalam	-1884
▁tasal	-1885
▁tasir	-1886
▁ubhar	-1887
▁unvan	-1888
▁yaron	-1889
▁ghurur	-1890
▁jangal	-1891
▁khuban	-1892
▁khushk	-1893
▁nargis	-1894
▁pasand	-1895
▁thahri	-1896
▁chandni	-1897
▁dushvar	-1898
▁hangama	-1899
▁mulaqat	-1900
▁paigham	-1901
▁rahnuma	-1902
ck	-1903
no	-1904
ze	-1905
lag	-1906
uba	-1907
▁po	-1908
▁ze	-1909
chon	-1910
ckno	-1911
ulan	-1912
▁ari	-1913
▁nadi	-1914
▁nain	-1915
▁pher	-1916
▁pyas	-1917
▁samj	-1918
▁uthe	-1919
▁auron	-1920
▁baras	-1921
▁butan	-1922
▁daava	-1923
▁ilzam	-1924
▁javan	-1925
▁jitne	-1926
▁kahti	-1927
▁shams	-1928
▁shara	-1929
▁uthae	-1930
▁vahin	-1931
▁zarur	-1932
▁charkh	-1933
▁honton	-1934
▁luckno	-1935
▁maujud	-1936
▁qurban	-1937
▁sharma	-1938
▁ashiyan	-1939
▁tasalli	-1940
▁sitamgar	-1941
▁charaghan	-1942
jal	-1943
lif	-1944
▁zi	-1945
bish	-1946
gani	-1947
kana	-1948
sane	-1949
tara	-1950
usat	-1951
▁bab	-1952
▁lah	-1953
▁min	-1954
▁mul	-1955
▁nab	-1956
▁rae	-1957
▁tad	-1958
▁ande	-1959
▁bare	-1960
▁bhig	-1961
▁bula	-1962
▁dhar	-1963
▁ilaj	-1964
▁jadu	-1965
▁kaif	-1966
▁laya	-1967
▁qaza	-1968
▁sahl	-1969
▁zanu	-1970
▁bedad	-1971
▁chhin	-1972
▁dhoka	-1973
▁janib	-1974
▁kaman	-1975
▁kashi	-1976
▁kuche	-1977
▁murad	-1978
▁qubul	-1979
▁rahti	-1980
▁sabza	-1981
▁vusat	-1982
▁barish	-1983
▁divane	-1984
▁khiram	-1985
▁lijiye	-1986
▁mumkin	-1987
▁ravish	-1988
▁shabab	-1989
▁shikan	-1990
ss	-1991
bur	-1992
hai	-1993
ism	-1994
jan	-1995
ken	-1996
non	-1997
sas	-1998
▁au	-1999
nabi	-2000
▁beh	-2001
▁bit	-2002
▁bud	-2003
▁mad	-2004
▁uzr	-2005
▁yas	-2006
▁abas	-2007
▁amad	-2008
▁bani	-2009
▁deti	-2010
▁gada	-2011
▁kate	-2012
▁khir	-2013
▁liba	-2014
▁masj	-2015
▁taam	-2016
▁zist	-2017
▁ahbab	-2018
▁andhi	-2019
▁angan	-2020
▁banta	-2021
▁bhare	-2022
▁chuki	-2023
▁darte	-2024
▁ehsas	-2025
▁gudaz	-2026
▁inkar	-2027
▁khama	-2028
▁marna	-2029
▁milna	-2030
▁qabil	-2031
▁sarab	-2032
▁shart	-2033
▁sukut	-2034
▁uthte	-2035
▁ziyan	-2036
▁aghosh	-2037
▁ajnabi	-2038
▁ashiqi	-2039
▁hijran	-2040
▁maidan	-2041
▁mehman	-2042
▁mushta	-2043
▁raftar	-2044
▁rahega	-2045
▁sanvar	-2046
▁sitare	-2047
▁virani	-2048
▁hazaron	-2049
▁nigahen	-2050
▁nikalte	-2051
▁sitaron	-2052
▁muntazir	-2053
khl	-2054
lis	-2055
pak	-2056
umi	-2057
▁id	-2058
▁no	-2059
▁qi	-2060
arak	-2061
enat	-2062
ghat	-2063
hron	-2064
▁bij	-2065
▁bun	-2066
▁dud	-2067
▁nib	-2068
▁sul	-2069
▁taa	-2070
▁taz	-2071
gahon	-2072
▁baqa	-2073
▁gure	-2074
▁khum	-2075
▁muft	-2076
▁raza	-2077
▁reza	-2078
▁rote	-2079
▁suni	-2080
▁suno	-2081
▁vadi	-2082
▁badha	-2083
▁chaha	-2084
▁dayar	-2085
▁denge	-2086
▁ganva	-2087
▁ghadi	-2088
▁girah	-2089
▁ilahi	-2090
▁laila	-2091
▁milte	-2092
▁phail	-2093
▁qamat	-2094
▁sanna	-2095
▁tarab	-2096
▁vaise	-2097
▁behtar	-2098
▁dauran	-2099
▁kaenat	-2100
▁karega	-2101
▁lakhon	-2102
▁paiman	-2103
▁shajar	-2104
▁shumar	-2105
▁sochta	-2106
▁talvar	-2107
▁bandagi	-2108
▁jumbish	-2109
▁karenge	-2110
▁mubarak	-2111
▁mushtaq	-2112
▁nigahon	-2113
▁pahunch	-2114
▁dushmani	-2115
pe	-2116
dak	-2117
jaz	-2118
sid	-2119
▁zu	-2120
hare	-2121
▁aib	-2122
▁bim	-2123
▁may	-2124
▁qud	-2125
▁riz	-2126
▁uch	-2127
lahat	-2128
▁bazu	-2129
▁chap	-2130
▁ijad	-2131
▁jaga	-2132
▁jiye	-2133
▁luta	-2134
▁mane	-2135
▁rava	-2136
▁rona	-2137
▁sard	-2138
▁vaqi	-2139
▁badle	-2140
▁dhara	-2141
▁ghani	-2142
▁habab	-2143
▁iqbal	-2144
▁izhar	-2145
▁kalam	-2146
▁marha	-2147
▁marta	-2148
▁mohta	-2149
▁mujhi	-2150
▁rauna	-2151
▁socha	-2152
▁surma	-2153
▁taron	-2154
▁utthe	-2155
▁afshan	-2156
▁bandha	-2157
▁bashar	-2158
▁betabi	-2159
▁gulzar	-2160
▁ijazat	-2161
▁mahtab	-2162
▁masjid	-2163
▁phirta	-2164
▁puchhte	-2165
▁rukhsar	-2166
▁thikana	-2167
lad	-2168
mon	-2169
sil	-2170
sse	-2171
zib	-2172
▁ij	-2173
lajh	-2174
ssum	-2175
▁gin	-2176
▁ira	-2177
▁num	-2178
▁phi	-2179
▁ret	-2180
▁rin	-2181
▁toh	-2182
liyan	-2183
▁aega	-2184
▁aegi	-2185
▁dene	-2186
▁pila	-2187
▁shag	-2188
▁tuti	-2189
▁vajh	-2190
▁ahval	-2191
▁ashar	-2192
▁azadi	-2193
▁bigad	-2194
▁khule	-2195
▁samar	-2196
▁sheva	-2197
▁gardun	-2198
▁jaunga	-2199
▁karish	-2200
▁khatra	-2201
▁khulta	-2202
▁mahram	-2203
▁paikar	-2204
▁puchha	-2205
▁tahzib	-2206
▁taslim	-2207
▁barabar	-2208
▁khamushi	-2209
▁maslahat	-2210
▁musalman	-2211
▁shamshir	-2212
▁tabassum	-2213
sr	-2214
nar	-2215
rib	-2216
sir	-2217
tak	-2218
yab	-2219
▁uj	-2220
ungi	-2221
▁agh	-2222
▁akh	-2223
▁hin	-2224
▁lai	-2225
▁sid	-2226
▁vae	-2227
▁zad	-2228
stagi	-2229
▁bari	-2230
▁bhed	-2231
▁bole	-2232
▁dars	-2233
▁gosh	-2234
▁nika	-2235
▁piya	-2236
▁utna	-2237
▁anjum	-2238
▁bahal	-2239
▁bedar	-2240
▁buton	-2241
▁guzra	-2242
▁jaisa	-2243
▁jhuka	-2244
▁kabhu	-2245
▁kafan	-2246
▁khalq	-2247
▁khuli	-2248
▁naqab	-2249
▁nasir	-2250
▁sozan	-2251
▁akhiri	-2252
▁ashkon	-2253
▁kaghaz	-2254
▁minnat	-2255
▁raunaq	-2256
▁shishe	-2257
▁tilism	-2258
▁zaruri	-2259
▁bandhte	-2260
▁galiyon	-2261
▁ghairat	-2262
▁sadiyon	-2263
▁muddaton	-2264
▁muravvat	-2265
▁zindagani	-2266
ate	-2267
sai	-2268
▁ir	-2269
gari	-2270
ghon	-2271
ista	-2272
shad	-2273
shaq	-2274
unga	-2275
▁bac	-2276
▁sud	-2277
▁tul	-2278
▁ust	-2279
▁zun	-2280
ishen	-2281
minda	-2282
tiyan	-2283
▁beka	-2284
▁dair	-2285
▁ghat	-2286
▁jhon	-2287
▁jina	-2288
▁mail	-2289
▁phan	-2290
▁rahm	-2291
▁saki	-2292
▁tale	-2293
▁than	-2294
▁upar	-2295
▁zada	-2296
▁baham	-2297
▁bahla	-2298
▁chhut	-2299
▁dunga	-2300
▁ghash	-2301
▁harif	-2302
▁mizha	-2303
▁rahin	-2304
▁raton	-2305
▁sadgi	-2306
▁tukde	-2307
▁ulajh	-2308
▁unhin	-2309
▁afsana	-2310
▁barham	-2311
▁doston	-2312
▁guftar	-2313
▁ishare	-2314
▁khumar	-2315
▁phulon	-2316
▁qudrat	-2317
▁qurbat	-2318
▁shaguf	-2319
▁zulmat	-2320
▁ghairon	-2321
▁mahrumi	-2322
▁malamat	-2323
▁muqabil	-2324
▁samajhta	-2325
▁tishnagi	-2326
▁sharminda	-2327
jj	-2328
pan	-2329
rae	-2330
▁ay	-2331
gane	-2332
rana	-2333
shak	-2334
▁fir	-2335
▁hir	-2336
▁ina	-2337
▁jeb	-2338
▁kul	-2339
▁muz	-2340
▁nuq	-2341
▁ped	-2342
▁ran	-2343
▁tif	-2344
garna	-2345
▁adat	-2346
▁ajal	-2347
▁bais	-2348
▁basa	-2349
▁beja	-2350
▁duri	-2351
▁farq	-2352
▁jani	-2353
▁lega	-2354
▁nang	-2355
▁padh	-2356
▁phun	-2357
▁qabr	-2358
▁rota	-2359
▁taur	-2360
▁ujad	-2361
▁aghaz	-2362
▁bharo	-2363
▁bisat	-2364
▁duaen	-2365
▁dukan	-2366
▁janab	-2367
▁jazba	-2368
▁mazar	-2369
▁murgh	-2370
▁nagar	-2371
▁qasid	-2372
▁sahib	-2373
▁sajan	-2374
▁salam	-2375
▁sunta	-2376
▁tabah	-2377
▁thodi	-2378
▁ujala	-2379
▁uryan	-2380
▁vaade	-2381
▁yadon	-2382
▁aghyar	-2383
▁ashnai	-2384
▁badnam	-2385
▁bataun	-2386
▁chahat	-2387
▁dekhen	-2388
▁farish	-2389
▁ghulam	-2390
▁janiye	-2391
▁karvat	-2392
▁nafrat	-2393
▁nazren	-2394
▁qarari	-2395
▁raegan	-2396
▁rahmat	-2397
▁rozgar	-2398
▁sitara	-2399
▁zulfon	-2400
▁zunnar	-2401
▁bevafai	-2402
▁ehtiyat	-2403
▁karobar	-2404
▁khirman	-2405
▁koshish	-2406
▁paimana	-2407
▁vagarna	-2408
▁ghanimat	-2409
▁mohtasib	-2410
faq	-2411
jhi	-2412
mul	-2413
nai	-2414
bada	-2415
jjoh	-2416
usun	-2417
▁dah	-2418
▁gam	-2419
▁lal	-2420
▁mam	-2421
▁rez	-2422
▁sik	-2423
▁tin	-2424
jalli	-2425
▁ahat	-2426
▁anda	-2427
▁cham	-2428
▁chun	-2429
▁dili	-2430
▁jhan	-2431
▁kisu	-2432
▁masr	-2433
▁nikl	-2434
▁purs	-2435
▁rabt	-2436
▁rula	-2437
▁sali	-2438
▁tahi	-2439
▁tute	-2440
▁ustu	-2441
▁vira	-2442
▁ayyam	-2443
▁bakht	-2444
▁bhara	-2445
▁chaun	-2446
▁farda	-2447
▁fusun	-2448
▁gosha	-2449
▁hotin	-2450
▁huzur	-2451
▁ibrat	-2452
▁khade	-2453
▁khvan	-2454
▁lamhe	-2455
▁marte	-2456
▁muhal	-2457
▁mukar	-2458
▁musht	-2459
▁nadim	-2460
▁nakam	-2461
▁namaz	-2462
▁nasim	-2463
▁rasai	-2464
▁adavat	-2465
▁bahane	-2466
▁barson	-2467
▁daftar	-2468
▁gavara	-2469
▁ghalat	-2470
▁ishara	-2471
▁ishrat	-2472
▁kamyab	-2473
▁khudai	-2474
▁mehnat	-2475
▁nazara	-2476
▁palkon	-2477
▁pichhe	-2478
▁rahzan	-2479
▁tohmat	-2480
▁ghurbat	-2481
▁kharabi	-2482
▁puchhta	-2483
▁sannata	-2484
▁tajalli	-2485
▁gunahgar	-2486
▁tavajjoh	-2487
bih	-2488
bir	-2489
ghr	-2490
pat	-2491
iyon	-2492
sari	-2493
shon	-2494
▁mod	-2495
▁sap	-2496
▁ush	-2497
▁aman	-2498
▁anis	-2499
▁asho	-2500
▁chur	-2501
▁fard	-2502
▁ganv	-2503
▁gari	-2504
▁hukm	-2505
▁kara	-2506
▁khai	-2507
▁moti	-2508
▁naza	-2509
▁phen	-2510
▁rast	-2511
▁ruth	-2512
▁said	-2513
▁saja	-2514
▁tuta	-2515
▁badhe	-2516
▁barha	-2517
▁khvah	-2518
▁mahak	-2519
▁mahbu	-2520
▁milen	-2521
▁musha	-2522
▁padta	-2523
▁pyasa	-2524
▁qimat	-2525
▁raqam	-2526
▁sajda	-2527
▁sifat	-2528
▁socho	-2529
▁surur	-2530
▁talib	-2531
▁talkh	-2532
▁tirgi	-2533
▁ansuon	-2534
▁bahana	-2535
▁bhulne	-2536
▁bistar	-2537
▁buland	-2538
▁chalna	-2539
▁chalti	-2540
▁farhad	-2541
▁farogh	-2542
▁gumani	-2543
▁inayat	-2544
▁jallad	-2545
▁jaulan	-2546
▁kanton	-2547
▁likkha	-2548
▁majbur	-2549
▁majlis	-2550
▁masala	-2551
▁mazhab	-2552
▁nigahi	-2553
▁rauzan	-2554
▁sahara	-2555
▁shikar	-2556
▁tapish	-2557
▁tayyar	-2558
▁uchhal	-2559
▁bharosa	-2560
▁divangi	-2561
▁nishani	-2562
▁pursish	-2563
▁ushshaq	-2564
▁pareshani	-2565
fr	-2566
ati	-2567
dud	-2568
ega	-2569
gun	-2570
nak	-2571
amla	-2572
dana	-2573
dani	-2574
hrat	-2575
kane	-2576
kari	-2577
khab	-2578
mani	-2579
midi	-2580
sila	-2581
urat	-2582
usur	-2583
▁ahu	-2584
▁baj	-2585
▁raa	-2586
▁raq	-2587
▁sat	-2588
▁soe	-2589
stana	-2590
venge	-2591
▁abla	-2592
▁alag	-2593
▁ariz	-2594
▁arsh	-2595
▁bojh	-2596
▁buri	-2597
▁chad	-2598
▁chot	-2599
▁huin	-2600
▁jang	-2601
▁jyun	-2602
▁kufr	-2603
▁mare	-2604
▁muhi	-2605
▁naha	-2606
▁nish	-2607
▁pana	-2608
▁razi	-2609
▁sabz	-2610
▁sarf	-2611
▁sukh	-2612
▁tahr	-2613
▁tham	-2614
▁uqda	-2615
▁vida	-2616
▁zard	-2617
▁astin	-2618
▁batao	-2619
▁becha	-2620
▁chura	-2621
▁dalil	-2622
▁hajat	-2623
▁inhin	-2624
▁kamil	-2625
▁kanar	-2626
▁karda	-2627
▁khada	-2628
▁ladka	-2629
▁lagae	-2630
▁libas	-2631
▁navaz	-2632
▁numud	-2633
▁paoge	-2634
▁phire	-2635
▁qusur	-2636
▁rahna	-2637
▁subuk	-2638
▁tavan	-2639
▁udasi	-2640
▁vaisi	-2641
▁valva	-2642
▁varaq	-2643
▁yaran	-2644
▁zamir	-2645
▁barsat	-2646
▁bekasi	-2647
▁chalte	-2648
▁dijiye	-2649
▁hanste	-2650
▁kohkan	-2651
▁nisbat	-2652
▁shamil	-2653
▁sharik	-2654
▁tadbir	-2655
▁taklif	-2656
▁takrar	-2657
▁azmaish	-2658
▁chalega	-2659
▁fishani	-2660
▁gurezan	-2661
▁karunga	-2662
▁khinchi	-2663
▁shohrat	-2664
▁shikasta	-2665
zu	-2666
dik	-2667
hud	-2668
kir	-2669
kul	-2670
rir	-2671
sub	-2672
uda	-2673
▁dh	-2674
▁fi	-2675
▁uf	-2676
chak	-2677
engi	-2678
ruba	-2679
▁aqi	-2680
▁bho	-2681
▁daf	-2682
▁gil	-2683
▁ima	-2684
▁kaj	-2685
▁qaf	-2686
▁thu	-2687
▁ung	-2688
▁zal	-2689
faqat	-2690
hufta	-2691
▁afat	-2692
▁arsa	-2693
▁beba	-2694
▁jale	-2695
▁jins	-2696
▁khez	-2697
▁laal	-2698
▁maas	-2699
▁nair	-2700
▁raqs	-2701
▁sima	-2702
▁tauf	-2703
▁tund	-2704
▁ulat	-2705
▁valo	-2706
▁vari	-2707
▁zoaf	-2708
▁aflak	-2709
▁asrar	-2710
▁bakhi	-2711
▁batae	-2712
▁bhule	-2713
▁bijli	-2714
▁bujhe	-2715
▁chhal	-2716
▁dusra	-2717
▁fitne	-2718
▁hongi	-2719
▁lagte	-2720
▁maghr	-2721
▁mashq	-2722
▁musta	-2723
▁nikli	-2724
▁rakha	-2725
▁safha	-2726
▁tapak	-2727
▁thoda	-2728
khtasar	-2729
▁danish	-2730
▁gashta	-2731
▁jidhar	-2732
▁khusha	-2733
▁lagana	-2734
▁marham	-2735
▁nazdik	-2736
▁niyazi	-2737
▁shairi	-2738
▁tasbih	-2739
▁thokar	-2740
▁vahshi	-2741
▁ashufta	-2742
▁dilruba	-2743
▁khalish	-2744
▁khultin	-2745
▁khvabon	-2746
▁silsila	-2747
▁charagar	-2748
▁karishma	-2749
▁mehrbani	-2750
▁mukhtasar	-2751
▁mohabbaton	-2752
qq	-2753
aba	-2754
bah	-2755
mun	-2756
rah	-2757
shn	-2758
sud	-2759
tav	-2760
una	-2761
tida	-2762
zara	-2763
▁asa	-2764
▁ijz	-2765
▁kim	-2766
▁mor	-2767
▁raf	-2768
▁tai	-2769
▁tam	-2770
▁tim	-2771
▁udi	-2772
kiyan	-2773
vaida	-2774
▁angu	-2775
▁arai	-2776
▁basi	-2777
▁bhag	-2778
▁ejaz	-2779
▁hila	-2780
▁jhuk	-2781
▁muaf	-2782
▁muha	-2783
▁nabz	-2784
▁pach	-2785
▁qahr	-2786
▁qurb	-2787
▁safi	-2788
▁sanj	-2789
▁sava	-2790
▁shua	-2791
▁sula	-2792
▁taat	-2793
▁zarf	-2794
▁ashob	-2795
▁astan	-2796
▁bandh	-2797
▁bandi	-2798
▁betab	-2799
▁bhali	-2800
▁dasta	-2801
▁dhyan	-2802
▁hisse	-2803
▁izzat	-2804
▁jaisi	-2805
▁jalta	-2806
▁jashn	-2807
▁jivan	-2808
▁kaaba	-2809
▁karan	-2810
▁kasha	-2811
▁khari	-2812
▁khaza	-2813
▁khile	-2814
▁kushi	-2815
▁mayus	-2816
▁paban	-2817
▁pahad	-2818
▁palak	-2819
▁pashe	-2820
▁qafil	-2821
▁resha	-2822
▁sabit	-2823
▁sahba	-2824
▁sarma	-2825
▁shadi	-2826
▁shaer	-2827
▁uthti	-2828
▁yahin	-2829
▁akhbar	-2830
▁bakhsh	-2831
▁chalne	-2832
▁ghamza	-2833
▁gharat	-2834
▁khirad	-2835
▁mansub	-2836
▁manzur	-2837
▁maqsud	-2838
▁masruf	-2839
▁mazmun	-2840
▁milega	-2841
▁nakhun	-2842
▁parvar	-2843
▁phirti	-2844
▁qadmon	-2845
▁rakhna	-2846
▁rindan	-2847
▁taamir	-2848
▁tahrir	-2849
▁tamkin	-2850
▁timsal	-2851
▁achchhe	-2852
▁andesha	-2853
▁andhere	-2854
▁badalte	-2855
▁bakhsha	-2856
▁bulandi	-2857
▁dikhaya	-2858
▁divanon	-2859
▁guzarne	-2860
▁iltifat	-2861
▁kahunga	-2862
▁khinche	-2863
▁marasim	-2864
▁mashhur	-2865
▁mastana	-2866
▁nazzara	-2867
▁thikane	-2868
▁valvale	-2869
▁zarurat	-2870
▁bachchon	-2871
▁intikhab	-2872
▁khaksari	-2873
▁khinchta	-2874
▁charaghon	-2875
iq	-2876
dab	-2877
hum	-2878
mas	-2879
zim	-2880
uqat	-2881
vaza	-2882
▁big	-2883
▁bur	-2884
▁fae	-2885
▁fah	-2886
▁fat	-2887
▁qae	-2888
▁qib	-2889
▁zil	-2890
shani	-2891
▁amir	-2892
▁bech	-2893
▁chor	-2894
▁dhad	-2895
▁duba	-2896
▁hirs	-2897
▁jhil	-2898
▁kafi	-2899
▁khid	-2900
▁lash	-2901
▁lati	-2902
▁mani	-2903
▁mazi	-2904
▁mukh	-2905
▁muna	-2906
▁naji	-2907
▁naqd	-2908
▁qarz	-2909
▁rafu	-2910
▁rizq	-2911
▁roya	-2912
▁saat	-2913
▁ujde	-2914
▁zari	-2915
makash	-2916
urdagi	-2917
▁asbab	-2918
▁asiri	-2919
▁auqat	-2920
▁basta	-2921
▁bichh	-2922
▁hazir	-2923
▁jhuta	-2924
▁jurat	-2925
▁karni	-2926
▁najat	-2927
▁nauha	-2928
▁samjh	-2929
▁sivae	-2930
▁sunai	-2931
▁vabal	-2932
▁ashkar	-2933
▁bahari	-2934
▁chahte	-2935
▁chhanv	-2936
▁chhodi	-2937
▁fishan	-2938
▁guzari	-2939
▁kashan	-2940
▁kasrat	-2941
▁khilaf	-2942
▁khusra	-2943
▁kinara	-2944
▁lachak	-2945
▁mutrib	-2946
▁pasban	-2947
▁qafile	-2948
▁rahbar	-2949
▁rakhti	-2950
▁sambha	-2951
▁shaida	-2952
▁taqrir	-2953
▁uthaya	-2954
▁virana	-2955
▁angusht	-2956
▁baghban	-2957
▁chashma	-2958
▁guzarta	-2959
▁lagenge	-2960
▁pachhta	-2961
▁ranjish	-2962
▁sarshar	-2963
▁suvaida	-2964
▁faraghat	-2965
dah	-2966
faz	-2967
fiq	-2968
ghl	-2969
gin	-2970
kat	-2971
khr	-2972
laq	-2973
pas	-2974
qqo	-2975
sus	-2976
thi	-2977
yaz	-2978
aras	-2979
bala	-2980
kami	-2981
lami	-2982
mand	-2983
tala	-2984
vand	-2985
zakh	-2986
▁ali	-2987
▁amr	-2988
▁ghi	-2989
▁gor	-2990
▁isa	-2991
▁jhi	-2992
▁nus	-2993
▁pho	-2994
▁sup	-2995
hadat	-2996
qalab	-2997
▁afza	-2998
▁ajza	-2999
▁araq	-3000
▁bant	-3001
▁daba	-3002
▁daim	-3003
▁dala	-3004
▁ganj	-3005
▁hari	-3006
▁kari	-3007
▁kasa	-3008
▁kunj	-3009
▁maze	-3010
▁mohr	-3011
▁nami	-3012
▁narm	-3013
▁niko	-3014
▁sadi	-3015
▁tauq	-3016
▁thuk	-3017
▁arbab	-3018
▁bahte	-3019
▁banae	-3020
▁bande	-3021
▁darta	-3022
▁gahan	-3023
▁gahra	-3024
▁gusta	-3025
▁hadis	-3026
▁halqe	-3027
▁hansa	-3028
▁imkan	-3029
▁jaoge	-3030
▁kanon	-3031
▁makin	-3032
▁muhit	-3033
▁navak	-3034
▁parin	-3035
▁phira	-3036
▁pichh	-3037
▁pusht	-3038
▁qibla	-3039
▁safai	-3040
▁samna	-3041
▁savab	-3042
▁shahi	-3043
▁shane	-3044
▁tangi	-3045
▁yakta	-3046
▁zarre	-3047
▁afsane	-3048
▁angdai	-3049
▁banhon	-3050
▁begane	-3051
▁bharam	-3052
▁bichha	-3053
▁chadar	-3054
▁chhuta	-3055
▁darman	-3056
▁dhunda	-3057
▁haidar	-3058
▁hangam	-3059
▁havaen	-3060
▁ibtida	-3061
▁jafaen	-3062
▁jhalak	-3063
▁jhonka	-3064
▁khulus	-3065
▁khunin	-3066
▁kulfat	-3067
▁likhna	-3068
▁machal	-3069
▁mahbub	-3070
▁mohlat	-3071
▁muddai	-3072
▁nashad	-3073
▁nikale	-3074
▁nikhar	-3075
▁nikhat	-3076
▁partav	-3077
▁qafila	-3078
▁raston	-3079
▁saliqa	-3080
▁sargar	-3081
▁tarikh	-3082
▁utarta	-3083
▁uthane	-3084
▁zabani	-3085
▁baharon	-3086
▁chehron	-3087
▁chhupae	-3088
▁darvaza	-3089
▁divaron	-3090
▁imtiyaz	-3091
▁inqalab	-3092
▁khashak	-3093
▁nairang	-3094
▁nashtar	-3095
▁rifaqat	-3096
▁samjhen	-3097
▁siyasat	-3098
▁tavaqqo	-3099
▁zakhmon	-3100
▁kharabat	-3101
▁puchhiye	-3102
▁shahadat	-3103
▁kashakash	-3104
yy	-3105
ach	-3106
jub	-3107
rak	-3108
daus	-3109
ddat	-3110
ghal	-3111
heli	-3112
hera	-3113
hire	-3114
kasr	-3115
mada	-3116
stan	-3117
ukta	-3118
▁das	-3119
▁dus	-3120
▁eid	-3121
▁jah	-3122
▁jug	-3123
▁jui	-3124
▁kir	-3125
▁mak	-3126
▁put	-3127
▁qas	-3128
▁qul	-3129
▁saq	-3130
▁ude	-3131
chana	-3132
kayat	-3133
tanat	-3134
▁ahan	-3135
▁ange	-3136
▁bahi	-3137
▁bure	-3138
▁chub	-3139
▁dali	-3140
▁dare	-3141
▁dhan	-3142
▁faqr	-3143
▁ghut	-3144
▁haif	-3145
▁hama	-3146
▁hind	-3147
▁jaza	-3148
▁jhag	-3149
▁khoe	-3150
▁kota	-3151
▁labi	-3152
▁lata	-3153
▁maaz	-3154
▁piye	-3155
▁ramz	-3156
▁sako	-3157
▁sane	-3158
▁saun	-3159
▁sehr	-3160
▁sote	-3161
▁tair	-3162
▁tash	-3163
▁taus	-3164
▁udne	-3165
▁vash	-3166
▁akasr	-3167
▁alfaz	-3168
▁amada	-3169
▁apnon	-3170
▁barat	-3171
▁beach	-3172
▁chaho	-3173
▁chhai	-3174
▁chhat	-3175
▁daraz	-3176
▁davat	-3177
▁dhoke	-3178
▁dilli	-3179
▁fakhr	-3180
▁farsh	-3181
▁ghaur	-3182
▁gulon	-3183
▁harim	-3184
▁jitni	-3185
▁kalim	-3186
▁khatt	-3187
▁kheme	-3188
▁majra	-3189
▁nakhl	-3190
▁nibha	-3191
▁nukta	-3192
▁pagal	-3193
▁pahli	-3194
▁panja	-3195
▁phunk	-3196
▁qadah	-3197
▁rahon	-3198
▁rakhi	-3199
▁rudad	-3200
▁saken	-3201
▁sharh	-3202
▁sidhi	-3203
▁sunae	-3204
▁takht	-3205
▁tavaf	-3206
▁vaqia	-3207
▁zaman	-3208
▁chalta	-3209
▁chaunk	-3210
▁chhode	-3211
▁dandan	-3212
▁dildar	-3213
▁farosh	-3214
▁gharon	-3215
▁hamrah	-3216
▁jazbat	-3217
▁khasta	-3218
▁khatar	-3219
▁khvahi	-3220
▁kohsar	-3221
▁lafzon	-3222
▁lamhon	-3223
▁nuskha	-3224
▁rakhun	-3225
▁sunane	-3226
▁vardat	-3227
▁yaksar	-3228
▁zillat	-3229
▁zinhar	-3230
▁faqiron	-3231
▁firdaus	-3232
▁guzarna	-3233
▁hasinon	-3234
▁hikayat	-3235
▁marhaba	-3236
▁masihai	-3237
▁mushafi	-3238
▁parasti	-3239
▁rakhiye	-3240
▁raqibon	-3241
▁shiddat	-3242
▁zaminon	-3243
▁andheron	-3244
▁andhiyon	-3245
▁kharidar	-3246
▁pahchane	-3247
▁pasheman	-3248
▁saltanat	-3249
▁bakhshish	-3250
▁farishton	-3251
▁parastish	-3252
▁kashmakash	-3253
▁samundaron	-3254
fak	-3255
hez	-3256
kim	-3257
osh	-3258
saf	-3259
usi	-3260
zum	-3261
ilab	-3262
jhal	-3263
khir	-3264
kira	-3265
uman	-3266
usar	-3267
yari	-3268
▁afr	-3269
▁ala	-3270
▁aun	-3271
▁azm	-3272
▁duk	-3273
▁fal	-3274
▁rok	-3275
▁seh	-3276
▁taf	-3277
▁zof	-3278
makta	-3279
shkar	-3280
▁aiye	-3281
▁bahs	-3282
▁bikh	-3283
▁bose	-3284
▁bund	-3285
▁chhe	-3286
▁dafn	-3287
▁dubo	-3288
▁fani	-3289
▁gahe	-3290
▁gava	-3291
▁gire	-3292
▁itab	-3293
▁jami	-3294
▁jari	-3295
▁mulk	-3296
▁nakh	-3297
▁nase	-3298
▁piri	-3299
▁qail	-3300
▁ravi	-3301
▁roke	-3302
▁toda	-3303
▁udte	-3304
▁udti	-3305
▁vaza	-3306
sarrat	-3307
▁ayyar	-3308
▁barah	-3309
▁bhale	-3310
▁buzur	-3311
▁dosto	-3312
▁faeda	-3313
▁gahre	-3314
▁gusar	-3315
▁hakim	-3316
▁halak	-3317
▁irada	-3318
▁jagta	-3319
▁kabab	-3320
▁khone	-3321
▁khuld	-3322
▁majma	-3323
▁malal	-3324
▁mauja	-3325
▁mudam	-3326
▁navai	-3327
▁pahar	-3328
▁phenk	-3329
▁pyase	-3330
▁rahun	-3331
▁sakun	-3332
▁salib	-3333
▁shake	-3334
▁sikan	-3335
▁simab	-3336
▁tarik	-3337
▁tauba	-3338
▁uljha	-3339
▁uttha	-3340
▁vaqif	-3341
▁zaval	-3342
▁andaza	-3343
▁araish	-3344
▁avenge	-3345
▁azmane	-3346
▁balaen	-3347
▁bandon	-3348
▁banegi	-3349
▁batate	-3350
▁bhatak	-3351
▁bhigta	-3352
▁bimari	-3353
▁chahen	-3354
▁chalen	-3355
▁dastar	-3356
▁dozakh	-3357
▁fasane	-3358
▁haivan	-3359
▁kavish	-3360
▁khatka	-3361
▁lagane	-3362
▁mahsus	-3363
▁mughan	-3364
▁naghme	-3365
▁nakami	-3366
▁nazron	-3367
▁niklen	-3368
▁nuqsan	-3369
▁paiham	-3370
▁parhez	-3371
▁parsai	-3372
▁pighal	-3373
▁pukare	-3374
▁qulzum	-3375
▁rishte	-3376
▁sailab	-3377
▁shahan	-3378
▁shanas	-3379
▁shefta	-3380
▁shikve	-3381
▁shoale	-3382
▁sokhta	-3383
▁suragh	-3384
▁taufiq	-3385
▁tiflan	-3386
▁bachpan	-3387
▁chadhte	-3388
▁charcha	-3389
▁ghunche	-3390
▁kashish	-3391
▁kitabon	-3392
▁lashkar	-3393
▁mubtala	-3394
▁sargarm	-3395
▁sarmaya	-3396
▁shaista	-3397
▁shorish	-3398
▁taskhir	-3399
▁tazkira	-3400
▁bastiyon	-3401
▁dastaras	-3402
▁dhundhta	-3403
▁khanuman	-3404
▁masarrat	-3405
▁pahchana	-3406
hd	-3407
nu	-3408
abe	-3409
chh	-3410
dal	-3411
dhe	-3412
dil	-3413
dis	-3414
eni	-3415
huq	-3416
nin	-3417
qan	-3418
rud	-3419
ved	-3420
vva	-3421
▁if	-3422
dagi	-3423
guna	-3424
idan	-3425
ikhe	-3426
iman	-3427
labi	-3428
pesh	-3429
rida	-3430
shah	-3431
tani	-3432
umat	-3433
yaza	-3434
▁adh	-3435
▁are	-3436
▁fuz	-3437
▁mom	-3438
▁nil	-3439
▁phu	-3440
▁qal	-3441
dakta	-3442
ishin	-3443
lekha	-3444
yarat	-3445
▁afaq	-3446
▁agah	-3447
▁apas	-3448
▁bhad	-3449
▁bhan	-3450
▁chat	-3451
▁chhi	-3452
▁dada	-3453
▁dhul	-3454
▁dosh	-3455
▁fare	-3456
▁ghum	-3457
▁gird	-3458
▁gunj	-3459
▁hush	-3460
▁jabr	-3461
▁jano	-3462
▁jara	-3463
▁jita	-3464
▁kach	-3465
▁kale	-3466
▁kani	-3467
▁kasi	-3468
▁khaj	-3469
▁mand	-3470
▁mota	-3471
▁muam	-3472
▁mush	-3473
▁niha	-3474
▁nira	-3475
▁pash	-3476
▁qata	-3477
▁qaul	-3478
▁rida	-3479
▁ruke	-3480
▁taha	-3481
▁ubal	-3482
▁udan	-3483
▁ufuq	-3484
▁uthi	-3485
▁utra	-3486
▁vaba	-3487
▁vajd	-3488
▁vasf	-3489
khiyan	-3490
▁afsun	-3491
▁akele	-3492
▁aluda	-3493
▁areni	-3494
▁azmat	-3495
▁bahta	-3496
▁bajae	-3497
▁banti	-3498
▁batil	-3499
▁bitha	-3500
▁bolta	-3501
▁burai	-3502
▁chang	-3503
▁chhid	-3504
▁fasla	-3505
▁fasle	-3506
▁fulan	-3507
▁gharq	-3508
▁hanuz	-3509
▁janun	-3510
▁jugnu	-3511
▁kaabe	-3512
▁kakul	-3513
▁kanch	-3514
▁khoti	-3515
▁khoya	-3516
▁lazim	-3517
▁lenge	-3518
▁lipat	-3519
▁maasi	-3520
▁manus	-3521
▁maraz	-3522
▁naved	-3523
▁nibah	-3524
▁padha	-3525
▁pyari	-3526
▁qalan	-3527
▁qatre	-3528
▁raana	-3529
▁rangi	-3530
▁rihai	-3531
▁subur	-3532
▁sulag	-3533
▁suluk	-3534
▁yaqub	-3535
▁zinat	-3536
▁afiyat	-3537
▁anchal	-3538
▁balish	-3539
▁banane	-3540
▁buzurg	-3541
▁darban	-3542
▁darvaz	-3543
▁dastak	-3544
▁dhunde	-3545
▁etimad	-3546
▁fazaen	-3547
▁hansne	-3548
▁iltija	-3549
▁kausar	-3550
▁khitab	-3551
▁khvari	-3552
▁kimiya	-3553
▁lagaen	-3554
▁mahdud	-3555
▁mamnun	-3556
▁mandir	-3557
▁maqsad	-3558
▁moamla	-3559
▁mutthi	-3560
▁namrud	-3561
▁naqsha	-3562
▁naznin	-3563
▁palken	-3564
▁patton	-3565
▁purana	-3566
▁purane	-3567
▁ravani	-3568
▁rizvan	-3569
▁saffak	-3570
▁sakhti	-3571
▁sanson	-3572
▁sarish	-3573
▁sarkar	-3574
▁shaeri	-3575
▁tavani	-3576
▁atishin	-3577
▁bahisht	-3578
▁bakhiya	-3579
▁bakhshe	-3580
▁bechain	-3581
▁darpesh	-3582
▁dilbari	-3583
▁gunguna	-3584
▁guzarte	-3585
▁hukumat	-3586
▁karamat	-3587
▁khabari	-3588
▁khincha	-3589
▁khusrav	-3590
▁marhala	-3591
▁nigaran	-3592
▁nikalne	-3593
▁paimane	-3594
▁peshani	-3595
▁rishton	-3596
▁sakenge	-3597
▁sharabi	-3598
▁shorida	-3599
▁uthaiye	-3600
▁ziyarat	-3601
▁zulekha	-3602
▁baghavat	-3603
▁barhaman	-3604
▁bastiyan	-3605
▁beganagi	-3606
▁dilrubai	-3607
▁jahannam	-3608
▁kaifiyat	-3609
▁khamyaza	-3610
▁manzilen	-3611
▁sharafat	-3612
▁shararat	-3613
▁talabgar	-3614
▁afsurdagi	-3615
▁shabistan	-3616
▁farmaiyega	-3617
bai	-3618
cho	-3619
ghz	-3620
khm	-3621
laf	-3622
nab	-3623
rez	-3624
tad	-3625
ten	-3626
tun	-3627
vin	-3628
yya	-3629
▁he	-3630
▁uz	-3631
bara	-3632
hram	-3633
huda	-3634
hura	-3635
jjub	-3636
liye	-3637
rani	-3638
tane	-3639
tari	-3640
tiya	-3641
uraq	-3642
yana	-3643
▁asl	-3644
▁auj	-3645
▁bil	-3646
▁dum	-3647
▁fau	-3648
▁gal	-3649
▁gho	-3650
▁git	-3651
▁iba	-3652
▁mud	-3653
▁muf	-3654
▁nav	-3655
▁odh	-3656
▁puj	-3657
▁rav	-3658
▁rog	-3659
▁rup	-3660
▁sum	-3661
▁tau	-3662
▁tik	-3663
barat	-3664
ftari	-3665
khvan	-3666
▁ahen	-3667
▁ajiz	-3668
▁anch	-3669
▁bagu	-3670
▁bash	-3671
▁bini	-3672
▁bola	-3673
▁dabi	-3674
▁dale	-3675
▁fahm	-3676
▁farz	-3677
▁fath	-3678
▁ghin	-3679
▁giri	-3680
▁gulu	-3681
▁hont	-3682
▁huma	-3683
▁jage	-3684
▁jhad	-3685
▁jham	-3686
▁kabe	-3687
▁kata	-3688
▁khad	-3689
▁khet	-3690
▁khod	-3691
▁kuja	-3692
▁lauh	-3693
▁makr	-3694
▁mauq	-3695
▁maya	-3696
▁muda	-3697
▁nach	-3698
▁paen	-3699
▁pine	-3700
▁pite	-3701
▁qabu	-3702
▁qalb	-3703
▁riya	-3704
▁ruba	-3705
▁saik	-3706
▁same	-3707
▁shal	-3708
▁sufi	-3709
▁tanz	-3710
▁ufta	-3711
▁andoh	-3712
▁auraq	-3713
▁badli	-3714
▁balin	-3715
▁batin	-3716
▁batla	-3717
▁bheji	-3718
▁binai	-3719
▁darve	-3720
▁davam	-3721
▁dikhe	-3722
▁figar	-3723
▁goshe	-3724
▁hoshi	-3725
▁insaf	-3726
▁irfan	-3727
▁jaldi	-3728
▁jalti	-3729
▁javed	-3730
▁kamre	-3731
▁khaki	-3732
▁ladki	-3733
▁lagan	-3734
▁laghz	-3735
▁lahad	-3736
▁lahje	-3737
▁lahra	-3738
▁laraz	-3739
▁latif	-3740
▁madad	-3741
▁mahke	-3742
▁mamat	-3743
▁manga	-3744
▁mathe	-3745
▁mulla	-3746
▁musav	-3747
▁navar	-3748
▁nazaa	-3749
▁padte	-3750
▁padti	-3751
▁paima	-3752
▁pesha	-3753
▁phati	-3754
▁pyasi	-3755
▁qalib	-3756
▁rafiq	-3757
▁sabat	-3758
▁shash	-3759
▁shifa	-3760
▁shira	-3761
▁sitan	-3762
▁sunna	-3763
▁sunne	-3764
▁surkh	-3765
▁takra	-3766
▁tujhi	-3767
▁utthi	-3768
▁vaisa	-3769
▁zahra	-3770
▁adhura	-3771
▁andesh	-3772
▁badban	-3773
▁chamka	-3774
▁dhadak	-3775
▁dhundh	-3776
▁ghamon	-3777
▁gulabi	-3778
▁hausle	-3779
▁ibadat	-3780
▁ibarat	-3781
▁jhagda	-3782
▁khatre	-3783
▁khilte	-3784
▁khvabi	-3785
▁kirdar	-3786
▁kyunki	-3787
▁maasum	-3788
▁maazur	-3789
▁paband	-3790
▁padega	-3791
▁paikan	-3792
▁parvan	-3793
▁quvvat	-3794
▁rakhne	-3795
▁ranjur	-3796
▁safina	-3797
▁sahare	-3798
▁sakega	-3799
▁samjho	-3800
▁saqiya	-3801
▁shamen	-3802
▁sochun	-3803
▁sunate	-3804
▁turbat	-3805
▁virane	-3806
▁zakhmi	-3807
▁zulfen	-3808
▁bachate	-3809
▁bachiye	-3810
▁badalne	-3811
▁bakhshi	-3812
▁barahna	-3813
▁bhanvar	-3814
▁chhalak	-3815
▁dhadkan	-3816
▁divaren	-3817
▁gunahon	-3818
▁havadis	-3819
▁jarahat	-3820
▁khudaya	-3821
▁kushada	-3822
▁nashshe	-3823
▁naumidi	-3824
▁numayan	-3825
▁paivand	-3826
▁parinde	-3827
▁puchhun	-3828
▁sataish	-3829
▁taajjub	-3830
▁taammul	-3831
▁dhundhte	-3832
▁khayalon	-3833
▁mahfilen	-3834
▁musalsal	-3835
▁nigahban	-3836
▁samajhne	-3837
▁shagufta	-3838
▁sharmsar	-3839
▁ungliyan	-3840
▁dushmanon	-3841
▁ustukhvan	-3842
▁khvahishon	-3843
be	-3844
uh	-3845
dte	-3846
dur	-3847
ere	-3848
fal	-3849
gir	-3850
hda	-3851
hib	-3852
ili	-3853
ize	-3854
jud	-3855
khu	-3856
raf	-3857
ron	-3858
uka	-3859
von	-3860
▁aa	-3861
▁ve	-3862
▁yu	-3863
angi	-3864
bril	-3865
bron	-3866
kmat	-3867
lman	-3868
main	-3869
raba	-3870
▁bor	-3871
▁goi	-3872
▁iza	-3873
▁jhe	-3874
▁lar	-3875
▁lek	-3876
▁lip	-3877
▁moa	-3878
▁mol	-3879
▁nek	-3880
▁roe	-3881
▁sip	-3882
▁sog	-3883
▁vun	-3884
▁zeb	-3885
shida	-3886
▁ayan	-3887
▁besh	-3888
▁bhes	-3889
▁bhid	-3890
▁dabe	-3891
▁dani	-3892
▁degi	-3893
▁dhab	-3894
▁dije	-3895
▁fari	-3896
▁fash	-3897
▁gahi	-3898
▁ghal	-3899
▁hare	-3900
▁inan	-3901
▁jhum	-3902
▁kadi	-3903
▁kanp	-3904
▁lane	-3905
▁nada	-3906
▁name	-3907
▁phod	-3908
▁puri	-3909
▁qaem	-3910
▁qaim	-3911
▁qasr	-3912
▁rani	-3913
▁rumi	-3914
▁sani	-3915
▁sanp	-3916
▁sazi	-3917
▁soya	-3918
▁taab	-3919
▁taja	-3920
▁tare	-3921
▁zohd	-3922
kammal	-3923
▁ambar	-3924
▁angez	-3925
▁bebak	-3926
▁bhage	-3927
▁bolen	-3928
▁chaki	-3929
▁dakhl	-3930
▁darun	-3931
▁dohra	-3932
▁dukha	-3933
▁gadai	-3934
▁gurez	-3935
▁hilal	-3936
▁hindu	-3937
▁jalae	-3938
▁jhute	-3939
▁kahla	-3940
▁katti	-3941
▁kulah	-3942
▁ladai	-3943
▁lagai	-3944
▁lahja	-3945
▁manta	-3946
▁mashi	-3947
▁namus	-3948
▁nihal	-3949
▁parch	-3950
▁paron	-3951
▁pedon	-3952
▁rasan	-3953
▁sadak	-3954
▁saunp	-3955
▁sipar	-3956
▁sirat	-3957
▁subha	-3958
▁sunun	-3959
▁tabib	-3960
▁tariq	-3961
▁turra	-3962
▁uljhe	-3963
▁ustad	-3964
▁uthai	-3965
▁vidaa	-3966
▁zuhur	-3967
▁arbada	-3968
▁asmani	-3969
▁azurda	-3970
▁baghal	-3971
▁banega	-3972
▁bhadak	-3973
▁chadha	-3974
▁chahne	-3975
▁chahun	-3976
▁chalan	-3977
▁chhati	-3978
▁chhuda	-3979
▁chhune	-3980
▁chhuri	-3981
▁darbar	-3982
▁dharti	-3983
▁dikhae	-3984
▁dilaen	-3985
▁fazaon	-3986
▁ghamma	-3987
▁ghusse	-3988
▁hadsat	-3989
▁hikmat	-3990
▁jalaya	-3991
▁jibril	-3992
▁kahiyo	-3993
▁karoge	-3994
▁khalal	-3995
▁khanon	-3996
▁khidki	-3997
▁khisht	-3998
▁khvani	-3999
▁likhta	-4000
▁mahmil	-4001
▁mahrum	-4002
▁mayusi	-4003
▁millat	-4004
▁munkir	-4005
▁nihani	-4006
▁phaila	-4007
▁pukhta	-4008
▁qabron	-4009
▁rakkhi	-4010
▁savari	-4011
▁shadab	-4012
▁shaghl	-4013
▁shakar	-4014
▁shayan	-4015
▁siyahi	-4016
▁takmil	-4017
▁talabi	-4018
▁taqrib	-4019
▁tarash	-4020
▁uthana	-4021
▁uthate	-4022
▁zulfan	-4023
▁afshani	-4024
▁andalib	-4025
▁baharan	-4026
▁bigadta	-4027
▁chilman	-4028
▁dariche	-4029
▁dikhata	-4030
▁dikhati	-4031
▁dilkash	-4032
▁ghataen	-4033
▁hairani	-4034
▁hatheli	-4035
▁kharash	-4036
▁khazana	-4037
▁khurram	-4038
▁khvahan	-4039
▁kitaben	-4040
▁maghrib	-4041
▁maghrur	-4042
▁maujzan	-4043
▁mazamin	-4044
▁milenge	-4045
▁mutmain	-4046
▁nishana	-4047
▁pichhle	-4048
▁rahenge	-4049
▁saikdon	-4050
▁shakhon	-4051
▁tajraba	-4052
▁ummiden	-4053
▁ashiyana	-4054
▁bikharne	-4055
▁chamakta	-4056
▁dhadakta	-4057
▁ikhtilaf	-4058
▁khinchti	-4059
▁manzilon	-4060
▁mukammal	-4061
▁mukarrar	-4062
▁nasheman	-4063
▁qurbaten	-4064
▁sambhale	-4065
▁samjhane	-4066
▁shadmani	-4067
▁sikandar	-4068
▁sulaiman	-4069
▁mashiyyat	-4070
▁pattharon	-4071
▁supurdagi	-4072
▁varastagi	-4073
ce	-4074
dd	-4075
ed	-4076
ol	-4077
oz	-4078
bha	-4079
bin	-4080
ddi	-4081
egi	-4082
fam	-4083
gri	-4084
hak	-4085
jab	-4086
kad	-4087
liz	-4088
lub	-4089
pai	-4090
rim	-4091
saz	-4092
ste	-4093
tul	-4094
ven	-4095
yah	-4096
▁ug	-4097
alon	-4098
bana	-4099
buri	-4100
hren	-4101
ijan	-4102
iron	-4103
jruh	-4104
khez	-4105
khun	-4106
mala	-4107
mate	-4108
mila	-4109
rina	-4110
yyur	-4111
▁amn	-4112
▁ash	-4113
▁bak	-4114
▁gaz	-4115
▁nok	-4116
▁pil	-4117
▁pun	-4118
▁qum	-4119
▁rai	-4120
▁rum	-4121
▁zud	-4122
assam	-4123
diyan	-4124
harat	-4125
jhane	-4126
shahi	-4127
tarib	-4128
tiyaq	-4129
urane	-4130
▁agle	-4131
▁ajam	-4132
▁akhi	-4133
▁anqa	-4134
▁arif	-4135
▁bhik	-4136
▁bite	-4137
▁chum	-4138
▁dopa	-4139
▁fida	-4140
▁gala	-4141
▁ghaz	-4142
▁ghir	-4143
▁guda	-4144
▁hadd	-4145
▁hech	-4146
▁honi	-4147
▁ilah	-4148
▁jald	-4149
▁java	-4150
▁jhur	-4151
▁kaba	-4152
▁kuch	-4153
▁leti	-4154
▁lohu	-4155
▁maar	-4156
▁madh	-4157
▁magh	-4158
▁mahi	-4159
▁mite	-4160
▁mund	-4161
▁muta	-4162
▁paun	-4163
▁roti	-4164
▁ruki	-4165
▁sala	-4166
▁sehn	-4167
▁shun	-4168
▁sila	-4169
▁sipa	-4170
▁soen	-4171
▁sona	-4172
▁taan	-4173
▁thik	-4174
▁urus	-4175
▁vade	-4176
▁vaqf	-4177
▁yara	-4178
khshan	-4179
▁aenge	-4180
▁aison	-4181
▁amana	-4182
▁banki	-4183
▁barsa	-4184
▁bezar	-4185
▁bhole	-4186
▁bigdi	-4187
▁chadh	-4188
▁darja	-4189
▁dubne	-4190
▁duhai	-4191
▁dusri	-4192
▁ehram	-4193
▁ghunt	-4194
▁girte	-4195
▁hadsa	-4196
▁idrak	-4197
▁ifsha	-4198
▁ishva	-4199
▁itnon	-4200
▁jalal	-4201
▁jalne	-4202
▁jasta	-4203
▁kamin	-4204
▁khami	-4205
▁khati	-4206
▁khinc	-4207
▁khole	-4208
▁kisht	-4209
▁lakir	-4210
▁laqab	-4211
▁lubha	-4212
▁mahal	-4213
▁mahki	-4214
▁mahra	-4215
▁malak	-4216
▁mariz	-4217
▁marka	-4218
▁marzi	-4219
▁maula	-4220
▁mehri	-4221
▁mitne	-4222
▁momin	-4223
▁munsi	-4224
▁nagri	-4225
▁nahaq	-4226
▁niyam	-4227
▁pahla	-4228
▁panah	-4229
▁patta	-4230
▁qamar	-4231
▁qisse	-4232
▁quran	-4233
▁rakho	-4234
▁sabaq	-4235
▁sadqe	-4236
▁sakhi	-4237
▁shiar	-4238
▁simat	-4239
▁sutun	-4240
▁tadpa	-4241
▁talat	-4242
▁tevar	-4243
▁tunuk	-4244
▁ungli	-4245
▁uthao	-4246
▁zabun	-4247
▁zehan	-4248
▁abshar	-4249
▁badhta	-4250
▁badhte	-4251
▁bandhe	-4252
▁bataen	-4253
▁bhulen	-4254
▁boriya	-4255
▁bujhte	-4256
▁chakan	-4257
▁chupke	-4258
▁dahliz	-4259
▁daregh	-4260
▁dashna	-4261
▁dhanak	-4262
▁farebi	-4263
▁girani	-4264
▁gulfam	-4265
▁guzare	-4266
▁jalate	-4267
▁kalami	-4268
▁kaleja	-4269
▁kalisa	-4270
▁kamand	-4271
▁kashon	-4272
▁kathin	-4273
▁khaliq	-4274
▁khazaf	-4275
▁kholte	-4276
▁khulte	-4277
▁khulti	-4278
▁kinare	-4279
▁lagate	-4280
▁lagaya	-4281
▁likhte	-4282
▁likkhe	-4283
▁majruh	-4284
▁maqtul	-4285
▁mardan	-4286
▁maryam	-4287
▁miliye	-4288
▁mizaji	-4289
▁motari	-4290
▁muamla	-4291
▁mudava	-4292
▁muhaba	-4293
▁mutlaq	-4294
▁muzhda	-4295
▁nasheb	-4296
▁naubat	-4297
▁nazish	-4298
▁nikala	-4299
▁niyyat	-4300
▁pahron	-4301
▁phansa	-4302
▁phirne	-4303
▁pindar	-4304
▁purani	-4305
▁rahegi	-4306
▁rezish	-4307
▁sadaen	-4308
▁sahari	-4309
▁sajane	-4310
▁sanche	-4311
▁sandal	-4312
▁sargir	-4313
▁sarsar	-4314
▁shafaq	-4315
▁shahar	-4316
▁sunega	-4317
▁sunsan	-4318
▁surkhi	-4319
▁taabir	-4320
▁takrae	-4321
▁talafi	-4322
▁talkhi	-4323
▁tamami	-4324
▁taqsir	-4325
▁tariki	-4326
▁thakan	-4327
▁thandi	-4328
▁ujalon	-4329
▁vahdat	-4330
▁yadgar	-4331
▁zamzam	-4332
▁andhera	-4333
▁andheri	-4334
▁bhulane	-4335
▁bichhde	-4336
▁darvaze	-4337
▁darvesh	-4338
▁dhundta	-4339
▁dukhane	-4340
▁farozan	-4341
▁galiyan	-4342
▁gulabon	-4343
▁guzregi	-4344
▁hijabon	-4345
▁hushyar	-4346
▁iltimas	-4347
▁isharat	-4348
▁istiara	-4349
▁kharabe	-4350
▁khilqat	-4351
▁majburi	-4352
▁masafat	-4353
▁mashrab	-4354
▁nasibon	-4355
▁nazakat	-4356
▁nihayat	-4357
▁pahadon	-4358
▁parchha	-4359
▁sarasar	-4360
▁sarishk	-4361
▁shahron	-4362
▁sharten	-4363
▁shiraza	-4364
▁shoalon	-4365
▁sirijan	-4366
▁suraten	-4367
▁tapidan	-4368
▁ubharne	-4369
▁ubharta	-4370
▁ustuvar	-4371
▁vabasta	-4372
▁viranon	-4373
▁vusaten	-4374
▁chhupana	-4375
▁chingari	-4376
▁dardmand	-4377
▁gustakhi	-4378
▁ishtiyaq	-4379
▁jhilmila	-4380
▁karishme	-4381
▁khuddari	-4382
▁laghzish	-4383
▁mujassam	-4384
▁musavvir	-4385
▁muztarib	-4386
▁nashinon	-4387
▁nikohish	-4388
▁qalandar	-4389
▁raftagan	-4390
▁shahidan	-4391
▁tamashai	-4392
▁tarjuman	-4393
▁giraftari	-4394
▁khushiyon	-4395
▁muskurane	-4396
bs	-4397
sp	-4398
ash	-4399
fur	-4400
fuz	-4401
gaf	-4402
haz	-4403
jad	-4404
mam	-4405
mba	-4406
mut	-4407
qqa	-4408
riq	-4409
tiq	-4410
tke	-4411
tta	-4412
uti	-4413
yaj	-4414
zah	-4415
chir	-4416
dhal	-4417
hart	-4418
hime	-4419
khan	-4420
maga	-4421
rash	-4422
sabz	-4423
sham	-4424
shin	-4425
tvan	-4426
ulat	-4427
ulen	-4428
yani	-4429
▁asr	-4430
▁bos	-4431
▁haf	-4432
▁huz	-4433
▁jul	-4434
▁kud	-4435
▁lok	-4436
▁qah	-4437
▁qai	-4438
▁sav	-4439
▁soi	-4440
▁tit	-4441
▁uga	-4442
▁ulj	-4443
chasp	-4444
iyadi	-4445
khlas	-4446
khtan	-4447
pakta	-4448
shtar	-4449
varon	-4450
▁asli	-4451
▁ayat	-4452
▁bair	-4453
▁bali	-4454
▁barf	-4455
▁base	-4456
▁bhej	-4457
▁bita	-4458
▁dalo	-4459
▁daud	-4460
▁deni	-4461
▁ghul	-4462
▁ghus	-4463
▁gile	-4464
▁habs	-4465
▁hala	-4466
▁imam	-4467
▁inam	-4468
▁itra	-4469
▁jaya	-4470
▁jhap	-4471
▁juzv	-4472
▁kasu	-4473
▁kati	-4474
▁khae	-4475
▁kina	-4476
▁kisa	-4477
▁kush	-4478
▁lale	-4479
▁lave	-4480
▁maam	-4481
▁madd	-4482
▁much	-4483
▁mugh	-4484
▁neki	-4485
▁paki	-4486
▁pale	-4487
▁pand	-4488
▁phal	-4489
▁qael	-4490
▁qasd	-4491
▁qash	-4492
▁riva	-4493
▁saha	-4494
▁sidq	-4495
▁sikh	-4496
▁tain	-4497
▁tode	-4498
▁ugal	-4499
▁uqba	-4500
▁usul	-4501
▁utth	-4502
▁vazi	-4503
▁vazu	-4504
▁yari	-4505
▁zade	-4506
▁zahe	-4507
▁zani	-4508
▁abjad	-4509
▁almas	-4510
▁anjan	-4511
▁arzan	-4512
▁asani	-4513
▁atfal	-4514
▁azari	-4515
▁baiza	-4516
▁balki	-4517
▁bazan	-4518
▁bhige	-4519
▁bhuli	-4520
▁binon	-4521
▁budhi	-4522
▁chhap	-4523
▁chhil	-4524
▁dhale	-4525
▁dhime	-4526
▁dhire	-4527
▁doshi	-4528
▁dukhi	-4529
▁fanus	-4530
▁fuzul	-4531
▁garon	-4532
▁gavar	-4533
▁ghala	-4534
▁ghari	-4535
▁ginti	-4536
▁harja	-4537
▁hazin	-4538
▁hiran	-4539
▁hisar	-4540
▁huren	-4541
▁ijara	-4542
▁ikram	-4543
▁iksir	-4544
▁irade	-4545
▁itrae	-4546
▁jhame	-4547
▁jhuki	-4548
▁kadon	-4549
▁kanan	-4550
▁kante	-4551
▁karim	-4552
▁katar	-4553
▁khadi	-4554
▁khola	-4555
▁kotah	-4556
▁lambi	-4557
▁majaz	-4558
▁mandi	-4559
▁masal	-4560
▁matha	-4561
▁matla	-4562
▁mukha	-4563
▁naddi	-4564
▁nagin	-4565
▁nayan	-4566
▁nigal	-4567
▁nigun	-4568
▁noshi	-4569
▁padin	-4570
▁pamba	-4571
▁purze	-4572
▁qarun	-4573
▁rakht	-4574
▁ranai	-4575
▁rukte	-4576
▁sadaf	-4577
▁sahma	-4578
▁sapna	-4579
▁saron	-4580
▁savar	-4581
▁shuur	-4582
▁sidha	-4583
▁sinan	-4584
▁surme	-4585
▁tabir	-4586
▁tapka	-4587
▁taraj	-4588
▁tarif	-4589
▁thart	-4590
▁tinka	-4591
▁turfa	-4592
▁umidi	-4593
▁unhon	-4594
▁vafur	-4595
▁vajib	-4596
▁vaman	-4597
▁zadon	-4598
▁zalza	-4599
▁zamza	-4600
▁adalat	-4601
▁akhtar	-4602
▁aqibat	-4603
▁asiran	-4604
▁ayyari	-4605
▁azizan	-4606
▁bachan	-4607
▁banate	-4608
▁basana	-4609
▁bedard	-4610
▁bharte	-4611
▁bhulae	-4612
▁bojhal	-4613
▁bujhti	-4614
▁chappe	-4615
▁daghon	-4616
▁faragh	-4617
▁farigh	-4618
▁farzan	-4619
▁gesuon	-4620
▁girdab	-4621
▁gumbad	-4622
▁hijabi	-4623
▁ikhlas	-4624
▁istigh	-4625
▁jagane	-4626
▁janaza	-4627
▁janaze	-4628
▁jhapak	-4629
▁khazan	-4630
▁khitta	-4631
▁kotahi	-4632
▁labrez	-4633
▁larzan	-4634
▁mabada	-4635
▁mahfuz	-4636
▁maktab	-4637
▁mandan	-4638
▁mansab	-4639
▁mantiq	-4640
▁maqdur	-4641
▁markaz	-4642
▁mauquf	-4643
▁mitaya	-4644
▁nadani	-4645
▁navard	-4646
▁navazi	-4647
▁nazari	-4648
▁nazzar	-4649
▁nidhal	-4650
▁padhte	-4651
▁paemal	-4652
▁pahnai	-4653
▁pujari	-4654
▁sadaon	-4655
▁saliqe	-4656
▁saneha	-4657
▁sansen	-4658
▁satvat	-4659
▁saudai	-4660
▁sayyah	-4661
▁shahza	-4662
▁shamat	-4663
▁shamon	-4664
▁sheron	-4665
▁sochti	-4666
▁sozish	-4667
▁sunaen	-4668
▁takhir	-4669
▁taulen	-4670
▁thanda	-4671
▁uftada	-4672
▁umiden	-4673
▁uryani	-4674
▁utarti	-4675
▁aziyyat	-4676
▁bachcha	-4677
▁barhami	-4678
▁barhana	-4679
▁bujhane	-4680
▁buniyad	-4681
▁chahega	-4682
▁chaliye	-4683
▁chhalon	-4684
▁chitvan	-4685
▁dhunden	-4686
▁dildari	-4687
▁dukanon	-4688
▁dumbala	-4689
▁dushnam	-4690
▁ehtiraz	-4691
▁ehtiyaj	-4692
▁gustakh	-4693
▁guzaran	-4694
▁hoshyar	-4695
▁insanon	-4696
▁jhurmut	-4697
▁karbala	-4698
▁khandar	-4699
▁khayali	-4700
▁mardana	-4701
▁motabar	-4702
▁motariz	-4703
▁muraqqa	-4704
▁mushkin	-4705
▁nadamat	-4706
▁nibhane	-4707
▁nikalna	-4708
▁paniyon	-4709
▁poshida	-4710
▁qurbani	-4711
▁rangini	-4712
▁sachcha	-4713
▁sadaqat	-4714
▁samjhun	-4715
▁sanvare	-4716
▁sarsabz	-4717
▁saughat	-4718
▁shakhen	-4719
▁sulagte	-4720
▁tapakta	-4721
▁achchhon	-4722
▁akhirash	-4723
▁ankhiyan	-4724
▁bijliyan	-4725
▁chakidan	-4726
▁chamakti	-4727
▁charasaz	-4728
▁darichon	-4729
▁dilchasp	-4730
▁fariyadi	-4731
▁garmiyan	-4732
▁gharibon	-4733
▁hoshiyar	-4734
▁khvabida	-4735
▁lachakti	-4736
▁muddaten	-4737
▁muqaddam	-4738
▁nakhchir	-4739
▁pahchani	-4740
▁zanjiren	-4741
▁bichhadne	-4742
▁bismillah	-4743
▁haqiqaten	-4744
▁pahchanta	-4745
▁parvarish	-4746
▁qayamaten	-4747
▁sambhalta	-4748
▁shikaston	-4749
▁tharthara	-4750
▁vahshaten	-4751
▁khvahishen	-4752
bus	-4753
did	-4754
gas	-4755
jak	-4756
len	-4757
miz	-4758
mta	-4759
ozi	-4760
qar	-4761
rad	-4762
rin	-4763
tis	-4764
ufl	-4765
uki	-4766
urd	-4767
ush	-4768
utq	-4769
vam	-4770
yak	-4771
yur	-4772
zun	-4773
▁ti	-4774
araj	-4775
arat	-4776
chan	-4777
chiz	-4778
fial	-4779
inon	-4780
iran	-4781
izan	-4782
jrat	-4783
khar	-4784
mbar	-4785
naat	-4786
nami	-4787
onis	-4788
pand	-4789
qana	-4790
rabe	-4791
sile	-4792
susi	-4793
umba	-4794
utam	-4795
yara	-4796
yyan	-4797
zana	-4798
▁adi	-4799
▁ajz	-4800
▁ath	-4801
▁bel	-4802
▁dev	-4803
▁fut	-4804
▁hub	-4805
▁itr	-4806
▁lat	-4807
▁lil	-4808
▁mez	-4809
▁nuz	-4810
▁pit	-4811
▁rui	-4812
▁rul	-4813
▁vaz	-4814
▁zom	-4815
biyat	-4816
dagan	-4817
duman	-4818
gadte	-4819
ganon	-4820
garon	-4821
gavar	-4822
ginon	-4823
haron	-4824
indil	-4825
indon	-4826
iyana	-4827
kenge	-4828
khudi	-4829
liban	-4830
ostan	-4831
shvar	-4832
sitan	-4833
tanon	-4834
taraf	-4835
tisab	-4836
urrad	-4837
vajud	-4838
vidan	-4839
ziyan	-4840
▁abju	-4841
▁able	-4842
▁adhi	-4843
▁ahon	-4844
▁alvi	-4845
▁aoge	-4846
▁arsi	-4847
▁arzi	-4848
▁atak	-4849
▁aven	-4850
▁azan	-4851
▁baba	-4852
▁bale	-4853
▁bano	-4854
▁bhal	-4855
▁biti	-4856
▁chir	-4857
▁dama	-4858
▁dham	-4859
▁dota	-4860
▁dube	-4861
▁gana	-4862
▁ghas	-4863
▁ghon	-4864
▁hail	-4865
▁hara	-4866
▁hauz	-4867
▁hira	-4868
▁hire	-4869
▁inhi	-4870
▁jade	-4871
▁jagi	-4872
▁janm	-4873
▁jhal	-4874
▁jila	-4875
▁karb	-4876
▁kesh	-4877
▁laeq	-4878
▁lahr	-4879
▁lams	-4880
▁late	-4881
▁legi	-4882
▁mahn	-4883
▁makh	-4884
▁mala	-4885
▁meva	-4886
▁miad	-4887
▁misr	-4888
▁napa	-4889
▁nasi	-4890
▁nati	-4891
▁noch	-4892
▁numu	-4893
▁nutq	-4894
▁pane	-4895
▁panj	-4896
▁phut	-4897
▁poli	-4898
▁posh	-4899
▁qafa	-4900
▁qaum	-4901
▁qufl	-4902
▁radd	-4903
▁raja	-4904
▁ruka	-4905
▁sana	-4906
▁saro	-4907
▁sile	-4908
▁sire	-4909
▁soti	-4910
▁subu	-4911
▁tana	-4912
▁tifl	-4913
▁ubhr	-4914
▁udae	-4915
▁udai	-4916
▁utre	-4917
▁utri	-4918
▁zang	-4919
▁zarb	-4920
▁zoam	-4921
khtari	-4922
▁afgan	-4923
▁ahang	-4924
▁autar	-4925
▁bachi	-4926
▁bahak	-4927
▁bahas	-4928
▁banai	-4929
▁barba	-4930
▁barin	-4931
▁basan	-4932
▁bavar	-4933
▁bedil	-4934
▁bekar	-4935
▁bheje	-4936
▁bhigi	-4937
▁bulae	-4938
▁chhua	-4939
▁chikh	-4940
▁daron	-4941
▁dasti	-4942
▁daude	-4943
▁dengi	-4944
▁dhala	-4945
▁dhali	-4946
▁dhani	-4947
▁dharm	-4948
▁duaon	-4949
▁dubta	-4950
▁dubte	-4951
▁dusre	-4952
▁fagan	-4953
▁fahmi	-4954
▁falsa	-4955
▁ganji	-4956
▁gavah	-4957
▁gehun	-4958
▁ghane	-4959
▁girye	-4960
▁halka	-4961
▁harne	-4962
▁hasad	-4963
▁hayai	-4964
▁hijaz	-4965
▁hinai	-4966
▁islam	-4967
▁israr	-4968
▁istiq	-4969
▁isyan	-4970
▁jagte	-4971
▁janon	-4972
▁jhuti	-4973
▁jihat	-4974
▁julte	-4975
▁kafar	-4976
▁kajal	-4977
▁khala	-4978
▁khate	-4979
▁khela	-4980
▁khota	-4981
▁koson	-4982
▁lagne	-4983
▁laute	-4984
▁lihaz	-4985
▁lutma	-4986
▁madar	-4987
▁malul	-4988
▁manda	-4989
▁mazaq	-4990
▁mitna	-4991
▁mitta	-4992
▁monis	-4993
▁naash	-4994
▁nalan	-4995
▁nalon	-4996
▁naqis	-4997
▁naraz	-4998
▁nashv	-4999
▁nauja	-5000
▁nazan	-5001
▁niche	-5002
▁niklo	-5003
▁nizam	-5004
▁nuqta	-5005
▁ojhal	-5006
▁paden	-5007
▁pahal	-5008
▁pahna	-5009
▁pahre	-5010
▁pakad	-5011
▁patte	-5012
▁pumba	-5013
▁putla	-5014
▁qahqa	-5015
▁qalaq	-5016
▁qatar	-5017
▁qayas	-5018
▁ragen	-5019
▁raham	-5020
▁ranga	-5021
▁rukhi	-5022
▁rumuz	-5023
▁rusta	-5024
▁ruton	-5025
▁ruyan	-5026
▁sadha	-5027
▁sadma	-5028
▁saili	-5029
▁sajde	-5030
▁samri	-5031
▁sarir	-5032
▁savad	-5033
▁shekh	-5034
▁sinon	-5035
▁sipah	-5036
▁sipas	-5037
▁takta	-5038
▁tamiz	-5039
▁tapke	-5040
▁tatar	-5041
▁tazgi	-5042
▁tukhm	-5043
▁ujale	-5044
▁uljhi	-5045
▁ummat	-5046
▁uncha	-5047
▁uzlat	-5048
▁vapas	-5049
▁yaden	-5050
▁yaqut	-5051
▁yarab	-5052
▁zalil	-5053
▁zarar	-5054
▁zebai	-5055
▁zohra	-5056
▁ahangi	-5057
▁amanat	-5058
▁arzani	-5059
▁bagula	-5060
▁bahami	-5061
▁bairun	-5062
▁bakhil	-5063
▁barkha	-5064
▁barsar	-5065
▁bedari	-5066
▁bhadke	-5067
▁bikhri	-5068
▁chalak	-5069
▁chhale	-5070
▁chheda	-5071
▁chhote	-5072
▁chhoti	-5073
▁chhupe	-5074
▁darazi	-5075
▁darpai	-5076
▁derina	-5077
▁dobara	-5078
▁dostan	-5079
▁etiraf	-5080
▁farang	-5081
▁faslen	-5082
▁faulad	-5083
▁gahrai	-5084
▁gautam	-5085
▁gudazi	-5086
▁guzrin	-5087
▁harjai	-5088
▁harzah	-5089
▁hijrat	-5090
▁hovega	-5091
▁infial	-5092
▁irshad	-5093
▁jalana	-5094
▁jalane	-5095
▁jalvat	-5096
▁jamhur	-5097
▁jatane	-5098
▁jhijak	-5099
▁jhonke	-5100
▁khatak	-5101
▁khirqa	-5102
▁khufta	-5103
▁lahron	-5104
▁maarka	-5105
▁madara	-5106
▁mamura	-5107
▁mardum	-5108
▁marjan	-5109
▁mashuq	-5110
▁miskin	-5111
▁mohkam	-5112
▁muflis	-5113
▁mujrim	-5114
▁nachiz	-5115
▁namazi	-5116
▁namnak	-5117
▁nazare	-5118
▁nindon	-5119
▁nistan	-5120
▁padiye	-5121
▁paedar	-5122
▁pairon	-5123
▁pakiza	-5124
▁parcha	-5125
▁pardaz	-5126
▁phanse	-5127
▁phenka	-5128
▁piyala	-5129
▁qabaen	-5130
▁qanaat	-5131
▁rahiye	-5132
▁rangat	-5133
▁roenge	-5134
▁rukhan	-5135
▁rulaya	-5136
▁sajaya	-5137
▁samete	-5138
▁satata	-5139
▁satati	-5140
▁saugan	-5141
▁shahin	-5142
▁shahon	-5143
▁shigaf	-5144
▁shikam	-5145
▁shughl	-5146
▁sirish	-5147
▁sochen	-5148
▁sochna	-5149
▁sudhar	-5150
▁sunati	-5151
▁sundar	-5152
▁supurd	-5153
▁takiya	-5154
▁tariqe	-5155
▁tausan	-5156
▁thukra	-5157
▁uljhan	-5158
▁usulon	-5159
▁utthen	-5160
▁zambur	-5161
▁zangar	-5162
▁abginon	-5163
▁avvalin	-5164
▁bachane	-5165
▁bachche	-5166
▁badalna	-5167
▁badalti	-5168
▁bahlaen	-5169
▁baithna	-5170
▁barasti	-5171
▁batiyan	-5172
▁bavajud	-5173
▁chashni	-5174
▁chaunka	-5175
▁dalilen	-5176
▁dikhaen	-5177
▁dopahar	-5178
▁faraham	-5179
▁farmate	-5180
▁ghabrae	-5181
▁ghataon	-5182
▁girafta	-5183
▁guzarti	-5184
▁javedan	-5185
▁jhankar	-5186
▁joshish	-5187
▁kachcha	-5188
▁kahenge	-5189
▁khabron	-5190
▁khandan	-5191
▁kharosh	-5192
▁khirami	-5193
▁kholiye	-5194
▁khvaron	-5195
▁kishvar	-5196
▁maashuq	-5197
▁mahakta	-5198
▁mahakti	-5199
▁mashriq	-5200
▁murshid	-5201
▁nagavar	-5202
▁nakhuda	-5203
▁neshtar	-5204
▁nishtar	-5205
▁numaish	-5206
▁pabandi	-5207
▁parvane	-5208
▁pasbani	-5209
▁pichhli	-5210
▁puchhna	-5211
▁puchhne	-5212
▁qatilon	-5213
▁rindana	-5214
▁salasil	-5215
▁sannate	-5216
▁sarkash	-5217
▁sharara	-5218
▁sharmae	-5219
▁shitabi	-5220
▁sikhaya	-5221
▁silsile	-5222
▁sokhtan	-5223
▁tajrabe	-5224
▁tarasta	-5225
▁tayyari	-5226
▁ubharti	-5227
▁virasat	-5228
▁zadagan	-5229
▁zamzama	-5230
▁ashiqana	-5231
▁badaulat	-5232
▁barishen	-5233
▁bartaraf	-5234
▁bhagenge	-5235
▁bikharta	-5236
▁chanchal	-5237
▁chhupaya	-5238
▁dabistan	-5239
▁dekhunga	-5240
▁dhadakne	-5241
▁dikhlaen	-5242
▁farishta	-5243
▁ghammazi	-5244
▁gulsitan	-5245
▁hasraten	-5246
▁hasraton	-5247
▁ikhtilat	-5248
▁istighna	-5249
▁khastagi	-5250
▁khayalat	-5251
▁khiraman	-5252
▁marduman	-5253
▁mausamon	-5254
▁mukhtari	-5255
▁pahunchi	-5256
▁pankhudi	-5257
▁shanasai	-5258
▁sochenge	-5259
▁tarbiyat	-5260
▁tashvish	-5261
▁tavaqqoa	-5262
▁thokaren	-5263
▁bichhadna	-5264
▁bichhadte	-5265
▁hindostan	-5266
▁kahaniyan	-5267
▁muqaddame	-5268
▁pahchante	-5269
▁rahnumaon	-5270
▁ranjishen	-5271
▁sargirani	-5272
▁shokhiyan	-5273
▁bulandiyon	-5274
▁mubarakbad	-5275
▁pachhtaoge	-5276
▁shahanshah	-5277
▁sharmindagi	-5278
do	-5279
ez	-5280
ih	-5281
ko	-5282
ng	-5283
oe	-5284
sm	-5285
to	-5286
ua	-5287
uj	-5288
baz	-5289
bib	-5290
dae	-5291
dun	-5292
iza	-5293
lid	-5294
qqi	-5295
sur	-5296
tub	-5297
uli	-5298
ust	-5299
vae	-5300
vah	-5301
vil	-5302
yal	-5303
yen	-5304
zad	-5305
zgi	-5306
▁ea	-5307
▁or	-5308
adon	-5309
anki	-5310
bani	-5311
bard	-5312
chhi	-5313
chin	-5314
fhum	-5315
ghma	-5316
gina	-5317
hrab	-5318
hvin	-5319
ilon	-5320
inda	-5321
irab	-5322
isar	-5323
jazi	-5324
jiyo	-5325
jize	-5326
kara	-5327
lisi	-5328
mail	-5329
mash	-5330
mast	-5331
oner	-5332
psin	-5333
raqa	-5334
sain	-5335
sata	-5336
sega	-5337
shed	-5338
sida	-5339
ssar	-5340
ubat	-5341
ukat	-5342
zani	-5343
zdil	-5344
▁abi	-5345
▁adl	-5346
▁afi	-5347
▁arm	-5348
▁bap	-5349
▁car	-5350
▁dui	-5351
▁dul	-5352
▁god	-5353
▁huj	-5354
▁izn	-5355
▁jiy	-5356
▁jot	-5357
▁kad	-5358
▁kap	-5359
▁kus	-5360
▁lao	-5361
▁mel	-5362
▁mua	-5363
▁nin	-5364
▁pag	-5365
▁raj	-5366
▁rit	-5367
▁uzv	-5368
▁zak	-5369
durat	-5370
ebana	-5371
fatan	-5372
fazat	-5373
galon	-5374
hanat	-5375
hatke	-5376
hulhe	-5377
irana	-5378
ishon	-5379
jaish	-5380
khmur	-5381
marat	-5382
qabat	-5383
siyon	-5384
tasil	-5385
unain	-5386
vandi	-5387
visht	-5388
▁agli	-5389
▁alud	-5390
▁amez	-5391
▁asha	-5392
▁banj	-5393
▁bhuk	-5394
▁daro	-5395
▁dhaj	-5396
▁dhum	-5397
▁dudh	-5398
▁eati	-5399
▁elan	-5400
▁fart	-5401
▁fauj	-5402
▁ghol	-5403
▁hata	-5404
▁hile	-5405
▁huon	-5406
▁inqi	-5407
▁iran	-5408
▁isvi	-5409
▁itti	-5410
▁jali	-5411
▁jiti	-5412
▁jiya	-5413
▁jura	-5414
▁juya	-5415
▁khoj	-5416
▁kula	-5417
▁kure	-5418
▁ladi	-5419
▁laen	-5420
▁laha	-5421
▁laqa	-5422
▁laun	-5423
▁leve	-5424
▁lije	-5425
▁loge	-5426
▁logo	-5427
▁mars	-5428
▁matn	-5429
▁mela	-5430
▁menh	-5431
▁naba	-5432
▁nafa	-5433
▁nafs	-5434
▁naqs	-5435
▁nara	-5436
▁nata	-5437
▁nibh	-5438
▁nida	-5439
▁nosh	-5440
▁paha	-5441
▁pahr	-5442
▁pati	-5443
▁pave	-5444
▁phad	-5445
▁pigh	-5446
▁pile	-5447
▁pina	-5448
▁pure	-5449
▁qadd	-5450
▁qazi	-5451
▁riha	-5452
▁roun	-5453
▁saut	-5454
▁shia	-5455
▁sira	-5456
▁sota	-5457
▁tarf	-5458
▁tezi	-5459
▁tika	-5460
▁tulu	-5461
▁ulta	-5462
▁urdu	-5463
▁uruj	-5464
▁yani	-5465
jammul	-5466
milane	-5467
pathon	-5468
veshon	-5469
▁ablon	-5470
▁adaen	-5471
▁aengi	-5472
▁afrin	-5473
▁alast	-5474
▁amari	-5475
▁angur	-5476
▁aungi	-5477
▁azizo	-5478
▁bahti	-5479
▁bajte	-5480
▁balon	-5481
▁banao	-5482
▁banne	-5483
▁baran	-5484
▁barik	-5485
▁bazon	-5486
▁bigde	-5487
▁bilak	-5488
▁budhe	-5489
▁chasm	-5490
▁chubh	-5491
▁chust	-5492
▁dalin	-5493
▁damon	-5494
▁dauda	-5495
▁davan	-5496
▁davar	-5497
▁devta	-5498
▁dhota	-5499
▁durae	-5500
▁faroz	-5501
▁farsa	-5502
▁fasan	-5503
▁ganga	-5504
▁garaj	-5505
▁garan	-5506
▁ghade	-5507
▁ghaib	-5508
▁ghule	-5509
▁ghusl	-5510
▁giton	-5511
▁gohar	-5512
▁goyai	-5513
▁guzin	-5514
▁habib	-5515
▁hanse	-5516
▁haris	-5517
▁hudud	-5518
▁jagae	-5519
▁jagne	-5520
▁janam	-5521
▁javaz	-5522
▁jazbe	-5523
▁jhele	-5524
▁joban	-5525
▁kahka	-5526
▁kaifi	-5527
▁kanta	-5528
▁kashf	-5529
▁khaen	-5530
▁khema	-5531
▁kholi	-5532
▁koshi	-5533
▁kudha	-5534
▁kuhan	-5535
▁ladne	-5536
▁lagin	-5537
▁lahza	-5538
▁lasha	-5539
▁luten	-5540
▁lutne	-5541
▁maash	-5542
▁mabad	-5543
▁macha	-5544
▁madra	-5545
▁mafar	-5546
▁malik	-5547
▁maren	-5548
▁mauzu	-5549
▁meyar	-5550
▁milao	-5551
▁mizan	-5552
▁mohan	-5553
▁muhib	-5554
▁munim	-5555
▁munin	-5556
▁muqar	-5557
▁murid	-5558
▁nadir	-5559
▁nasha	-5560
▁nazil	-5561
▁nicho	-5562
▁numai	-5563
▁padun	-5564
▁pahan	-5565
▁pahra	-5566
▁parae	-5567
▁pasti	-5568
▁phuli	-5569
▁pilae	-5570
▁putle	-5571
▁pyala	-5572
▁pyara	-5573
▁qayam	-5574
▁qumri	-5575
▁rabti	-5576
▁ragon	-5577
▁rutba	-5578
▁rutha	-5579
▁ruyon	-5580
▁safed	-5581
▁sahir	-5582
▁sahne	-5583
▁sahte	-5584
▁samai	-5585
▁samaj	-5586
▁sanat	-5587
▁sapne	-5588
▁satae	-5589
▁shait	-5590
▁shami	-5591
▁shuaa	-5592
▁sikke	-5593
▁simin	-5594
▁subut	-5595
▁taana	-5596
▁takan	-5597
▁talne	-5598
▁tamir	-5599
▁tanke	-5600
▁taras	-5601
▁tasma	-5602
▁taula	-5603
▁tavah	-5604
▁thode	-5605
▁tinke	-5606
▁todta	-5607
▁tohfa	-5608
▁tutne	-5609
▁udane	-5610
▁vasta	-5611
▁yaksu	-5612
urdagan	-5613
▁abgina	-5614
▁amiron	-5615
▁andaze	-5616
▁angbin	-5617
▁aqidon	-5618
▁arzuen	-5619
▁ashjar	-5620
▁badhti	-5621
▁bagule	-5622
▁baithi	-5623
▁bakhti	-5624
▁bakhud	-5625
▁balaon	-5626
▁barshi	-5627
▁basaya	-5628
▁batata	-5629
▁bataya	-5630
▁bayani	-5631
▁bazuon	-5632
▁bebasi	-5633
▁bhadka	-5634
▁bhajan	-5635
▁bhalai	-5636
▁bhulna	-5637
▁bikhre	-5638
▁bilkul	-5639
▁binish	-5640
▁bujhne	-5641
▁bulate	-5642
▁buzdil	-5643
▁charon	-5644
▁chatak	-5645
▁chhani	-5646
▁chhede	-5647
▁chulhe	-5648
▁dahqan	-5649
▁darang	-5650
▁daraya	-5651
▁darham	-5652
▁dastur	-5653
▁dekhti	-5654
▁dhalne	-5655
▁dulhan	-5656
▁durust	-5657
▁faisle	-5658
▁fakhta	-5659
▁faqiri	-5660
▁farman	-5661
▁faslon	-5662
▁firaun	-5663
▁gahani	-5664
▁gavahi	-5665
▁ghanim	-5666
▁gharbi	-5667
▁ghatte	-5668
▁ghumte	-5669
▁gulgun	-5670
▁guzara	-5671
▁guzren	-5672
▁hafize	-5673
▁hamvar	-5674
▁hansna	-5675
▁hansta	-5676
▁hansti	-5677
▁hasham	-5678
▁hovegi	-5679
▁husain	-5680
▁huzuri	-5681
▁imarat	-5682
▁jafaon	-5683
▁janana	-5684
▁javega	-5685
▁jhadte	-5686
▁jhatke	-5687
▁jinhon	-5688
▁karegi	-5689
▁kargar	-5690
▁kariye	-5691
▁katega	-5692
▁kaunde	-5693
▁khiraj	-5694
▁khosha	-5695
▁khulne	-5696
▁khurda	-5697
▁kyunke	-5698
▁ladkon	-5699
▁lillah	-5700
▁maamur	-5701
▁madfan	-5702
▁mafhum	-5703
▁mahaba	-5704
▁mahaul	-5705
▁majazi	-5706
▁mallah	-5707
▁manaen	-5708
▁manata	-5709
▁mansha	-5710
▁mansur	-5711
▁masrur	-5712
▁maujon	-5713
▁mauzun	-5714
▁mehrab	-5715
▁mimbar	-5716
▁mitate	-5717
▁muamma	-5718
▁mubham	-5719
▁mughba	-5720
▁mulzim	-5721
▁munsif	-5722
▁murdan	-5723
▁nabard	-5724
▁nachte	-5725
▁nainan	-5726
▁naranj	-5727
▁natija	-5728
▁nazmen	-5729
▁nazuki	-5730
▁nirale	-5731
▁nurani	-5732
▁paimai	-5733
▁paraya	-5734
▁parbat	-5735
▁patang	-5736
▁pathra	-5737
▁payami	-5738
▁pechan	-5739
▁peshva	-5740
▁phisal	-5741
▁pilaya	-5742
▁pioner	-5743
▁piyale	-5744
▁poshak	-5745
▁pukaro	-5746
▁punjab	-5747
▁purkar	-5748
▁qashqa	-5749
▁raanai	-5750
▁raihan	-5751
▁rangon	-5752
▁ravana	-5753
▁resham	-5754
▁rindon	-5755
▁roengi	-5756
▁rulana	-5757
▁safine	-5758
▁sairab	-5759
▁samaat	-5760
▁samjhi	-5761
▁sarhad	-5762
▁savere	-5763
▁sehhat	-5764
▁shahla	-5765
▁shakeb	-5766
▁sharif	-5767
▁sharqi	-5768
▁shuaon	-5769
▁sidhar	-5770
▁sikhae	-5771
▁sochte	-5772
▁suhana	-5773
▁suhane	-5774
▁sultan	-5775
▁sumbul	-5776
▁sunaun	-5777
▁taanon	-5778
▁tabahi	-5779
▁tahsin	-5780
▁tajdid	-5781
▁talvon	-5782
▁taqaze	-5783
▁taqlid	-5784
▁uqubat	-5785
▁uthaen	-5786
▁uthata	-5787
▁vadiat	-5788
▁vapsin	-5789
▁vashud	-5790
▁vazifa	-5791
▁yagana	-5792
▁zahrab	-5793
▁zarron	-5794
▁adakari	-5795
▁ashiqon	-5796
▁avargan	-5797
▁badalta	-5798
▁badlega	-5799
▁badmast	-5800
▁badshah	-5801
▁bahalta	-5802
▁baithen	-5803
▁baithne	-5804
▁basenge	-5805
▁bechara	-5806
▁bichhda	-5807
▁bujhana	-5808
▁burhani	-5809
▁chadhne	-5810
▁chashme	-5811
▁chhalka	-5812
▁chhanti	-5813
▁chhupti	-5814
▁churaya	-5815
▁dafatan	-5816
▁dahshat	-5817
▁damanon	-5818
▁danista	-5819
▁darakht	-5820
▁daricha	-5821
▁darshan	-5822
▁dekhega	-5823
▁dekhiyo	-5824
▁dekhoge	-5825
▁dhundla	-5826
▁dhundle	-5827
▁eatibar	-5828
▁ehtimam	-5829
▁farangi	-5830
▁fasurda	-5831
▁ghalati	-5832
▁ghazlen	-5833
▁ghirbal	-5834
▁ghisega	-5835
▁ghulami	-5836
▁gireban	-5837
▁guftani	-5838
▁gulchin	-5839
▁gulkhan	-5840
▁halanki	-5841
▁hamdamo	-5842
▁hangame	-5843
▁hararat	-5844
▁hifazat	-5845
▁intiqam	-5846
▁intizam	-5847
▁jagmaga	-5848
▁jaiyega	-5849
▁javahar	-5850
▁javenge	-5851
▁jhamele	-5852
▁kaliyon	-5853
▁kardani	-5854
▁kaunain	-5855
▁khajlat	-5856
▁khaksar	-5857
▁khazane	-5858
▁khilaun	-5859
▁khudaon	-5860
▁khushki	-5861
▁kudurat	-5862
▁maddham	-5863
▁makhmur	-5864
▁manenge	-5865
▁mashgha	-5866
▁moajize	-5867
▁muflisi	-5868
▁muhayya	-5869
▁mukarne	-5870
▁munajat	-5871
▁munasib	-5872
▁muqadda	-5873
▁nazzare	-5874
▁nikalta	-5875
▁palatna	-5876
▁parcham	-5877
▁parinda	-5878
▁pariyan	-5879
▁puchhen	-5880
▁qahqaha	-5881
▁rakhiyo	-5882
▁rakkhun	-5883
▁raqabat	-5884
▁rivayat	-5885
▁sadiyan	-5886
▁sakinan	-5887
▁samjhae	-5888
▁sanvara	-5889
▁sarvari	-5890
▁shadman	-5891
▁shagufe	-5892
▁shahana	-5893
▁shahpar	-5894
▁shahvar	-5895
▁shakeba	-5896
▁shaklen	-5897
▁shanasi	-5898
▁sharbat	-5899
▁shaukat	-5900
▁shikari	-5901
▁sikhata	-5902
▁tadapna	-5903
▁tadapta	-5904
▁tafraqa	-5905
▁tajahul	-5906
▁taraqqi	-5907
▁tarasha	-5908
▁tariqat	-5909
▁thahren	-5910
▁ulajhna	-5911
▁ulajhne	-5912
▁ulajhte	-5913
▁zahiran	-5914
▁zehanat	-5915
▁adavaten	-5916
▁armughan	-5917
▁bikharna	-5918
▁buzurgon	-5919
▁chamakte	-5920
▁chashmon	-5921
▁chhidken	-5922
▁chidiyon	-5923
▁dhundega	-5924
▁dilbaron	-5925
▁doshizgi	-5926
▁dushvari	-5927
▁ghaebana	-5928
▁ghaliban	-5929
▁ghariban	-5930
▁ghulamon	-5931
▁gunjaish	-5932
▁istiqbal	-5933
▁jamiyyat	-5934
▁jangalon	-5935
▁karvaten	-5936
▁khilauna	-5937
▁khinchun	-5938
▁kijiyega	-5939
▁mahfilon	-5940
▁maidanon	-5941
▁majburon	-5942
▁mayassar	-5943
▁mukhalif	-5944
▁muskurae	-5945
▁muttasil	-5946
▁nauhagar	-5947
▁navazish	-5948
▁niyazana	-5949
▁parvanon	-5950
▁phansaya	-5951
▁qurbaton	-5952
▁rahzanon	-5953
▁raunaqen	-5954
▁samajhti	-5955
▁samarqan	-5956
▁sambhala	-5957
▁samjhata	-5958
▁samjhate	-5959
▁sanvarne	-5960
▁saugandh	-5961
▁sazishen	-5962
▁shahzada	-5963
▁sidhiyan	-5964
▁sunaenge	-5965
▁tabiaton	-5966
▁tahayyur	-5967
▁tajammul	-5968
▁takallum	-5969
▁thaharti	-5970
▁ubhrenge	-5971
▁udasiyon	-5972
▁vafadari	-5973
▁zalzalon	-5974
▁zamurrad	-5975
▁bujhaungi	-5976
▁chhalakte	-5977
▁chhodenge	-5978
▁durveshon	-5979
▁ehtiyatan	-5980
▁futpathon	-5981
▁insaniyat	-5982
▁khairiyat	-5983
▁khushamad	-5984
▁mahramana	-5985
▁mayusiyon	-5986
▁mushkilen	-5987
▁parchhain	-5988
▁rustakhez	-5989
▁sambhalun	-5990
▁shaguftan	-5991
▁shikastan	-5992
▁tarjumani	-5993
▁vamandagi	-5994
▁badakhshan	-5995
▁barbadiyon	-5996
▁gunahgaron	-5997
▁ikhtilafon	-5998
▁jhilmilane	-5999
▁mohabbaten	-6000
▁nishaniyan	-6001
▁shaguftagi	-6002
▁shikastagi	-6003
▁shikayaten	-6004
▁mehrbaniyan	-6005
▁pachhtaiyega	-6006
az	-6007
ek	-6008
em	-6009
eq	-6010
gr	-6011
jo	-6012
yu	-6013
zo	-6014
bla	-6015
cal	-6016
daa	-6017
den	-6018
dhi	-6019
edi	-6020
eng	-6021
faa	-6022
fab	-6023
gai	-6024
ghe	-6025
ghi	-6026
gru	-6027
hag	-6028
hne	-6029
ini	-6030
jaj	-6031
jur	-6032
kte	-6033
las	-6034
lte	-6035
mum	-6036
mus	-6037
nad	-6038
naz	-6039
nbe	-6040
ope	-6041
pka	-6042
qad	-6043
qid	-6044
qil	-6045
qiq	-6046
qir	-6047
qon	-6048
qub	-6049
rih	-6050
tir	-6051
vez	-6052
yai	-6053
zab	-6054
zaz	-6055
zen	-6056
zon	-6057
zub	-6058
▁gi	-6059
▁nu	-6060
▁of	-6061
atub	-6062
char	-6063
daba	-6064
diya	-6065
fani	-6066
fice	-6067
gate	-6068
ghni	-6069
hada	-6070
hang	-6071
hayy	-6072
hent	-6073
hida	-6074
hken	-6075
hmat	-6076
ikat	-6077
jhae	-6078
jhke	-6079
jhla	-6080
kegi	-6081
mang	-6082
mari	-6083
mosh	-6084
nakh	-6085
ssti	-6086
taat	-6087
utar	-6088
uton	-6089
vane	-6090
vare	-6091
vvar	-6092
vvis	-6093
yula	-6094
zand	-6095
▁afv	-6096
▁ahm	-6097
▁aqd	-6098
▁bav	-6099
hli	-6100
dash	-6101
dhai	-6102
ikab	-6103
ubun	-6104
▁anj	-6105
▁des	-6106
▁dol	-6107
▁eng	-6108
▁eur	-6109
▁fil	-6110
▁gud	-6111
▁ifa	-6112
▁kav	-6113
▁kui	-6114
▁laj	-6115
▁lin	-6116
▁nal	-6117
▁neh	-6118
▁pao	-6119
▁pap	-6120
▁paz	-6121
▁pon	-6122
▁puk	-6123
▁qab	-6124
▁qam	-6125
▁reg	-6126
▁rim	-6127
▁sim	-6128
▁son	-6129
▁tis	-6130
▁uns	-6131
▁utr	-6132
▁vam	-6133
bakht	-6134
chare	-6135
chida	-6136
darsh	-6137
dasta	-6138
gangi	-6139
ghmaz	-6140
hakna	-6141
hinon	-6142
hoshi	-6143
humat	-6144
irain	-6145
ishti	-6146
istar	-6147
jalat	-6148
kafat	-6149
kahat	-6150
kanat	-6151
kayak	-6152
khlaq	-6153
krana	-6154
manan	-6155
mayat	-6156
rafil	-6157
raton	-6158
shale	-6159
shtan	-6160
tabiq	-6161
takta	-6162
tical	-6163
vaiye	-6164
zilat	-6165
ziron	-6166
▁aaza	-6167
▁adai	-6168
▁aham	-6169
▁aiyo	-6170
▁alif	-6171
▁asal	-6172
▁aseb	-6173
▁atka	-6174
▁aula	-6175
▁baaz	-6176
▁badr	-6177
▁bain	-6178
▁bhab	-6179
▁bhai	-6180
▁bhap	-6181
▁bhor	-6182
▁bote	-6183
▁burj	-6184
▁bute	-6185
▁chau	-6186
▁chob	-6187
▁chuk	-6188
▁dahi	-6189
▁data	-6190
▁dhoe	-6191
▁doge	-6192
▁dubi	-6193
▁durd	-6194
▁durr	-6195
▁gher	-6196
▁giya	-6197
▁guza	-6198
▁haft	-6199
vase	-6200
▁hamd	-6201
▁hami	-6202
▁haqq	-6203
▁hasb	-6204
▁hasi	-6205
▁haul	-6206
▁hich	-6207
▁hubb	-6208
▁iram	-6209
▁jaib	-6210
▁jame	-6211
▁jhim	-6212
▁jhun	-6213
▁jogi	-6214
▁kabk	-6215
▁kama	-6216
▁kasb	-6217
▁kase	-6218
▁khis	-6219
▁khoi	-6220
▁kibr	-6221
▁lait	-6222
▁lana	-6223
▁lijo	-6224
▁maab	-6225
▁mahk	-6226
▁maik	-6227
▁mali	-6228
▁maul	-6229
▁mele	-6230
▁milo	-6231
▁miti	-6232
▁moda	-6233
▁mung	-6234
▁nasl	-6235
▁neze	-6236
▁pado	-6237
▁pala	-6238
▁past	-6239
▁phat	-6240
▁pita	-6241
▁piyo	-6242
▁puja	-6243
▁pura	-6244
▁qadi	-6245
▁reng	-6246
▁rezi	-6247
▁roka	-6248
▁rozi	-6249
▁sahe	-6250
▁sanv	-6251
▁satr	-6252
▁shud	-6253
▁sirr	-6254
▁sone	-6255
▁suli	-6256
▁take	-6257
▁thal	-6258
▁udta	-6259
▁ugti	-6260
▁ujda	-6261
▁ujdi	-6262
▁ukha	-6263
▁ulma	-6264
▁ulte	-6265
▁utne	-6266
▁vasi	-6267
▁zaif	-6268
▁zeba	-6269
▁zula	-6270
dakpan	-6271
hammad	-6272
hammul	-6273
hayyul	-6274
hurdan	-6275
iyaten	-6276
khenge	-6277
khushi	-6278
lemani	-6279
mandgi	-6280
mardar	-6281
shiman	-6282
udhvin	-6283
▁afkar	-6284
▁afroz	-6285
▁ahkam	-6286
▁ainon	-6287
▁aivan	-6288
▁alhan	-6289
▁amrit	-6290
▁angar	-6291
▁ankhi	-6292
▁aqvam	-6293
▁arasi	-6294
▁arini	-6295
▁asiya	-6296
▁auham	-6297
▁ayagh	-6298
▁azada	-6299
▁azara	-6300
▁azmae	-6301
▁azmai	-6302
▁babat	-6303
▁badhi	-6304
▁badkh	-6305
▁badon	-6306
▁bahan	-6307
▁bahke	-6308
▁bahne	-6309
▁bahra	-6310
▁bajen	-6311
▁bajti	-6312
▁banjh	-6313
▁banke	-6314
▁basae	-6315
▁baste	-6316
▁behad	-6317
▁bhaga	-6318
▁bhent	-6319
▁bhigo	-6320
▁bholi	-6321
▁bidat	-6322
▁bisan	-6323
▁bolun	-6324
▁botal	-6325
▁bujhi	-6326
▁bukhl	-6327
▁burda	-6328
▁burqa	-6329
▁charb	-6330
▁chire	-6331
▁chori	-6332
▁chusi	-6333
▁dabiz	-6334
▁dafna	-6335
▁dahak	-6336
▁dahum	-6337
▁dakan	-6338
▁dalan	-6339
▁dalen	-6340
▁dalte	-6341
▁danai	-6342
▁danon	-6343
▁daran	-6344
▁dehli	-6345
▁dhuen	-6346
▁dilae	-6347
▁dilai	-6348
▁dilan	-6349
▁dubna	-6350
▁faede	-6351
▁fateh	-6352
▁fidai	-6353
▁gardi	-6354
▁ghire	-6355
▁ghota	-6356
▁ghula	-6357
▁ginva	-6358
▁girti	-6359
▁gunji	-6360
▁gusil	-6361
▁haden	-6362
▁haqir	-6363
▁hasan	-6364
▁hasid	-6365
▁havva	-6366
▁hilte	-6367
▁hubab	-6368
▁hujra	-6369
▁husan	-6370
▁ibram	-6371
▁isbat	-6372
▁itaat	-6373
▁jagir	-6374
▁jahil	-6375
▁jalna	-6376
▁jhela	-6377
▁jiyun	-6378
▁kadvi	-6379
▁kahve	-6380
▁kamon	-6381
▁kamzo	-6382
▁kapde	-6383
▁kasar	-6384
▁kasho	-6385
▁katai	-6386
▁katne	-6387
▁kauka	-6388
▁khaif	-6389
▁khapa	-6390
▁kholo	-6391
▁kinar	-6392
▁kisra	-6393
▁komal	-6394
▁kunan	-6395
▁kunve	-6396
▁kyari	-6397
▁laega	-6398
▁lagao	-6399
▁lagav	-6400
▁latak	-6401
▁lauta	-6402
▁likhe	-6403
▁likhi	-6404
▁lipte	-6405
▁lutta	-6406
▁maana	-6407
▁madud	-6408
▁mafat	-6409
▁magas	-6410
▁majal	-6411
▁malte	-6412
▁manin	-6413
▁mante	-6414
▁maram	-6415
▁maron	-6416
▁masih	-6417
▁mauqa	-6418
▁milae	-6419
▁miras	-6420
▁mohal	-6421
▁mujko	-6422
▁murat	-6423
▁naara	-6424
▁nacho	-6425
▁namat	-6426
▁nasab	-6427
▁nasur	-6428
▁nazik	-6429
▁nemat	-6430
▁nezon	-6431
▁nichi	-6432
▁nisti	-6433
▁nujum	-6434
▁nuzul	-6435
▁padhe	-6436
▁padna	-6437
▁paega	-6438
▁pahni	-6439
▁pakdi	-6440
▁palti	-6441
▁pamal	-6442
▁parsa	-6443
▁payan	-6444
▁pazir	-6445
▁peche	-6446
▁phiki	-6447
▁phulo	-6448
▁piroe	-6449
▁piron	-6450
▁pitam	-6451
▁putli	-6452
▁qaumi	-6453
▁qimar	-6454
▁rabta	-6455
▁racha	-6456
▁ragni	-6457
▁rahil	-6458
▁rakhe	-6459
▁rasul	-6460
▁rekha	-6461
▁rikab	-6462
▁rindi	-6463
▁riton	-6464
▁roega	-6465
▁rokna	-6466
▁rozon	-6467
▁rukna	-6468
▁rukta	-6469
▁rukti	-6470
▁rukun	-6471
▁rusum	-6472
▁ruthi	-6473
▁sabil	-6474
▁sadme	-6475
▁sahna	-6476
▁samae	-6477
▁samet	-6478
▁sarai	-6479
▁sarfa	-6480
▁sarka	-6481
▁sarna	-6482
▁sarod	-6483
▁saste	-6484
▁shole	-6485
▁shuda	-6486
▁shust	-6487
▁sidhe	-6488
▁sifar	-6489
▁sikhi	-6490
▁soche	-6491
▁suhag	-6492
▁sujud	-6493
▁sukhe	-6494
▁tahal	-6495
▁takte	-6496
▁takti	-6497
▁talif	-6498
▁talim	-6499
▁tanab	-6500
▁tapte	-6501
▁taraz	-6502
▁tasht	-6503
▁tavaz	-6504
▁tavil	-6505
▁tedha	-6506
▁tedhe	-6507
▁thame	-6508
▁thami	-6509
▁thani	-6510
▁tifli	-6511
▁titli	-6512
▁todte	-6513
▁tonbe	-6514
▁tukda	-6515
▁tulsi	-6516
▁tutin	-6517
▁tutte	-6518
▁tuyur	-6519
▁uchha	-6520
▁udata	-6521
▁uftad	-6522
▁ullah	-6523
▁umang	-6524
▁umron	-6525
▁unche	-6526
▁utari	-6527
▁uthen	-6528
▁uthne	-6529
▁vahid	-6530
▁vaqfa	-6531
▁varis	-6532
▁vasma	-6533
▁zarif	-6534
▁zaron	-6535
▁zubun	-6536
faqaton	-6537
nakhdan	-6538
▁adabon	-6539
▁adarsh	-6540
▁afrang	-6541
▁aiyega	-6542
▁akhlaq	-6543
▁anasir	-6544
▁andozi	-6545
▁angara	-6546
▁anhken	-6547
▁asadul	-6548
▁asaish	-6549
▁ashobi	-6550
▁astane	-6551
▁ayadat	-6552
▁azaran	-6553
▁azizon	-6554
▁bachen	-6555
▁bachna	-6556
▁bachne	-6557
▁badhna	-6558
▁badiya	-6559
▁bahaya	-6560
▁bahlai	-6561
▁bakari	-6562
▁banana	-6563
▁bantne	-6564
▁bantte	-6565
▁bardar	-6566
▁barfab	-6567
▁bargad	-6568
▁barvar	-6569
▁baryab	-6570
▁batlao	-6571
▁bazari	-6572
▁bechne	-6573
▁behosh	-6574
▁bhagte	-6575
▁bharne	-6576
▁bharun	-6577
▁bhigti	-6578
▁bigado	-6579
▁binash	-6580
▁bolega	-6581
▁bujhae	-6582
▁bujhta	-6583
▁bukhar	-6584
▁bulane	-6585
▁chahti	-6586
▁chande	-6587
▁chaval	-6588
▁chhate	-6589
▁chhodo	-6590
▁chhota	-6591
▁chipak	-6592
▁chizon	-6593
▁chubhe	-6594
▁chubho	-6595
▁danist	-6596
▁danton	-6597
▁darida	-6598
▁davani	-6599
▁dhalte	-6600
▁dhalti	-6601
▁dilase	-6602
▁divani	-6603
▁dubaya	-6604
▁dubota	-6605
▁duboya	-6606
▁dukhta	-6607
▁dukkan	-6608
▁durbin	-6609
▁europe	-6610
▁farmai	-6611
▁faryad	-6612
▁ganvai	-6613
▁ghamze	-6614
▁ghista	-6615
▁ghurub	-6616
▁girane	-6617
▁giryan	-6618
▁gunahi	-6619
▁gunjte	-6620
▁hadson	-6621
▁hamdar	-6622
▁hamraz	-6623
▁hayula	-6624
▁hazari	-6625
▁ighmaz	-6626
▁iradon	-6627
▁itraya	-6628
▁jagate	-6629
▁jalega	-6630
▁jalvon	-6631
▁jasusi	-6632
▁jaungi	-6633
▁jhanka	-6634
▁jhapki	-6635
▁jhatak	-6636
▁jhukin	-6637
▁jhukne	-6638
▁jhukti	-6639
▁jhulas	-6640
▁jhumti	-6641
▁jigari	-6642
▁jununi	-6643
▁kafiri	-6644
▁kahega	-6645
▁kaimus	-6646
▁kaliyo	-6647
▁kandhe	-6648
▁kanval	-6649
▁khaiye	-6650
▁khajil	-6651
▁khanqa	-6652
▁khatib	-6653
▁khizar	-6654
▁khodne	-6655
▁kholen	-6656
▁khutan	-6657
▁kuchon	-6658
▁kushad	-6659
▁kushud	-6660
▁ladkha	-6661
▁lagati	-6662
▁lahrae	-6663
▁lalach	-6664
▁lautti	-6665
▁libade	-6666
▁libasi	-6667
▁likhne	-6668
▁lughat	-6669
▁lutaen	-6670
▁lutana	-6671
▁maatub	-6672
▁mahjub	-6673
▁mahjur	-6674
▁mahken	-6675
▁maktub	-6676
▁malaek	-6677
▁malbus	-6678
▁manana	-6679
▁manane	-6680
▁mandon	-6681
▁mangen	-6682
▁mangta	-6683
▁maniye	-6684
▁maqbul	-6685
▁marhum	-6686
▁masaib	-6687
▁mashaq	-6688
▁masnad	-6689
▁masnun	-6690
▁mauiza	-6691
▁maujen	-6692
▁mayyat	-6693
▁mezban	-6694
▁milaya	-6695
▁mindil	-6696
▁mohren	-6697
▁momyai	-6698
▁nagani	-6699
▁nahang	-6700
▁naqqab	-6701
▁narava	-6702
▁naseha	-6703
▁naseho	-6704
▁nasrin	-6705
▁nayyar	-6706
▁nisyan	-6707
▁nuqush	-6708
▁office	-6709
▁paenge	-6710
▁pahadi	-6711
▁paheli	-6712
▁pankha	-6713
▁pardon	-6714
▁parvez	-6715
▁phadak	-6716
▁phaili	-6717
▁phande	-6718
▁pirone	-6719
▁ponchh	-6720
▁pukara	-6721
▁pyalon	-6722
▁qabile	-6723
▁qaisar	-6724
▁qasida	-6725
▁qimash	-6726
▁raasha	-6727
▁raghib	-6728
▁rahoge	-6729
▁rasili	-6730
▁rubahi	-6731
▁rulaen	-6732
▁rulane	-6733
▁sabhon	-6734
▁sadkon	-6735
▁safedi	-6736
▁sakhta	-6737
▁sansar	-6738
▁sarson	-6739
▁satana	-6740
▁sataya	-6741
▁saunpa	-6742
▁sazish	-6743
▁shahsa	-6744
▁shamma	-6745
▁shevan	-6746
▁shiari	-6747
▁shitab	-6748
▁shuaen	-6749
▁shubah	-6750
▁shunud	-6751
▁sikhai	-6752
▁sikhla	-6753
▁sipand	-6754
▁siyani	-6755
▁sochon	-6756
▁suljha	-6757
▁sunaya	-6758
▁surahi	-6759
▁surakh	-6760
▁sussti	-6761
▁taaqub	-6762
▁tafsil	-6763
▁tahqir	-6764
▁tamhid	-6765
▁tannaz	-6766
▁taqati	-6767
▁taraji	-6768
▁tarang	-6769
▁tarazu	-6770
▁tarrar	-6771
▁tauqir	-6772
▁tavana	-6773
▁thamta	-6774
▁thukne	-6775
▁thukta	-6776
▁tufani	-6777
▁tulani	-6778
▁udanon	-6779
▁umidon	-6780
▁utarte	-6781
▁utthin	-6782
▁vaadon	-6783
▁vallah	-6784
▁yaksan	-6785
▁yaktai	-6786
▁yaquti	-6787
▁zahmat	-6788
▁zishti	-6789
▁aghoshi	-6790
▁ahmiyat	-6791
▁alvidaa	-6792
▁andeshe	-6793
▁ashiqan	-6794
▁asmanon	-6795
▁astinon	-6796
▁auraton	-6797
▁azmaten	-6798
▁bachaun	-6799
▁badhane	-6800
▁badhate	-6801
▁bahalte	-6802
▁bakhton	-6803
▁baraste	-6804
▁baraten	-6805
▁barmala	-6806
▁basirat	-6807
▁bazaron	-6808
▁bediyan	-6809
▁begangi	-6810
▁bhabuka	-6811
▁bhagvan	-6812
▁bhulana	-6813
▁bhulaya	-6814
▁bichhae	-6815
▁bithane	-6816
▁chadhta	-6817
▁chakkar	-6818
▁chalipa	-6819
▁chhedun	-6820
▁chhoden	-6821
▁chhudae	-6822
▁chhupta	-6823
▁chhupte	-6824
▁churane	-6825
▁dabdaba	-6826
▁dhundne	-6827
▁dhundun	-6828
▁dikhana	-6829
▁dimaghi	-6830
▁doshale	-6831
▁dukhtar	-6832
▁ehtisab	-6833
▁falsafa	-6834
▁farmana	-6835
▁fazilat	-6836
▁ganjina	-6837
▁ganvaya	-6838
▁ghafilo	-6839
▁ghaliya	-6840
▁ghammaz	-6841
▁ghungru	-6842
▁halahal	-6843
▁halavat	-6844
▁halchal	-6845
▁hansaya	-6846
▁harifan	-6847
▁himayat	-6848
▁hirasan	-6849
▁ikhtira	-6850
▁inqilab	-6851
▁isharon	-6852
▁israfil	-6853
▁jamiyat	-6854
▁javahir	-6855
▁javidan	-6856
▁jhagdon	-6857
▁jhankta	-6858
▁jhijhke	-6859
▁jhonkon	-6860
▁jhukana	-6861
▁jiyenge	-6862
▁kabutar	-6863
▁kachchi	-6864
▁kahengi	-6865
▁kanizen	-6866
▁kashane	-6867
▁khadang	-6868
▁khairat	-6869
▁khalaon	-6870
▁khamdar	-6871
▁khamida	-6872
▁khidmat	-6873
▁khummar	-6874
▁kudhaya	-6875
▁kushton	-6876
▁lagavat	-6877
▁lahakna	-6878
▁lakiren	-6879
▁likhvae	-6880
▁lubhaya	-6881
▁lundhai	-6882
▁madrase	-6883
▁maghmum	-6884
▁mahbubi	-6885
▁mahngai	-6886
▁mahrami	-6887
▁makanon	-6888
▁makinon	-6889
▁marsiya	-6890
▁marunga	-6891
▁mukafat	-6892
▁mukhtar	-6893
▁munsifi	-6894
▁muqabla	-6895
▁musahib	-6896
▁mutabiq	-6897
▁mutribo	-6898
▁naghmon	-6899
▁nasehon	-6900
▁navardi	-6901
▁nibhata	-6902
▁nibhaya	-6903
▁niklega	-6904
▁padenge	-6905
▁padhiye	-6906
▁paiyega	-6907
▁parvari	-6908
▁patiyan	-6909
▁pechida	-6910
▁phailta	-6911
▁phailte	-6912
▁pinhani	-6913
▁purkari	-6914
▁qararon	-6915
▁raftagi	-6916
▁rafugar	-6917
▁rahaten	-6918
▁rahzani	-6919
▁ramzani	-6920
▁ranjida	-6921
▁ratiyan	-6922
▁sabahat	-6923
▁sachchi	-6924
▁safiran	-6925
▁samjhau	-6926
▁sarabon	-6927
▁sarfara	-6928
▁savalat	-6929
▁shabana	-6930
▁shaguft	-6931
▁shaitan	-6932
▁shikani	-6933
▁shohada	-6934
▁shumari	-6935
▁sidhare	-6936
▁sipiyan	-6937
▁sultani	-6938
▁sunenge	-6939
▁surajon	-6940
▁tahasha	-6941
▁takrana	-6942
▁talatum	-6943
▁tamashe	-6944
▁tapakti	-6945
▁taravat	-6946
▁udaenge	-6947
▁vafadar	-6948
▁vasvase	-6949
▁yaganon	-6950
▁yakayak	-6951
▁zarkhez	-6952
▁zindani	-6953
▁afzaiyan	-6954
▁andhiyan	-6955
▁azurdagi	-6956
▁barabari	-6957
▁barsaton	-6958
▁bhadkaen	-6959
▁chatanon	-6960
▁chhudaya	-6961
▁darindon	-6962
▁darmanda	-6963
▁darvazon	-6964
▁dekhenge	-6965
▁dekhengi	-6966
▁dhadakte	-6967
▁dhundhne	-6968
▁dhundhti	-6969
▁dikhlave	-6970
▁faramosh	-6971
▁faravani	-6972
▁farishte	-6973
▁gashtagi	-6974
▁ghabrana	-6975
▁ghabraya	-6976
▁ghafilon	-6977
▁guldasta	-6978
▁hushyari	-6979
▁janashin	-6980
▁jauharon	-6981
▁jhagadte	-6982
▁jhukunga	-6983
▁jhunjhla	-6984
▁kambakht	-6985
▁khajalat	-6986
▁khajista	-6987
▁khilaune	-6988
▁khinchne	-6989
▁khinchte	-6990
▁khulengi	-6991
▁kulfaten	-6992
▁ladakpan	-6993
▁ladkiyon	-6994
▁mandiron	-6995
▁mardumuk	-6996
▁mashvara	-6997
▁masjiden	-6998
▁mohammad	-6999
▁muhavvis	-7000
▁munavvar	-7001
▁muskahat	-7002
▁mustaqil	-7003
▁nafraton	-7004
▁nairangi	-7005
▁nakirain	-7006
▁naujavan	-7007
▁nazishen	-7008
▁nigarani	-7009
▁nishkari	-7010
▁paighara	-7011
▁paimanon	-7012
▁parastar	-7013
▁paristan	-7014
▁pashiman	-7015
▁payambar	-7016
▁pukhtagi	-7017
▁samaaton	-7018
▁samjhaya	-7019
▁shakebai	-7020
▁sharmata	-7021
▁shukrana	-7022
▁shukriya	-7023
▁shunidan	-7024
▁sivayyan	-7025
▁sohbaten	-7026
▁suniyega	-7027
▁taabiren	-7028
▁tahammul	-7029
▁tamkanat	-7030
▁timardar	-7031
▁titliyan	-7032
▁udasiyan	-7033
▁ungliyon	-7034
▁ustuvari	-7035
▁uthaenge	-7036
▁vamandgi	-7037
▁zulaikha	-7038
▁afshurdan	-7039
▁avurdagan	-7040
▁betabiyan	-7041
▁bichhauna	-7042
▁chamkenge	-7043
▁charagari	-7044
▁chaudhvin	-7045
▁dhadkanon	-7046
▁dikhaunga	-7047
▁divanagan	-7048
▁dushmanan	-7049
▁ehtiyaton	-7050
▁fasurdagi	-7051
▁gahraiyan	-7052
▁gardishen	-7053
▁ghaflaton	-7054
▁hichkiyan	-7055
▁hoshiyari	-7056
▁kahkashan	-7057
▁kaifiyyat	-7058
▁khakistar	-7059
▁khidkiyan	-7060
▁khinchiye	-7061
▁khudavand	-7062
▁muqaddama	-7063
▁musalmani	-7064
▁mushahida	-7065
▁muskurana	-7066
▁muskurata	-7067
▁mustaghni	-7068
▁nakamiyon	-7069
▁nauhagari	-7070
▁nigahiyan	-7071
▁pashemani	-7072
▁political	-7073
▁rafaqaton	-7074
▁sambhalen	-7075
▁sambhalna	-7076
▁sambhalte	-7077
▁sarkhushi	-7078
▁shaistagi	-7079
▁shorishen	-7080
▁sikandari	-7081
▁sitamgari	-7082
▁taalluqat	-7083
▁taghayyur	-7084
▁takhayyul	-7085
▁tanhaiyon	-7086
▁vabastagi	-7087
▁zanakhdan	-7088
▁afsurdagan	-7089
▁badkhshani	-7090
▁darakhshan	-7091
▁darmandagi	-7092
▁farmavenge	-7093
▁jamhuriyat	-7094
▁masarraten	-7095
▁mughbachon	-7096
▁navazishen	-7097
▁samjhauton	-7098
▁sarnavisht	-7099
▁tasalliyan	-7100
▁tavahhumat	-7101
▁thartharae	-7102
▁chamanistan	-7103
▁parchhaiyan	-7104
▁sarshariyan	-7105
▁shahanshahi	-7106
▁masrufiyaten	-7107
ku	-7108
mb	-7109
uv	-7110
daf	-7111
diq	-7112
enc	-7113
fif	-7114
hro	-7115
ird	-7116
kal	-7117
lut	-7118
mua	-7119
oll	-7120
qul	-7121
ruk	-7122
sun	-7123
tba	-7124
tha	-7125
vel	-7126
yub	-7127
zai	-7128
▁ok	-7129
▁os	-7130
amar	-7131
bren	-7132
cemb	-7133
davi	-7134
ddud	-7135
duri	-7136
ffat	-7137
fina	-7138
hiqq	-7139
inan	-7140
irah	-7141
irai	-7142
iyam	-7143
kati	-7144
kiye	-7145
kkul	-7146
mtaz	-7147
naba	-7148
penc	-7149
qaeq	-7150
qaiq	-7151
rati	-7152
shir	-7153
sruv	-7154
tana	-7155
tion	-7156
tthi	-7157
umed	-7158
uqme	-7159
vpar	-7160
yega	-7161
zaon	-7162
zish	-7163
zzam	-7164
▁ade	-7165
▁afa	-7166
▁aja	-7167
▁aji	-7168
▁ani	-7169
▁anm	-7170
▁asi	-7171
▁dag	-7172
▁dai	-7173
▁dip	-7174
▁got	-7175
▁gui	-7176
▁ibn	-7177
▁imr	-7178
▁ind	-7179
▁kur	-7180
▁lan	-7181
▁pau	-7182
▁ris	-7183
▁ron	-7184
▁uba	-7185
▁zai	-7186
▁zim	-7187
attha	-7188
bayan	-7189
brail	-7190
chhli	-7191
ftish	-7192
ghana	-7193
hanan	-7194
henpa	-7195
hiyen	-7196
isvin	-7197
jhiyo	-7198
kalat	-7199
bon	-7200
git	-7201
llu	-7202
ras	-7203
bule	-7204
jhar	-7205
kaya	-7206
qash	-7207
tila	-7208
▁dor	-7209
▁int	-7210
▁jau	-7211
▁nat	-7212
▁pul	-7213
▁sen	-7214
huvan	-7215
imuri	-7216
katte	-7217
khvah	-7218
magae	-7219
mahil	-7220
maish	-7221
matto	-7222
ollar	-7223
rikat	-7224
sista	-7225
tanim	-7226
taram	-7227
timon	-7228
undte	-7229
vvala	-7230
vvari	-7231
yakun	-7232
yyazi	-7233
zaiqa	-7234
ziyat	-7235
▁aada	-7236
▁adim	-7237
▁anal	-7238
▁aqiq	-7239
▁asma	-7240
▁avam	-7241
▁bang	-7242
▁bard	-7243
▁beli	-7244
▁bena	-7245
▁bone	-7246
▁burd	-7247
▁daru	-7248
▁dash	-7249
▁dera	-7250
▁dhil	-7251
▁fate	-7252
▁fauq	-7253
▁gane	-7254
▁gate	-7255
▁gati	-7256
▁ghad	-7257
▁giti	-7258
▁hale	-7259
▁hazz	-7260
▁ifti	-7261
▁ijti	-7262
▁izar	-7263
▁jast	-7264
▁kagh	-7265
▁kaji	-7266
▁kaso	-7267
▁kava	-7268
▁khot	-7269
▁kosh	-7270
▁kuku	-7271
▁laba	-7272
▁laho	-7273
▁leva	-7274
▁maur	-7275
▁mazk	-7276
▁nafi	-7277
▁nanv	-7278
▁neza	-7279
▁niba	-7280
▁nile	-7281
▁nura	-7282
▁paon	-7283
▁parv	-7284
▁post	-7285
▁qabl	-7286
▁qava	-7287
▁qurt	-7288
▁rama	-7289
▁saiq	-7290
▁saji	-7291
▁shaq	-7292
▁sheb	-7293
▁shel	-7294
▁sida	-7295
▁sili	-7296
▁silk	-7297
▁sudh	-7298
▁sulh	-7299
lin	-7300
mir	-7301
mud	-7302
num	-7303
shu	-7304
taj	-7305
arar	-7306
chen	-7307
irak	-7308
khte	-7309
laen	-7310
laha	-7311
rail	-7312
sura	-7313
veli	-7314
▁diq	-7315
▁top	-7316
hisha	-7317
khfif	-7318
lenge	-7319
staba	-7320
sural	-7321
vahon	-7322
▁anja	-7323
▁arna	-7324
▁bila	-7325
▁dear	-7326
▁faqi	-7327
▁huzn	-7328
▁izad	-7329
▁muin	-7330
▁naqq	-7331
▁paba	-7332
▁sust	-7333
▁taar	-7334
▁taay	-7335
▁talq	-7336
▁tank	-7337
▁tazl	-7338
▁topi	-7339
▁tuba	-7340
▁tugh	-7341
▁ugla	-7342
▁ukta	-7343
▁unde	-7344
▁uqab	-7345
▁uqde	-7346
▁uyub	-7347
▁vare	-7348
▁vird	-7349
▁yakh	-7350
▁zabh	-7351
▁zail	-7352
▁zano	-7353
▁zati	-7354
barana	-7355
barruk	-7356
chargi	-7357
hishti	-7358
indagi	-7359
llufat	-7360
pencer	-7361
rinash	-7362
satana	-7363
vishta	-7364
viyyat	-7365
▁aamal	-7366
▁afaal	-7367
▁ainda	-7368
▁ajizi	-7369
▁akash	-7370
▁alaih	-7371
▁amiri	-7372
▁anmol	-7373
▁aqida	-7374
▁aqide	-7375
▁asara	-7376
▁asuda	-7377
▁ausaf	-7378
▁bachp	-7379
▁badam	-7380
▁baida	-7381
▁barda	-7382
▁basao	-7383
▁bauch	-7384
▁bekas	-7385
▁bheja	-7386
▁bhola	-7387
▁bhulo	-7388
▁bijon	-7389
▁bitai	-7390
▁bojha	-7391
▁bolte	-7392
▁chini	-7393
▁chira	-7394
▁chuna	-7395
▁dafaa	-7396
▁dakhi	-7397
▁dalna	-7398
▁dalun	-7399
bh	-7400
ty	-7401
dif	-7402
din	-7403
ety	-7404
kho	-7405
tti	-7406
anva	-7407
fail	-7408
iety	-7409
kani	-7410
yare	-7411
▁hav	-7412
▁upa	-7413
anvas	-7414
fshan	-7415
harda	-7416
kanna	-7417
khara	-7418
saegi	-7419
sanon	-7420
shkol	-7421
▁agin	-7422
▁ammi	-7423
▁bosi	-7424
▁ghan	-7425
▁hael	-7426
▁hast	-7427
▁lobh	-7428
▁muva	-7429
▁nape	-7430
▁ragh	-7431
▁rais	-7432
▁unhi	-7433
▁zill	-7434
cember	-7435
▁chune	-7436
▁damak	-7437
▁darab	-7438
▁daras	-7439
▁daren	-7440
▁darti	-7441
▁dhanp	-7442
▁dhata	-7443
▁dohri	-7444
▁dupat	-7445
▁eajaz	-7446
▁faqih	-7447
▁firqe	-7448
▁furat	-7449
▁furua	-7450
▁fuzla	-7451
▁fuzun	-7452
▁gahri	-7453
▁galta	-7454
▁ghada	-7455
▁ghira	-7456
▁ghons	-7457
▁giroh	-7458
▁girta	-7459
▁gudad	-7460
▁gudgu	-7461
▁gungi	-7462
▁hadaf	-7463
▁haiga	-7464
▁halki	-7465
▁hamza	-7466
▁haraf	-7467
▁harna	-7468
▁hiras	-7469
▁husul	-7470
▁iblis	-7471
▁imroz	-7472
▁insha	-7473
▁ishti	-7474
▁istih	-7475
▁jadad	-7476
▁jaras	-7477
▁jasus	-7478
▁javen	-7479
▁javin	-7480
▁jazir	-7481
▁jhule	-7482
▁juari	-7483
▁kahni	-7484
▁kalma	-7485
▁kapas	-7486
▁karai	-7487
▁katbe	-7488
▁katib	-7489
▁katra	-7490
▁katun	-7491
▁kavak	-7492
▁kavva	-7493
▁khaka	-7494
▁khasa	-7495
▁khezi	-7496
▁kohan	-7497
▁koste	-7498
▁koyal	-7499
adi	-7500
laj	-7501
bast	-7502
hega	-7503
inge	-7504
isan	-7505
nani	-7506
qani	-7507
vast	-7508
▁dir	-7509
▁ikk	-7510
▁jad	-7511
▁sui	-7512
obast	-7513
shata	-7514
simat	-7515
▁arab	-7516
▁asra	-7517
▁baid	-7518
▁daem	-7519
▁diba	-7520
▁dohr	-7521
▁guth	-7522
▁kori	-7523
▁kubi	-7524
▁vaaz	-7525
lliyat	-7526
▁abadi	-7527
▁anvar	-7528
▁asran	-7529
▁fasad	-7530
▁gachh	-7531
▁ghera	-7532
▁girni	-7533
▁hasht	-7534
▁jabhi	-7535
▁jagat	-7536
▁joshi	-7537
▁khuon	-7538
▁kured	-7539
▁ladke	-7540
▁ladti	-7541
▁lahaq	-7542
▁laili	-7543
▁lapka	-7544
▁larze	-7545
▁lashe	-7546
▁lipta	-7547
▁lipti	-7548
▁luqme	-7549
▁lutte	-7550
▁madum	-7551
▁mahir	-7552
▁maile	-7553
▁maili	-7554
▁makun	-7555
▁maqta	-7556
▁marun	-7557
▁milon	-7558
▁minju	-7559
▁mison	-7560
▁mitae	-7561
▁moaji	-7562
▁mubin	-7563
▁nabud	-7564
▁nahae	-7565
▁nange	-7566
▁narmi	-7567
▁nayab	-7568
▁nipat	-7569
▁parta	-7570
▁phada	-7571
▁phala	-7572
▁phera	-7573
▁pheri	-7574
▁phero	-7575
▁phika	-7576
▁phiro	-7577
▁phoda	-7578
▁photo	-7579
▁phula	-7580
▁pisar	-7581
▁pital	-7582
▁pitne	-7583
▁pitun	-7584
▁piyen	-7585
▁pujan	-7586
▁pujat	-7587
▁pujta	-7588
▁pyale	-7589
▁qaidi	-7590
▁rahan	-7591
▁ratja	-7592
▁reshe	-7593
▁rezon	-7594
▁rifat	-7595
▁rivaj	-7596
▁riyai	-7597
▁rondi	-7598
▁ruhon	-7599
dli	-7600
med	-7601
men	-7602
tte	-7603
▁sh	-7604
▁uk	-7605
ache	-7606
dara	-7607
ilen	-7608
▁fam	-7609
▁jod	-7610
▁kag	-7611
▁moj	-7612
▁mum	-7613
acher	-7614
firat	-7615
haton	-7616
▁adha	-7617
▁ezar	-7618
▁gaen	-7619
▁jien	-7620
▁khui	-7621
▁maon	-7622
▁qane	-7623
▁shka	-7624
▁umra	-7625
▁barja	-7626
▁dabae	-7627
▁hafiz	-7628
▁hamda	-7629
▁jalse	-7630
▁jumla	-7631
▁karke	-7632
▁ladae	-7633
▁lunga	-7634
▁mithi	-7635
▁muhar	-7636
▁murda	-7637
▁nikam	-7638
▁novel	-7639
▁patak	-7640
▁rulva	-7641
▁ruman	-7642
▁ruten	-7643
▁ruthe	-7644
▁sabze	-7645
▁sadhe	-7646
▁safhe	-7647
▁sahun	-7648
▁sajae	-7649
▁sajai	-7650
▁sajte	-7651
▁sakha	-7652
▁salik	-7653
▁samay	-7654
▁sapid	-7655
▁sapit	-7656
▁saqar	-7657
▁sarza	-7658
▁sasti	-7659
▁shaba	-7660
▁shada	-7661
▁shahd	-7662
▁shelf	-7663
▁sidaq	-7664
▁sifal	-7665
▁silte	-7666
▁simta	-7667
▁simte	-7668
▁sooge	-7669
▁sukhi	-7670
▁sunao	-7671
▁sunin	-7672
▁sunya	-7673
▁tadad	-7674
▁tahni	-7675
▁tahur	-7676
▁talta	-7677
▁talti	-7678
▁tambu	-7679
▁tanti	-7680
▁taqva	-7681
▁taqvi	-7682
▁tauam	-7683
▁tavam	-7684
▁tazir	-7685
▁thama	-7686
▁totke	-7687
▁tulta	-7688
▁tumar	-7689
▁tutti	-7690
▁ubali	-7691
▁ubhri	-7692
▁uchte	-7693
▁ugata	-7694
▁ujada	-7695
▁ummed	-7696
▁ummul	-7697
▁upasi	-7698
▁usrat	-7699
hub	-7700
burd	-7701
dhon	-7702
ebar	-7703
pera	-7704
rami	-7705
ssus	-7706
vate	-7707
▁nun	-7708
▁ser	-7709
digar	-7710
honch	-7711
tamil	-7712
vaila	-7713
▁baje	-7714
▁banh	-7715
▁bans	-7716
▁bate	-7717
▁bhav	-7718
▁desh	-7719
▁duna	-7720
▁dvar	-7721
▁goli	-7722
▁gulb	-7723
▁huda	-7724
▁hudi	-7725
▁mano	-7726
▁moha	-7727
▁rana	-7728
▁rela	-7729
▁roze	-7730
▁sahj	-7731
▁taas	-7732
▁thes	-7733
▁toka	-7734
shiyon	-7735
▁asnam	-7736
▁avaze	-7737
▁chidh	-7738
▁daere	-7739
▁darne	-7740
▁daure	-7741
▁goyan	-7742
▁jahat	-7743
▁kamya	-7744
▁khona	-7745
▁manen	-7746
▁milap	-7747
▁milin	-7748
▁nikat	-7749
▁opera	-7750
▁pidar	-7751
▁radif	-7752
▁taban	-7753
▁tahon	-7754
▁tarin	-7755
▁tuhur	-7756
▁ustuk	-7757
▁utare	-7758
▁utren	-7759
▁varid	-7760
▁varon	-7761
▁vasia	-7762
▁yahud	-7763
▁zahar	-7764
▁zakat	-7765
▁zarfi	-7766
▁zevar	-7767
▁ziden	-7768
▁zidon	-7769
▁zirah	-7770
▁ziyad	-7771
kaniyan	-7772
khtisar	-7773
▁abtari	-7774
▁ajizan	-7775
▁alamat	-7776
▁anchen	-7777
▁anjami	-7778
▁ankhan	-7779
▁apnaya	-7780
▁arzuon	-7781
▁ashami	-7782
▁astana	-7783
▁aundhe	-7784
▁avazon	-7785
▁ayaten	-7786
▁azabon	-7787
▁azmana	-7788
▁azmuda	-7789
▁bachti	-7790
▁bahega	-7791
▁bahlae	-7792
▁bahman	-7793
▁bahzad	-7794
▁bainon	-7795
▁bakhta	-7796
▁banaen	-7797
▁banjar	-7798
▁bantta	-7799
kae	-7800
lum	-7801
quq	-7802
dali	-7803
ghru	-7804
isht	-7805
lvan	-7806
usan	-7807
▁aqa	-7808
▁col	-7809
khton	-7810
qamat	-7811
uqara	-7812
▁avte	-7813
▁buta	-7814
▁duni	-7815
▁hall	-7816
▁khen	-7817
▁moat	-7818
▁saad	-7819
▁sita	-7820
▁taib	-7821
▁yaum	-7822
▁abron	-7823
▁adami	-7824
▁ausan	-7825
▁basen	-7826
▁dilja	-7827
▁huquq	-7828
▁ibham	-7829
▁jalan	-7830
▁kaund	-7831
▁kohra	-7832
▁marti	-7833
▁marub	-7834
▁mirza	-7835
▁muluk	-7836
▁nabat	-7837
▁nashr	-7838
▁paspa	-7839
▁roiye	-7840
▁sakit	-7841
▁savan	-7842
▁sunni	-7843
▁utara	-7844
▁aziyat	-7845
▁barang	-7846
▁bartav	-7847
▁bartun	-7848
▁basere	-7849
▁bashin	-7850
▁bastan	-7851
▁bebaki	-7852
▁bechta	-7853
▁bekari	-7854
▁belche	-7855
▁bevpar	-7856
▁bharti	-7857
▁bhatke	-7858
▁bhaven	-7859
▁bheden	-7860
▁bhigne	-7861
▁bhulai	-7862
▁bikher	-7863
▁bithai	-7864
▁bostan	-7865
▁bujhai	-7866
▁bulaya	-7867
▁burida	-7868
▁canvas	-7869
▁chadhe	-7870
▁chagun	-7871
▁chahar	-7872
▁chalon	-7873
▁chalun	-7874
▁changa	-7875
▁chaura	-7876
▁chhant	-7877
▁chhide	-7878
▁chhini	-7879
▁chizen	-7880
▁chonch	-7881
▁choten	-7882
▁chukin	-7883
▁chunte	-7884
▁churai	-7885
▁collar	-7886
▁dafina	-7887
▁dallal	-7888
▁danaon	-7889
▁darata	-7890
▁daruna	-7891
▁dashne	-7892
▁daudte	-7893
▁dhabbe	-7894
▁dhajji	-7895
▁dhanpa	-7896
▁dijiyo	-7897
▁dilasa	-7898
▁dilate	-7899
rav	-7900
faqi	-7901
ghaf	-7902
idgi	-7903
oshi	-7904
skar	-7905
▁doz	-7906
▁lot	-7907
hadur	-7908
hrist	-7909
▁acha	-7910
▁alat	-7911
▁ayar	-7912
▁bapa	-7913
▁faut	-7914
▁kuza	-7915
▁qura	-7916
▁adabi	-7917
▁ahzan	-7918
▁albat	-7919
▁banbi	-7920
▁baura	-7921
▁bhuke	-7922
▁bisve	-7923
▁gahen	-7924
▁goyon	-7925
▁ishve	-7926
▁jagma	-7927
▁kasad	-7928
▁khare	-7929
▁kuban	-7930
▁malne	-7931
▁masha	-7932
▁meraj	-7933
▁mohra	-7934
▁padne	-7935
▁sadat	-7936
▁safir	-7937
▁sahal	-7938
▁satai	-7939
▁sharb	-7940
▁tahen	-7941
▁tange	-7942
▁tumhi	-7943
▁vafai	-7944
▁bachae	-7945
▁barsai	-7946
▁behuda	-7947
▁chanab	-7948
▁chhedi	-7949
▁chotte	-7950
▁dhamak	-7951
▁dhundo	-7952
▁dilaya	-7953
▁diqqat	-7954
▁dirham	-7955
▁dohrai	-7956
▁dopahr	-7957
▁doshin	-7958
▁dukhao	-7959
▁engine	-7960
▁etidal	-7961
▁etiqad	-7962
▁fahish	-7963
▁faizan	-7964
▁farsai	-7965
▁fuqara	-7966
▁gabron	-7967
▁gadaon	-7968
▁gazand	-7969
▁gharqa	-7970
▁ghatta	-7971
▁ghatti	-7972
▁ghavva	-7973
▁ghibat	-7974
▁ghiste	-7975
▁ghussa	-7976
▁ghutan	-7977
▁ghuyur	-7978
▁girega	-7979
▁goshon	-7980
▁gulnar	-7981
▁gumnam	-7982
▁gumrah	-7983
▁gunjti	-7984
▁gusari	-7985
▁gutthi	-7986
▁hadisa	-7987
▁hamail	-7988
▁haqaeq	-7989
▁havale	-7990
▁havasi	-7991
▁haveli	-7992
▁hijazi	-7993
▁hilaya	-7994
▁himala	-7995
▁hubbul	-7996
▁hurmat	-7997
▁ijabat	-7998
▁indhan	-7999
adum	-8000
ddad	-8001
▁gol	-8002
▁tol	-8003
▁adna	-8004
▁baki	-8005
▁gili	-8006
▁hajr	-8007
▁hati	-8008
▁illa	-8009
▁joda	-8010
▁laiq	-8011
▁naqa	-8012
▁nasu	-8013
▁toke	-8014
shanda	-8015
shatgi	-8016
shtani	-8017
▁ataon	-8018
▁bache	-8019
▁bolon	-8020
▁dikhl	-8021
▁durdi	-8022
▁durud	-8023
▁giyah	-8024
▁hadon	-8025
▁hasud	-8026
▁jamon	-8027
▁janne	-8028
▁kafil	-8029
▁katan	-8030
▁manun	-8031
▁marke	-8032
▁mehan	-8033
▁piyun	-8034
▁qadim	-8035
▁qamri	-8036
▁rabab	-8037
▁sujha	-8038
▁tasli	-8039
▁terah	-8040
▁tesha	-8041
▁tundi	-8042
▁udhed	-8043
▁varta	-8044
▁yafat	-8045
▁adatan	-8046
▁chatan	-8047
▁chhuna	-8048
▁iradat	-8049
▁ismail	-8050
▁istifa	-8051
▁jagaen	-8052
▁jalaen	-8053
▁jalali	-8054
▁jalani	-8055
▁jalati	-8056
▁jamane	-8057
▁jamuna	-8058
▁janbaz	-8059
▁janega	-8060
▁jantar	-8061
▁janvar	-8062
▁jazbon	-8063
▁jazira	-8064
▁jhalne	-8065
▁jhenpa	-8066
▁jhilon	-8067
▁jhukae	-8068
▁jinson	-8069
▁jitega	-8070
▁juebar	-8071
▁kabida	-8072
▁kabira	-8073
▁kafuri	-8074
▁kaghzi	-8075
▁kahven	-8076
▁kaleje	-8077
▁kamtar	-8078
▁kanani	-8079
▁kanara	-8080
▁kanpta	-8081
▁karani	-8082
▁kashif	-8083
▁kasili	-8084
▁katari	-8085
▁kategi	-8086
▁katran	-8087
▁khalil	-8088
▁khatan	-8089
▁khatim	-8090
▁khatti	-8091
▁khelna	-8092
▁khelne	-8093
▁khelti	-8094
▁kheton	-8095
▁khevan	-8096
▁khiche	-8097
▁khilae	-8098
▁khilne	-8099
lo	-8100
vri	-8101
abon	-8102
▁boi	-8103
▁yab	-8104
ishat	-8105
qabil	-8106
riyan	-8107
valon	-8108
▁aval	-8109
▁magu	-8110
▁sadd	-8111
▁talu	-8112
▁urdi	-8113
▁varo	-8114
uharon	-8115
▁athon	-8116
▁attar	-8117
▁bahri	-8118
▁batan	-8119
▁benam	-8120
▁cheta	-8121
▁daave	-8122
▁duval	-8123
▁gasht	-8124
▁gosht	-8125
▁kalan	-8126
▁kalba	-8127
▁khand	-8128
▁khele	-8129
▁kunen	-8130
▁maike	-8131
▁misri	-8132
▁mithe	-8133
▁nicha	-8134
▁tevri	-8135
▁thake	-8136
▁tufta	-8137
gariyan	-8138
▁adaton	-8139
▁batana	-8140
▁batati	-8141
▁chandr	-8142
▁charke	-8143
▁chhupi	-8144
▁dakhil	-8145
▁farhat	-8146
▁jaengi	-8147
▁jazire	-8148
▁kanari	-8149
▁kankar	-8150
▁kharch	-8151
▁kharon	-8152
▁khiska	-8153
▁khiyam	-8154
▁kholti	-8155
▁khugar	-8156
▁khulen	-8157
▁khulna	-8158
▁khunab	-8159
▁khurak	-8160
▁khutba	-8161
▁kinaya	-8162
▁kohram	-8163
▁koshak	-8164
▁kulahi	-8165
▁labada	-8166
▁ladana	-8167
▁ladiye	-8168
▁laenge	-8169
▁lagata	-8170
▁lagaun	-8171
▁lagegi	-8172
▁laghar	-8173
▁lagtin	-8174
▁lahore	-8175
▁lahren	-8176
▁lashen	-8177
▁lavega	-8178
▁layali	-8179
▁likhen	-8180
▁likkhi	-8181
▁likkho	-8182
▁lubhae	-8183
▁lutane	-8184
▁maadum	-8185
▁maaqul	-8186
▁maarke	-8187
▁mahall	-8188
▁mahbus	-8189
▁mahina	-8190
▁mahkum	-8191
▁mahmud	-8192
▁maigun	-8193
▁majmaa	-8194
▁majmua	-8195
▁majzub	-8196
▁manaya	-8197
▁manega	-8198
▁mangai	-8199
umak	-8200
▁irti	-8201
▁june	-8202
vaiyon	-8203
▁bahae	-8204
▁bahai	-8205
▁barse	-8206
▁hatne	-8207
▁hatti	-8208
▁jhank	-8209
▁kafur	-8210
▁malta	-8211
▁qadir	-8212
▁sadar	-8213
▁talte	-8214
▁alsata	-8215
▁badhao	-8216
▁bisyar	-8217
▁chhaya	-8218
▁dhadke	-8219
▁fashan	-8220
▁fassad	-8221
▁fitrak	-8222
▁haqiqi	-8223
▁kushai	-8224
▁mangne	-8225
▁mangte	-8226
▁mangti	-8227
▁mantar	-8228
▁maqdam	-8229
▁mariye	-8230
▁marmar	-8231
▁masail	-8232
▁masavi	-8233
▁masihi	-8234
▁masjud	-8235
▁maskan	-8236
▁maslak	-8237
▁maslub	-8238
▁mastan	-8239
▁matiya	-8240
▁matlub	-8241
▁maulvi	-8242
▁mavara	-8243
▁mazdur	-8244
▁mazhar	-8245
▁mazkur	-8246
▁mazlum	-8247
▁mazuli	-8248
▁meamar	-8249
▁mehvar	-8250
▁milana	-8251
▁mishal	-8252
▁mitane	-8253
▁mohmal	-8254
▁mohtat	-8255
▁morche	-8256
▁muamle	-8257
▁muamme	-8258
▁mumtaz	-8259
▁murgha	-8260
▁muslim	-8261
▁muztar	-8262
▁nadada	-8263
▁nadida	-8264
▁namush	-8265
▁namvar	-8266
▁nargas	-8267
▁nasibi	-8268
▁nasiya	-8269
▁naumed	-8270
▁naumid	-8271
▁nauras	-8272
▁nichod	-8273
▁niguni	-8274
▁nihada	-8275
▁nikali	-8276
▁ninden	-8277
▁nirali	-8278
▁nisari	-8279
▁nithar	-8280
▁nuzhat	-8281
▁padhen	-8282
▁padhun	-8283
▁pahunc	-8284
▁paidai	-8285
▁pairai	-8286
▁palang	-8287
▁pardes	-8288
▁parkar	-8289
▁parkha	-8290
▁paungi	-8291
▁pechak	-8292
▁peshgi	-8293
▁phadke	-8294
▁phaile	-8295
▁phalna	-8296
▁phansi	-8297
▁phenke	-8298
▁pheren	-8299
▁phiren	-8300
▁phirun	-8301
▁phodna	-8302
▁phunka	-8303
▁phunke	-8304
▁pichha	-8305
▁pighli	-8306
▁pilana	-8307
▁pujati	-8308
▁purvai	-8309
▁qafiye	-8310
▁qamati	-8311
▁qashen	-8312
▁qassam	-8313
▁qatron	-8314
▁qaumen	-8315
▁qindil	-8316
▁qsimat	-8317
▁rachav	-8318
▁rahman	-8319
▁rakhen	-8320
▁rangte	-8321
▁rashki	-8322
▁rasiya	-8323
▁rasmen	-8324
▁raunat	-8325
▁razdan	-8326
▁rekhte	-8327
▁rengta	-8328
▁riyazi	-8329
▁roungi	-8330
▁rukiye	-8331
▁ruthen	-8332
▁saaten	-8333
▁sabati	-8334
▁sabron	-8335
▁sadmat	-8336
▁sahafi	-8337
▁sahbai	-8338
▁saiqal	-8339
▁sakegi	-8340
▁sakiye	-8341
▁salami	-8342
▁samana	-8343
▁samand	-8344
▁samani	-8345
▁samate	-8346
▁sangin	-8347
▁sangit	-8348
▁sapnon	-8349
▁sarosh	-8350
▁sarvat	-8351
▁sarzad	-8352
▁satane	-8353
▁saunpi	-8354
▁savaon	-8355
▁savera	-8356
▁sazaen	-8357
▁shabih	-8358
▁shadid	-8359
▁shamim	-8360
▁shanon	-8361
▁sharaf	-8362
▁sharir	-8363
▁shatir	-8364
▁shikni	-8365
▁shuhud	-8366
▁singar	-8367
▁sogvar	-8368
▁sondhi	-8369
▁subhen	-8370
▁suburi	-8371
▁sulajh	-8372
▁sunata	-8373
▁sunvai	-8374
▁taalim	-8375
▁taaruf	-8376
▁taazir	-8377
▁tabani	-8378
▁tabaon	-8379
▁tabdar	-8380
▁tabrez	-8381
▁tafsir	-8382
▁tahrik	-8383
▁tairak	-8384
▁takrim	-8385
▁talqin	-8386
▁tamsil	-8387
▁tangna	-8388
▁tapida	-8389
▁tapkin	-8390
▁taqsim	-8391
▁tarana	-8392
▁tarane	-8393
▁tariqa	-8394
▁tarkib	-8395
▁tavazo	-8396
▁tazlil	-8397
▁thahro	-8398
▁thukun	-8399
▁tutiya	-8400
▁ubalna	-8401
▁ubalte	-8402
▁ugalte	-8403
▁ugalti	-8404
▁ummidi	-8405
▁utarna	-8406
▁utarne	-8407
▁uthati	-8408
▁vafaon	-8409
▁vahima	-8410
▁vaqton	-8411
▁vardan	-8412
▁yadash	-8413
▁yaksui	-8414
▁yamani	-8415
▁zabuni	-8416
▁zadgan	-8417
▁zamiri	-8418
▁zariya	-8419
▁zehmat	-8420
susiyyat	-8421
▁achanak	-8422
▁adaiyan	-8423
▁afgaron	-8424
▁afsanon	-8425
▁albatta	-8426
▁ambarin	-8427
▁ankhiya	-8428
▁araiyan	-8429
▁ashkara	-8430
▁ashnaon	-8431
▁bachaen	-8432
▁badalon	-8433
▁badanan	-8434
▁badayat	-8435
▁badhaen	-8436
▁badhana	-8437
▁badhega	-8438
▁bahadur	-8439
▁bahanon	-8440
▁baharen	-8441
▁bahkega	-8442
▁bahlana	-8443
▁baithta	-8444
▁bakhiye	-8445
▁balidan	-8446
▁baliyan	-8447
▁bandhta	-8448
▁bandish	-8449
▁banenge	-8450
▁banjara	-8451
▁barasne	-8452
▁barasta	-8453
▁baratna	-8454
▁barchhi	-8455
▁barzakh	-8456
▁batvare	-8457
▁bazicha	-8458
▁baziyan	-8459
▁beganon	-8460
▁bhigone	-8461
▁bhulaen	-8462
▁bhulata	-8463
▁bibayan	-8464
▁bichare	-8465
▁bikhrae	-8466
▁bisaten	-8467
▁bujhati	-8468
▁chainan	-8469
▁champai	-8470
▁chaunke	-8471
▁chhachh	-8472
▁chhalke	-8473
▁chhaten	-8474
▁chhedne	-8475
▁chhedti	-8476
▁chhidke	-8477
▁chhidte	-8478
▁chhilte	-8479
▁chhinta	-8480
▁chhitke	-8481
▁chhodte	-8482
▁chhupao	-8483
▁chhutne	-8484
▁chidiya	-8485
▁chikhta	-8486
▁chubhta	-8487
▁chukaya	-8488
▁chuvate	-8489
▁dahanan	-8490
▁dalilon	-8491
▁damadam	-8492
▁daranti	-8493
▁daregha	-8494
▁dariyan	-8495
▁daudaye	-8496
▁davidan	-8497
▁dayaron	-8498
▁dekhegi	-8499
▁devenge	-8500
▁dhadkon	-8501
▁dhundli	-8502
▁digaran	-8503
▁dikhate	-8504
▁dikhave	-8505
▁dikhlai	-8506
▁diljale	-8507
▁dohrane	-8508
▁dohrate	-8509
▁dostana	-8510
▁ehtijaj	-8511
▁ehtiram	-8512
▁ehtizaz	-8513
▁fahisha	-8514
▁falsafi	-8515
▁faravan	-8516
▁farefta	-8517
▁faridun	-8518
▁farmaen	-8519
▁farmata	-8520
▁farzand	-8521
▁fasilen	-8522
▁fayakun	-8523
▁fayyazi	-8524
▁figaron	-8525
▁fursati	-8526
▁ganjifa	-8527
▁ganvana	-8528
▁gavahon	-8529
▁ghabara	-8530
▁ghabrao	-8531
▁ghamand	-8532
▁gharane	-8533
▁gharibi	-8534
▁ghatata	-8535
▁ghazali	-8536
▁ghazlon	-8537
▁ghonsle	-8538
▁ginyega	-8539
▁gudguda	-8540
▁gusista	-8541
▁hadison	-8542
▁hamdami	-8543
▁hamnami	-8544
▁hashtum	-8545
▁hindavi	-8546
▁hunkara	-8547
▁ijtinab	-8548
▁ikattha	-8549
▁iltihab	-8550
▁imtidad	-8551
▁imtizaj	-8552
▁intisab	-8553
▁istiare	-8554
▁istihza	-8555
▁jabinon	-8556
▁jabrail	-8557
▁jagiren	-8558
▁jamshed	-8559
▁jauhari	-8560
▁javvala	-8561
▁jazbati	-8562
▁jhamela	-8563
▁jhapkin	-8564
▁jhukiye	-8565
▁jibrail	-8566
▁joliyan	-8567
▁junbish	-8568
▁juraten	-8569
▁jurmana	-8570
▁kachche	-8571
▁kafiron	-8572
▁kahlana	-8573
▁kahlata	-8574
▁kahlave	-8575
▁kamanen	-8576
▁kamanon	-8577
▁kamiyan	-8578
▁kamyabi	-8579
▁kamzori	-8580
▁kandhon	-8581
▁karahne	-8582
▁karvani	-8583
▁kashana	-8584
▁kashida	-8585
▁kashkol	-8586
▁kashmir	-8587
▁katahre	-8588
▁katarta	-8589
▁katenge	-8590
▁kaukaba	-8591
▁kavakib	-8592
▁khabren	-8593
▁khanman	-8594
▁khanqah	-8595
▁kharabo	-8596
▁khasara	-8597
▁khataen	-8598
▁khataon	-8599
▁khatiri	-8600
▁khencha	-8601
▁khiffat	-8602
▁khizaon	-8603
▁khulega	-8604
▁khulegi	-8605
▁khumari	-8606
▁khunaba	-8607
▁khurdan	-8608
▁khusruv	-8609
▁khvargi	-8610
▁kinayat	-8611
▁kirchen	-8612
▁kulahen	-8613
▁kunisht	-8614
▁kuredte	-8615
▁kushtan	-8616
▁lahlaha	-8617
▁lahrata	-8618
▁laiyega	-8619
▁lakiron	-8620
▁larazne	-8621
▁larazta	-8622
▁larazti	-8623
▁libason	-8624
▁likkhun	-8625
▁mabadon	-8626
▁machhli	-8627
▁maghlub	-8628
▁mahajan	-8629
▁mahakte	-8630
▁mahbuba	-8631
▁mahkegi	-8632
▁makhzan	-8633
▁manazir	-8634
▁mardane	-8635
▁marghub	-8636
▁marhale	-8637
▁mariyam	-8638
▁masalon	-8639
▁mastaba	-8640
▁mazduri	-8641
▁mehmani	-8642
▁misalon	-8643
▁moajiza	-8644
▁moattar	-8645
▁mohalle	-8646
▁mohkami	-8647
▁motaqid	-8648
▁msatana	-8649
▁muamlat	-8650
▁muayyan	-8651
▁mubtila	-8652
▁mughana	-8653
▁munfail	-8654
▁muniman	-8655
▁muntahi	-8656
▁muraden	-8657
▁murghan	-8658
▁murjhae	-8659
▁mushfiq	-8660
▁mustaar	-8661
▁mustaid	-8662
▁muzaiqa	-8663
▁nadiyon	-8664
▁nafason	-8665
▁nakhvat	-8666
▁naqqare	-8667
▁naqqash	-8668
▁nasehan	-8669
▁nasihat	-8670
▁nibahna	-8671
▁nichodi	-8672
▁nisabon	-8673
▁nisaron	-8674
▁nurasta	-8675
▁pahlvan	-8676
▁pahnaya	-8677
▁pakadne	-8678
▁palatte	-8679
▁panahen	-8680
▁paridan	-8681
▁partave	-8682
▁patinge	-8683
▁payamon	-8684
▁pazirai	-8685
▁peshtar	-8686
▁phiregi	-8687
▁phunken	-8688
▁poshish	-8689
▁pukarne	-8690
▁pukarte	-8691
▁pukarti	-8692
▁qarinon	-8693
▁qimaton	-8694
▁rafiqon	-8695
▁ragadte	-8696
▁raghbat	-8697
▁rakhnon	-8698
▁ramazan	-8699
▁raqiban	-8700
▁ratjaga	-8701
▁raunaqi	-8702
▁raundte	-8703
▁ravadar	-8704
▁ravayya	-8705
▁rekhaon	-8706
▁rulaegi	-8707
▁rumanon	-8708
▁safahan	-8709
▁sahafat	-8710
▁sahiban	-8711
▁salamti	-8712
▁saliben	-8713
▁samanon	-8714
▁sangsar	-8715
▁sardari	-8716
▁sarisht	-8717
▁sarokar	-8718
▁sasural	-8719
▁savalon	-8720
▁shadabi	-8721
▁shaghaf	-8722
▁shagird	-8723
▁shahnai	-8724
▁shaidai	-8725
▁shamail	-8726
▁shaqaiq	-8727
▁sharaba	-8728
▁shimail	-8729
▁shirini	-8730
▁shkasta	-8731
▁sikhlai	-8732
▁sipiyon	-8733
▁sirhana	-8734
▁sirhane	-8735
▁sirishk	-8736
▁slemani	-8737
▁society	-8738
▁spencer	-8739
▁sufiyon	-8740
▁sulgate	-8741
▁surkhab	-8742
▁taayyun	-8743
▁tadapne	-8744
▁tadapte	-8745
▁taftish	-8746
▁taimuri	-8747
▁tajiran	-8748
▁takhfif	-8749
▁talabon	-8750
▁tamatto	-8751
▁tambura	-8752
▁tanaben	-8753
▁tapakne	-8754
▁tarashe	-8755
▁tarasti	-8756
▁tarkash	-8757
▁tashbih	-8758
▁tashhir	-8759
▁tashrih	-8760
▁tavanai	-8761
▁taziyat	-8762
▁teacher	-8763
▁tiliyan	-8764
▁tufanon	-8765
▁tutiyon	-8766
▁ubharna	-8767
▁uchhale	-8768
▁uftadgi	-8769
▁ukhadte	-8770
▁utarvai	-8771
▁uthaega	-8772
▁uthenge	-8773
▁vadiyan	-8774
▁vakalat	-8775
▁valvala	-8776
▁varafta	-8777
▁varasta	-8778
▁varzish	-8779
▁vasilon	-8780
▁vavaila	-8781
▁vaziyon	-8782
▁yadgari	-8783
▁yatimon	-8784
▁zahidon	-8785
▁zalzala	-8786
▁zamanon	-8787
▁zanjiri	-8788
▁absharon	-8789
▁afrinash	-8790
▁afsharda	-8791
▁amanaten	-8792
▁anjhuvan	-8793
▁arshiyon	-8794
▁asiriyon	-8795
▁bachpane	-8796
▁badshahi	-8797
▁bahishti	-8798
▁baithiye	-8799
▁bardasht	-8800
▁barqarar	-8801
▁barsaten	-8802
▁bataenge	-8803
▁bechaini	-8804
▁bechargi	-8805
▁bhatakne	-8806
▁bichhdun	-8807
▁bijliyon	-8808
▁bilaktin	-8809
▁bulbulen	-8810
▁chahaten	-8811
▁chahiyen	-8812
▁chalenge	-8813
▁chamakne	-8814
▁chashmak	-8815
▁chatakna	-8816
▁chatakta	-8817
▁chhatkae	-8818
▁chhinega	-8819
▁chhupate	-8820
▁dagmagae	-8821
▁darbaron	-8822
▁dardiyan	-8823
▁darveshi	-8824
▁dastaken	-8825
▁dastburd	-8826
▁december	-8827
▁dhaiyega	-8828
▁dhamkaya	-8829
▁dikhaega	-8830
▁dikhaiyo	-8831
▁dikhlana	-8832
▁dikhlane	-8833
▁dilbaran	-8834
▁farmaish	-8835
▁farotani	-8836
▁farzangi	-8837
▁fatehana	-8838
▁fauqiyat	-8839
▁gardidan	-8840
▁garebani	-8841
▁garmaish	-8842
▁ghabrata	-8843
▁ghaltida	-8844
▁ghazalan	-8845
▁ghunghru	-8846
▁gudakhta	-8847
▁guzargah	-8848
▁guzarish	-8849
▁guzaroge	-8850
▁guzashta	-8851
▁hamdardi	-8852
▁hamsaegi	-8853
▁hauslagi	-8854
▁hijraten	-8855
▁iftikhar	-8856
▁ikhtisar	-8857
▁ikkisvin	-8858
▁iltifati	-8859
▁inayaten	-8860
▁intizari	-8861
▁ishraton	-8862
▁istifada	-8863
▁ittifaqi	-8864
▁javedana	-8865
▁javedani	-8866
▁jhamakta	-8867
▁jhamkiye	-8868
▁jhanjhar	-8869
▁jhankegi	-8870
▁jhapakne	-8871
▁jhapakte	-8872
▁judaiyan	-8873
▁kalkatte	-8874
▁kashanon	-8875
▁katranen	-8876
▁khamidan	-8877
▁khanakte	-8878
▁khanaman	-8879
▁khatakta	-8880
▁khatiyan	-8881
▁khayaban	-8882
▁khayanat	-8883
▁khazanon	-8884
▁kheshtan	-8885
▁khilenge	-8886
▁khursand	-8887
▁khurshed	-8888
▁khushbui	-8889
▁kirdaron	-8890
▁kohsaron	-8891
▁kulfaton	-8892
▁kushadan	-8893
▁kushtani	-8894
▁ladkiyan	-8895
▁lagaenge	-8896
▁lagavten	-8897
▁lazzaten	-8898
▁lazzaton	-8899
▁lijiyega	-8900
▁likhenge	-8901
▁machalna	-8902
▁machalti	-8903
▁maniyega	-8904
▁manvaiye	-8905
▁mardumak	-8906
▁mashinon	-8907
▁masjidon	-8908
▁mastiyon	-8909
▁millaten	-8910
▁misaliya	-8911
▁mohtaram	-8912
▁mulaqati	-8913
▁munazzam	-8914
▁muntazar	-8915
▁muqarrar	-8916
▁muqarrir	-8917
▁musallam	-8918
▁musallat	-8919
▁musavvar	-8920
▁mushtari	-8921
▁muzmahil	-8922
▁namaskar	-8923
▁navaiyan	-8924
▁navishta	-8925
▁nazzargi	-8926
▁nikharti	-8927
▁nikhaton	-8928
▁niklunga	-8929
▁padshahi	-8930
▁paidaish	-8931
▁paikaron	-8932
▁parastan	-8933
▁paraston	-8934
▁parindon	-8935
▁parvurda	-8936
▁phailega	-8937
▁phunkara	-8938
▁pighalta	-8939
▁pighalte	-8940
▁qaidiyon	-8941
▁qudsiyon	-8942
▁rahnumai	-8943
▁rasmiyat	-8944
▁sakhavat	-8945
▁sambhali	-8946
▁sambhalo	-8947
▁sametega	-8948
▁samjhana	-8949
▁sanvarta	-8950
▁sanvarte	-8951
▁sanvarti	-8952
▁sargiran	-8953
▁sarmayon	-8954
▁sarzamin	-8955
▁shabnami	-8956
▁shahidon	-8957
▁shahryar	-8958
▁shamshad	-8959
▁sharaben	-8960
▁sharabon	-8961
▁shashdar	-8962
▁shivalon	-8963
▁shoabada	-8964
▁shoalagi	-8965
▁shoridgi	-8966
▁sirishta	-8967
▁sudharna	-8968
▁taaziyat	-8969
▁tabarruk	-8970
▁tadbiren	-8971
▁tajassus	-8972
▁talvaren	-8973
▁tamannai	-8974
▁tankhvah	-8975
▁taqdiren	-8976
▁taraddud	-8977
▁tarahhum	-8978
▁tarashna	-8979
▁taravish	-8980
▁tasavvuf	-8981
▁tasviron	-8982
▁tavakkul	-8983
▁taziyana	-8984
▁thaharna	-8985
▁thaharne	-8986
▁thahrave	-8987
▁thahraya	-8988
▁thahrega	-8989
▁thokaron	-8990
▁tilismon	-8991
▁tohmaten	-8992
▁tughyani	-8993
▁uchhalta	-8994
▁ustukhan	-8995
▁zamindar	-8996
▁zillaten	-8997
▁zulekhai	-8998
▁andhiyari	-8999
▁anjumanen	-9000
▁ankhdiyon	-9001
▁asadullah	-9002
▁ashuftagi	-9003
▁azurdagan	-9004
▁balishton	-9005
▁barahnagi	-9006
▁barshigal	-9007
▁barshikal	-9008
▁bebakiyan	-9009
▁benaziron	-9010
▁bhaptiyan	-9011
▁charvahon	-9012
▁chaukanna	-9013
▁chhatiyan	-9014
▁chhedenge	-9015
▁chhupenge	-9016
▁chhutkara	-9017
▁darafshan	-9018
▁darakhton	-9019
▁dhundhiye	-9020
▁gadagaron	-9021
▁garebanon	-9022
▁ghabraega	-9023
▁ghaflaten	-9024
▁ghungruon	-9025
▁ghurbaten	-9026
▁giriftari	-9027
▁gungunati	-9028
▁haqiqatan	-9029
▁hararaten	-9030
▁hikayaten	-9031
▁hoshyaron	-9032
▁hukumaton	-9033
▁istikhara	-9034
▁jalvagari	-9035
▁kasmakash	-9036
▁khalvaton	-9037
▁khandarat	-9038
▁khandaron	-9039
▁khumistan	-9040
▁khushbuon	-9041
▁ladkhadae	-9042
▁maghfirat	-9043
▁mahviyyat	-9044
▁mashaqqat	-9045
▁mashghala	-9046
▁mashghale	-9047
▁mashshata	-9048
▁mashvaron	-9049
▁minjumala	-9050
▁mughtanim	-9051
▁mukarrami	-9052
▁muntashar	-9053
▁muntashir	-9054
▁musafiron	-9055
▁musavvari	-9056
▁mushkilon	-9057
▁mushtamil	-9058
▁muskurate	-9059
▁muskurati	-9060
▁mustahiqq	-9061
▁mutaqabil	-9062
▁naujavani	-9063
▁nigahbani	-9064
▁operation	-9065
▁pabastagi	-9066
▁pachhtaen	-9067
▁padosiyon	-9068
▁pahunchna	-9069
▁pahunchte	-9070
▁parastari	-9071
▁parvaiyon	-9072
▁puchhenge	-9073
▁puchhunga	-9074
▁qalandari	-9075
▁rakkhenge	-9076
▁rukhsaron	-9077
▁sakhtiyan	-9078
▁samajhiyo	-9079
▁samaniyon	-9080
▁samarqand	-9081
▁sambhalne	-9082
▁sambhalti	-9083
▁samjhaute	-9084
▁samjhunga	-9085
▁sarfarazi	-9086
▁sarkashon	-9087
▁shauharon	-9088
▁shishagar	-9089
▁surkhiyan	-9090
▁tabindagi	-9091
▁talkhiyan	-9092
▁tanhaiyan	-9093
▁vahshaton	-9094
▁viraniyan	-9095
▁ajnabiyyat	-9096
▁ashuftagan	-9097
▁bakhshidan	-9098
▁charasazon	-9099
▁chikaniyan	-9100
▁ghalatiyan	-9101
▁jhilmilati	-9102
▁kaifiyaten	-9103
▁khabardari	-9104
▁khudavandi	-9105
▁laghzishat	-9106
▁maasumiyat	-9107
▁majburiyan	-9108
▁mashshatgi	-9109
▁mohtasibon	-9110
▁muharrikat	-9111
▁muravvaten	-9112
▁nakhchiron	-9113
▁nazdikiyon	-9114
▁pahunchaen	-9115
▁pahunchana	-9116
▁pahunchegi	-9117
▁paighambar	-9118
▁payambaron	-9119
▁rakhshanda	-9120
▁ranginiyan	-9121
▁samajhdari	-9122
▁samarqandi	-9123
▁shamshiren	-9124
▁sharafaton	-9125
▁sifarishon	-9126
▁tajalliyat	-9127
▁takallufat	-9128
▁vamandagan	-9129
▁bakhshishen	-9130
▁chingariyan	-9131
▁gungunaungi	-9132
▁khamoshiyon	-9133
▁khususiyyat	-9134
▁mukhtariyon	-9135
▁muskuraungi	-9136
▁pahunchenge	-9137
▁parvardigar	-9138
▁samjhaiyega	-9139
▁shahsavaron	-9140
▁sumbulistan	-9141
▁tamashaiyon	-9142
▁ghabaravenge	-9143
▁kharabatiyan	-9144
▁shabnamistan	-9145
ess	-9146
bbir	-9147
bzub	-9148
ding	-9149
ence	-9150
esso	-9151
fsir	-9152
gati	-9153
guni	-9154
hqiq	-9155
kili	-9156
kpan	-9157
lous	-9158
ment	-9159
muda	-9160
ohvi	-9161
orin	-9162
pech	-9163
ravo	-9164
rrav	-9165
uroz	-9166
yyam	-9167
zubi	-9168
zuli	-9169
▁ird	-9170
▁quy	-9171
▁uff	-9172
annum	-9173
atiha	-9174
cence	-9175
choge	-9176
dakna	-9177
daram	-9178
dengi	-9179
essor	-9180
gason	-9181
ghmai	-9182
giron	-9183
haiyy	-9184
hasir	-9185
hijab	-9186
hribi	-9187
kauka	-9188
likat	-9189
louse	-9190
maqon	-9191
nment	-9192
pasya	-9193
pkili	-9194
tanib	-9195
tirar	-9196
ubash	-9197
undhe	-9198
zette	-9199
iyo	-9200
tiyo	-9201
▁nuh	-9202
isale	-9203
madti	-9204
▁aali	-9205
▁alap	-9206
▁amoz	-9207
▁asia	-9208
▁bhog	-9209
▁bolo	-9210
▁burr	-9211
▁dahn	-9212
▁falt	-9213
▁fann	-9214
▁faqe	-9215
▁fils	-9216
▁fird	-9217
▁firo	-9218
▁fiza	-9219
▁gado	-9220
▁geti	-9221
▁ghis	-9222
▁gina	-9223
▁hajj	-9224
▁hirz	-9225
▁irad	-9226
▁isai	-9227
▁johd	-9228
▁midd	-9229
▁moaz	-9230
▁nili	-9231
▁nuju	-9232
▁odha	-9233
▁odhe	-9234
▁pazh	-9235
▁phuk	-9236
▁qaht	-9237
▁quam	-9238
▁qumq	-9239
▁rajd	-9240
▁reze	-9241
▁saiy	-9242
▁salb	-9243
▁sapn	-9244
▁sing	-9245
▁sipi	-9246
▁tile	-9247
▁turf	-9248
▁ufaq	-9249
▁ugte	-9250
▁vazh	-9251
▁zina	-9252
▁zuhd	-9253
▁zuhu	-9254
▁zunn	-9255
balghe	-9256
chatte	-9257
chiyan	-9258
darana	-9259
dhavat	-9260
dingen	-9261
farriq	-9262
fassir	-9263
fessor	-9264
haiyon	-9265
hibban	-9266
hirana	-9267
kaddar	-9268
kamani	-9269
kaukab	-9270
khvast	-9271
masane	-9272
medari	-9273
midana	-9274
shaken	-9275
sidani	-9276
tkenge	-9277
ukidar	-9278
umiyan	-9279
ziyane	-9280
ziyyat	-9281
▁afvah	-9282
▁aibon	-9283
▁ajami	-9284
▁alaeq	-9285
▁ariza	-9286
▁asami	-9287
▁asham	-9288
▁ashti	-9289
▁atraf	-9290
▁bacho	-9291
▁bavle	-9292
▁bekal	-9293
▁bhanv	-9294
▁bigda	-9295
▁bigdo	-9296
▁bikhr	-9297
▁bitin	-9298
▁bolna	-9299
irvi	-9300
vvun	-9301
▁yum	-9302
chhne	-9303
harif	-9304
kadon	-9305
kadte	-9306
vaoge	-9307
▁devi	-9308
▁mehn	-9309
▁piro	-9310
▁ritl	-9311
▁yumn	-9312
sekhta	-9313
▁bolti	-9314
▁bunda	-9315
▁chhit	-9316
▁colla	-9317
▁colle	-9318
▁dabte	-9319
▁dahke	-9320
▁dahki	-9321
▁daqiq	-9322
▁dasna	-9323
▁dhang	-9324
▁dhare	-9325
▁dista	-9326
▁dolen	-9327
▁duboe	-9328
▁dukka	-9329
▁fatve	-9330
▁first	-9331
▁gadha	-9332
▁gahak	-9333
▁ghasb	-9334
▁ghiza	-9335
▁ghonp	-9336
▁ghulg	-9337
▁ginna	-9338
▁ginne	-9339
▁girvi	-9340
▁gumra	-9341
▁gyara	-9342
▁halal	-9343
▁hifaz	-9344
▁hoven	-9345
▁ijadi	-9346
▁ilaqe	-9347
▁jaden	-9348
▁jaiyo	-9349
▁jhada	-9350
▁jhade	-9351
▁jhadi	-9352
▁jhadu	-9353
▁jilae	-9354
▁julus	-9355
▁jumba	-9356
▁kadva	-9357
▁kalej	-9358
▁kasak	-9359
▁kason	-9360
▁kausi	-9361
▁khird	-9362
▁kosun	-9363
▁kudki	-9364
▁kudte	-9365
▁kumak	-9366
▁kurta	-9367
▁kurti	-9368
▁kutub	-9369
▁ladta	-9370
▁lahki	-9371
▁lakad	-9372
▁latad	-9373
▁lilla	-9374
▁lisan	-9375
▁mamlu	-9376
▁mamta	-9377
▁mamur	-9378
▁manea	-9379
▁mazid	-9380
▁minai	-9381
▁minar	-9382
▁mizab	-9383
▁moaja	-9384
▁moazz	-9385
▁mohaz	-9386
▁mojib	-9387
▁mojiz	-9388
▁mudne	-9389
▁mumki	-9390
▁musir	-9391
▁muzil	-9392
▁nangi	-9393
▁nanhe	-9394
▁natni	-9395
▁numon	-9396
▁nuqte	-9397
▁nyare	-9398
▁ochhi	-9399
edad	-9400
jate	-9401
land	-9402
fisal	-9403
ghare	-9404
sturi	-9405
▁bika	-9406
▁dhap	-9407
▁iqti	-9408
▁lute	-9409
▁mazb	-9410
▁nuri	-9411
▁saje	-9412
▁ajdad	-9413
▁amozi	-9414
▁amraz	-9415
▁anura	-9416
▁azima	-9417
▁bahki	-9418
▁bakhe	-9419
▁bayaz	-9420
▁danva	-9421
▁dhaha	-9422
▁dhaul	-9423
▁dubti	-9424
▁dukhe	-9425
▁imdad	-9426
▁iqlim	-9427
▁khasm	-9428
▁kohna	-9429
▁lakhe	-9430
▁mashg	-9431
▁mukhe	-9432
▁padav	-9433
▁pahri	-9434
▁pakde	-9435
▁pakdo	-9436
▁pazhm	-9437
▁phade	-9438
▁phate	-9439
▁phere	-9440
▁phone	-9441
▁phuta	-9442
▁phuti	-9443
▁pinas	-9444
▁pinha	-9445
▁pitte	-9446
▁polic	-9447
▁poron	-9448
▁pujna	-9449
▁qamis	-9450
▁qasir	-9451
▁qible	-9452
▁qudus	-9453
▁qulub	-9454
▁quyud	-9455
▁raddi	-9456
▁radha	-9457
▁ragad	-9458
▁rajaz	-9459
▁randa	-9460
▁ranen	-9461
▁ranja	-9462
▁razia	-9463
▁raziq	-9464
▁riste	-9465
▁rokta	-9466
▁rubah	-9467
▁rukne	-9468
▁rutbe	-9469
▁sadiq	-9470
▁saegi	-9471
▁sahme	-9472
▁saiqa	-9473
▁saiyy	-9474
▁sajja	-9475
▁sanpo	-9476
▁shang	-9477
▁shirk	-9478
▁sidra	-9479
▁simaa	-9480
▁sitad	-9481
▁subah	-9482
▁taass	-9483
▁takab	-9484
▁tanaa	-9485
▁tapti	-9486
▁tavva	-9487
▁tazal	-9488
▁thamo	-9489
▁tijar	-9490
▁tilon	-9491
▁tinat	-9492
▁tinon	-9493
▁todne	-9494
▁todun	-9495
▁tokta	-9496
▁tutna	-9497
▁tutta	-9498
▁udegi	-9499
naka	-9500
chish	-9501
dasti	-9502
kiyat	-9503
rabad	-9504
▁dane	-9505
▁ikka	-9506
▁jazr	-9507
▁kato	-9508
▁laim	-9509
▁nikh	-9510
▁resh	-9511
▁salo	-9512
▁zaka	-9513
erabad	-9514
sharat	-9515
zrabad	-9516
▁barae	-9517
▁chame	-9518
▁chhae	-9519
▁choti	-9520
▁dalla	-9521
▁darje	-9522
▁dhaka	-9523
▁futur	-9524
▁gajar	-9525
▁janka	-9526
▁kasti	-9527
▁katba	-9528
▁katna	-9529
▁katte	-9530
▁khafi	-9531
▁khurd	-9532
▁mahri	-9533
▁palta	-9534
▁palte	-9535
▁safon	-9536
▁sahti	-9537
▁tanaf	-9538
▁ukhad	-9539
▁uslub	-9540
▁vaiza	-9541
▁vaizo	-9542
▁vando	-9543
▁varam	-9544
▁vazaa	-9545
▁vazir	-9546
▁zaifi	-9547
▁zanan	-9548
▁zanon	-9549
▁zaqan	-9550
▁zimma	-9551
▁zujaj	-9552
angiyon	-9553
daliyon	-9554
derabad	-9555
ernment	-9556
faroshi	-9557
gafiyan	-9558
halunga	-9559
inkadon	-9560
laiyega	-9561
ofessor	-9562
umurrad	-9563
vafaqat	-9564
▁abruon	-9565
▁afaton	-9566
▁akarat	-9567
▁alapon	-9568
▁angare	-9569
▁angezi	-9570
▁angrez	-9571
▁anjane	-9572
▁aqilon	-9573
▁arifon	-9574
▁aubash	-9575
▁azadgi	-9576
▁azadon	-9577
▁azanon	-9578
▁azmate	-9579
▁azrana	-9580
▁bachte	-9581
▁badlin	-9582
▁baligh	-9583
▁bambai	-9584
▁banoge	-9585
▁basant	-9586
▁bekali	-9587
▁bhagat	-9588
▁bhalta	-9589
▁bhatti	-9590
▁bhigoe	-9591
▁bigden	-9592
▁blouse	-9593
▁budash	-9594
▁bulata	-9595
▁bulava	-9596
▁burdan	-9597
▁burqaa	-9598
▁chadhi	-9599
bam	-9600
fai	-9601
shm	-9602
▁je	-9603
adat	-9604
bahi	-9605
fana	-9606
fsha	-9607
ftun	-9608
gezi	-9609
nish	-9610
obar	-9611
shab	-9612
udgi	-9613
zida	-9614
▁div	-9615
▁diz	-9616
▁ikh	-9617
▁lul	-9618
▁zav	-9619
irati	-9620
labat	-9621
shada	-9622
uliya	-9623
▁dafa	-9624
▁lehu	-9625
▁lulu	-9626
▁park	-9627
▁pasu	-9628
▁ruma	-9629
▁sahr	-9630
▁sarg	-9631
gashta	-9632
istani	-9633
ushada	-9634
▁banav	-9635
▁bargi	-9636
▁dasne	-9637
▁faltu	-9638
▁farng	-9639
▁ghazi	-9640
▁giren	-9641
▁ikhfa	-9642
▁inton	-9643
▁jabha	-9644
▁jehun	-9645
▁miten	-9646
▁paise	-9647
▁saran	-9648
▁taish	-9649
▁tayar	-9650
▁asudgi	-9651
▁auliya	-9652
▁chahna	-9653
▁chamke	-9654
▁chamki	-9655
▁chauka	-9656
▁chetak	-9657
▁chhala	-9658
▁chhata	-9659
▁chhidi	-9660
▁chhile	-9661
▁chhina	-9662
▁chhine	-9663
▁chhuti	-9664
▁chimta	-9665
▁chirta	-9666
▁christ	-9667
▁chukai	-9668
▁chumen	-9669
▁chunun	-9670
▁dabana	-9671
▁dadgan	-9672
▁dadhen	-9673
▁daghal	-9674
▁dalegi	-9675
▁daliye	-9676
▁darane	-9677
▁darate	-9678
▁darati	-9679
▁dhadka	-9680
▁dhalki	-9681
▁dhanon	-9682
▁dharam	-9683
▁dharna	-9684
▁dharta	-9685
▁dhudli	-9686
▁dilana	-9687
▁dilaun	-9688
▁divang	-9689
▁dohrae	-9690
▁dukhte	-9691
▁dusham	-9692
▁etiraz	-9693
▁fagani	-9694
▁fanusi	-9695
▁farmao	-9696
▁fasden	-9697
▁fatiha	-9698
▁fatila	-9699
bas	-9700
gre	-9701
hle	-9702
lia	-9703
sli	-9704
tah	-9705
amat	-9706
date	-9707
erak	-9708
ufur	-9709
zagi	-9710
▁ano	-9711
▁iti	-9712
▁jav	-9713
▁jim	-9714
▁pet	-9715
▁qaz	-9716
▁suf	-9717
▁unt	-9718
hiyar	-9719
kande	-9720
tiyon	-9721
▁asre	-9722
▁baga	-9723
▁beta	-9724
▁beti	-9725
▁elia	-9726
▁ghau	-9727
▁gust	-9728
▁lago	-9729
▁male	-9730
▁sujh	-9731
▁suma	-9732
▁tule	-9733
bassim	-9734
marani	-9735
sattah	-9736
▁adaon	-9737
▁azlam	-9738
▁batti	-9739
▁darha	-9740
▁degre	-9741
▁itiha	-9742
▁janti	-9743
▁javid	-9744
▁jebon	-9745
▁kisan	-9746
▁ladte	-9747
▁lathi	-9748
▁misra	-9749
▁neosh	-9750
▁pakda	-9751
▁qazza	-9752
▁sufra	-9753
▁tirya	-9754
▁umand	-9755
▁vufur	-9756
▁anokhi	-9757
▁bagash	-9758
▁bahlao	-9759
▁chilon	-9760
▁dudman	-9761
▁firang	-9762
▁firdos	-9763
▁firqon	-9764
▁fitnon	-9765
▁ganvae	-9766
▁ganvao	-9767
▁gazida	-9768
▁ghadne	-9769
▁ghalti	-9770
▁ghaner	-9771
▁ghariq	-9772
▁gharra	-9773
▁ghayal	-9774
▁ghazna	-9775
▁ghilaf	-9776
▁ghisne	-9777
▁ghonta	-9778
▁ghurfa	-9779
▁gorkan	-9780
▁gulbun	-9781
▁gunjen	-9782
▁gunjta	-9783
▁hadiya	-9784
▁hajiyo	-9785
▁hallaj	-9786
▁hansai	-9787
▁harfon	-9788
▁hasina	-9789
▁havari	-9790
▁hilati	-9791
▁hirfat	-9792
▁hojiyo	-9793
▁hujjat	-9794
▁imamon	-9795
▁imanon	-9796
▁iqamat	-9797
▁istima	-9798
▁itihas	-9799
ama	-9800
lic	-9801
rve	-9802
zdi	-9803
▁fe	-9804
▁oh	-9805
blic	-9806
ehsi	-9807
hone	-9808
irag	-9809
khne	-9810
phri	-9811
▁bag	-9812
▁hif	-9813
▁his	-9814
▁sif	-9815
▁tel	-9816
lidan	-9817
phone	-9818
zdida	-9819
▁amda	-9820
▁atiq	-9821
▁auza	-9822
▁beda	-9823
▁bivi	-9824
▁feal	-9825
▁gadh	-9826
▁hifz	-9827
▁jhid	-9828
▁mate	-9829
▁ohde	-9830
▁banat	-9831
▁durus	-9832
▁gagar	-9833
▁kaffa	-9834
▁kanpe	-9835
▁katen	-9836
▁laban	-9837
▁likho	-9838
▁manao	-9839
▁nerve	-9840
▁sifla	-9841
▁tahan	-9842
▁toama	-9843
▁ubhra	-9844
▁uktar	-9845
▁vehsi	-9846
lephone	-9847
▁babron	-9848
▁bairag	-9849
▁biphri	-9850
▁boriye	-9851
▁chunan	-9852
▁istika	-9853
▁itrata	-9854
▁itrate	-9855
▁jagana	-9856
▁jagaya	-9857
▁jalson	-9858
▁jankah	-9859
▁jaraem	-9860
▁jhalka	-9861
▁jhalti	-9862
▁jhamke	-9863
▁jhanak	-9864
▁jhanjh	-9865
▁jhanke	-9866
▁jhidki	-9867
▁jhuton	-9868
▁jismon	-9869
▁jiyoge	-9870
▁jumban	-9871
▁kalbad	-9872
▁kamsin	-9873
▁kandha	-9874
▁kanpte	-9875
▁kapdon	-9876
▁karata	-9877
▁karsaz	-9878
▁katman	-9879
▁kaukab	-9880
▁khaega	-9881
▁khaiyo	-9882
▁kharij	-9883
▁khasak	-9884
▁khashm	-9885
▁khatam	-9886
▁khelen	-9887
▁khelta	-9888
▁khifai	-9889
▁khilna	-9890
▁khizab	-9891
▁khoden	-9892
▁kholne	-9893
▁khushn	-9894
▁khushu	-9895
▁kirmak	-9896
▁kodani	-9897
▁kuchal	-9898
▁kuchen	-9899
zl	-9900
lec	-9901
tib	-9902
tuf	-9903
bari	-9904
holi	-9905
lect	-9906
mali	-9907
niya	-9908
sani	-9909
taza	-9910
vaen	-9911
vash	-9912
▁gad	-9913
▁pis	-9914
▁qan	-9915
▁zaa	-9916
jdhar	-9917
latun	-9918
qtaza	-9919
uddin	-9920
▁bete	-9921
▁bust	-9922
▁chaq	-9923
▁fazl	-9924
▁gata	-9925
▁hoge	-9926
▁isar	-9927
▁kadu	-9928
▁kahl	-9929
▁kavi	-9930
▁khuf	-9931
▁masu	-9932
▁pith	-9933
▁qand	-9934
▁roen	-9935
▁rozg	-9936
lectri	-9937
▁afzai	-9938
▁banun	-9939
▁barta	-9940
▁bhate	-9941
▁bikte	-9942
▁chuma	-9943
▁daban	-9944
▁galon	-9945
▁jholi	-9946
▁jinan	-9947
▁lutti	-9948
▁makki	-9949
▁pansa	-9950
▁salle	-9951
▁samra	-9952
▁shagu	-9953
▁suron	-9954
▁teshe	-9955
lectric	-9956
▁ariyat	-9957
▁balida	-9958
▁bartao	-9959
▁chaqma	-9960
▁chhape	-9961
▁dabane	-9962
▁dhalta	-9963
▁ginata	-9964
▁girami	-9965
▁insani	-9966
▁jhukun	-9967
▁kambal	-9968
▁karana	-9969
▁laalin	-9970
▁laengi	-9971
▁lahlut	-9972
▁langar	-9973
▁laulak	-9974
▁lauten	-9975
▁lautne	-9976
▁libada	-9977
▁lipten	-9978
▁lutati	-9979
▁maabud	-9980
▁maasuq	-9981
▁machan	-9982
▁madani	-9983
▁maftun	-9984
▁mahnge	-9985
▁mahngi	-9986
▁makhfi	-9987
▁malakh	-9988
▁malbon	-9989
▁mandgi	-9990
▁manoge	-9991
▁mardon	-9992
▁margho	-9993
▁marhun	-9994
▁mashal	-9995
▁mashra	-9996
▁maston	-9997
▁masumi	-9998
▁mauhum	-9999
ght	-10000
liq	-10001
ond	-10002
oni	-10003
our	-10004
rau	-10005
yag	-10006
chhe	-10007
cond	-10008
htat	-10009
rate	-10010
vale	-10011
vaon	-10012
▁eal	-10013
▁lak	-10014
▁nap	-10015
▁nit	-10016
▁tag	-10017
▁tav	-10018
▁tuj	-10019
alliq	-10020
iyaza	-10021
jhate	-10022
niyon	-10023
▁duja	-10024
▁haur	-10025
▁jach	-10026
▁jhul	-10027
▁muqi	-10028
▁rach	-10029
▁sahn	-10030
▁shat	-10031
▁thir	-10032
▁tuda	-10033
▁tujk	-10034
▁tyag	-10035
darrau	-10036
kabbir	-10037
navaon	-10038
▁amdam	-10039
▁aqaed	-10040
▁baiat	-10041
▁besan	-10042
▁darna	-10043
▁ealan	-10044
▁lakdi	-10045
▁light	-10046
▁mohar	-10047
▁munde	-10048
▁muqim	-10049
▁parni	-10050
▁sathi	-10051
▁shatr	-10052
▁sujhe	-10053
▁tabad	-10054
▁talve	-10055
▁taviz	-10056
▁third	-10057
▁tikhe	-10058
▁anadil	-10059
▁basera	-10060
▁bohtat	-10061
▁charag	-10062
▁chirun	-10063
▁duboni	-10064
▁honour	-10065
▁jachte	-10066
▁jataen	-10067
▁khisal	-10068
▁kholin	-10069
▁kholna	-10070
▁mashin	-10071
▁maulud	-10072
▁mauqaa	-10073
▁maurid	-10074
▁mazbut	-10075
▁mehndi	-10076
▁membar	-10077
▁middle	-10078
▁miloge	-10079
▁minqar	-10080
▁misraa	-10081
▁mistar	-10082
▁mitana	-10083
▁mitata	-10084
▁mizhah	-10085
▁mohtaj	-10086
▁mukhde	-10087
▁munder	-10088
▁mundni	-10089
▁muradi	-10090
▁murghe	-10091
▁musaid	-10092
▁mushaf	-10093
▁mushir	-10094
▁muzmar	-10095
▁nabati	-10096
▁nachar	-10097
▁nadari	-10098
▁nahaen	-10099
ard	-10100
lha	-10101
raq	-10102
tol	-10103
arra	-10104
indi	-10105
isat	-10106
ivil	-10107
▁ajr	-10108
▁alb	-10109
▁amb	-10110
▁daj	-10111
▁dig	-10112
▁laa	-10113
bisat	-10114
pindi	-10115
surat	-10116
tolte	-10117
yunti	-10118
▁bast	-10119
▁haij	-10120
▁ikla	-10121
▁jhar	-10122
▁kijo	-10123
▁lail	-10124
▁laja	-10125
▁naal	-10126
▁niza	-10127
▁ohda	-10128
▁umde	-10129
▁zagh	-10130
arragh	-10131
kiyyat	-10132
▁abila	-10133
▁album	-10134
▁amboh	-10135
▁apman	-10136
▁ashta	-10137
▁barti	-10138
▁barud	-10139
▁civil	-10140
▁dajla	-10141
▁dilao	-10142
▁iklau	-10143
▁kabak	-10144
▁khili	-10145
▁lahar	-10146
▁mango	-10147
▁sagar	-10148
▁sehat	-10149
▁taqon	-10150
▁tatti	-10151
arraghm	-10152
▁bulati	-10153
▁dekhni	-10154
▁digran	-10155
▁ishvon	-10156
▁jahani	-10157
▁jharna	-10158
▁kargah	-10159
▁khilat	-10160
▁khuyan	-10161
▁laanat	-10162
▁lahlha	-10163
▁nahaya	-10164
▁nahiye	-10165
▁nahren	-10166
▁naisan	-10167
▁namard	-10168
▁naqabi	-10169
▁naqqad	-10170
▁nasikh	-10171
▁natije	-10172
▁nature	-10173
▁nauroz	-10174
▁navaen	-10175
▁navvab	-10176
▁nazmon	-10177
▁neamat	-10178
▁nibhai	-10179
▁nihali	-10180
▁nikhra	-10181
▁niklin	-10182
▁nilgun	-10183
▁nimche	-10184
▁nirala	-10185
▁nirasi	-10186
▁nisyah	-10187
▁nivale	-10188
▁nujumi	-10189
▁nushur	-10190
▁pagdan	-10191
▁painda	-10192
▁pairvi	-10193
▁pamali	-10194
▁panave	-10195
▁parvin	-10196
▁paunga	-10197
▁phalte	-10198
▁phanda	-10199
kil	-10200
ner	-10201
tla	-10202
diqi	-10203
ghil	-10204
hons	-10205
huqi	-10206
tega	-10207
▁rea	-10208
▁zae	-10209
hidan	-10210
kashi	-10211
shate	-10212
▁daya	-10213
▁gona	-10214
▁kath	-10215
▁nabi	-10216
▁nahr	-10217
▁pisa	-10218
▁qarb	-10219
▁sahu	-10220
▁sanb	-10221
ghasan	-10222
ghribi	-10223
tlaoge	-10224
▁ahmad	-10225
▁batni	-10226
▁dhons	-10227
▁ghote	-10228
▁guzir	-10229
▁kafak	-10230
▁khaun	-10231
▁khuja	-10232
▁lahna	-10233
▁margi	-10234
▁milva	-10235
▁nanga	-10236
▁nanha	-10237
▁nilam	-10238
▁reaya	-10239
▁sulat	-10240
▁tarai	-10241
▁vakil	-10242
▁vasul	-10243
▁yakka	-10244
▁banduq	-10245
▁dinner	-10246
▁giriya	-10247
▁jaliye	-10248
▁katora	-10249
▁parvah	-10250
▁pherta	-10251
▁phisli	-10252
▁phukni	-10253
▁phutne	-10254
▁pighla	-10255
▁pilate	-10256
▁pilvai	-10257
▁pirana	-10258
▁pirota	-10259
▁piyade	-10260
▁piyare	-10261
▁police	-10262
▁policy	-10263
▁public	-10264
▁pyason	-10265
▁qabren	-10266
▁qadren	-10267
▁qamash	-10268
▁qasbon	-10269
▁qasmen	-10270
▁qassab	-10271
▁qavafi	-10272
▁qazzaq	-10273
▁qibala	-10274
▁quamri	-10275
▁rachai	-10276
▁rachna	-10277
▁raftan	-10278
▁rahiyo	-10279
▁rakhao	-10280
▁raqsan	-10281
▁rashid	-10282
▁rasida	-10283
▁rengti	-10284
▁risale	-10285
▁risani	-10286
▁ruedad	-10287
▁ruhani	-10288
▁rukhon	-10289
▁rulata	-10290
▁ruthne	-10291
▁ruthta	-10292
▁ruthte	-10293
▁saadat	-10294
▁saaton	-10295
▁sadken	-10296
▁saeban	-10297
▁saheli	-10298
▁sahibo	-10299
bba	-10300
ohe	-10301
taf	-10302
urg	-10303
vra	-10304
yas	-10305
ayar	-10306
baik	-10307
geon	-10308
hute	-10309
kire	-10310
llum	-10311
▁izz	-10312
▁jon	-10313
▁suq	-10314
qibad	-10315
sanni	-10316
shyam	-10317
▁armi	-10318
▁bhun	-10319
▁dang	-10320
▁ezaz	-10321
▁gade	-10322
▁garo	-10323
▁gurg	-10324
▁jahl	-10325
▁kaya	-10326
▁mear	-10327
▁muba	-10328
▁qavi	-10329
▁roab	-10330
▁rufa	-10331
▁ujli	-10332
▁umam	-10333
hutere	-10334
sannif	-10335
▁ablaq	-10336
▁alqab	-10337
▁altaf	-10338
▁avegi	-10339
▁bulbu	-10340
▁chait	-10341
▁darya	-10342
▁girin	-10343
▁gunje	-10344
▁hushi	-10345
▁ilyas	-10346
▁jaman	-10347
▁jubba	-10348
▁mavra	-10349
▁nakus	-10350
▁pursa	-10351
▁qadan	-10352
▁qahat	-10353
▁sanea	-10354
▁sosan	-10355
▁tarfa	-10356
▁udaen	-10357
▁yaman	-10358
▁amrohe	-10359
▁banata	-10360
▁bhagen	-10361
▁chalav	-10362
▁chinon	-10363
▁dhamki	-10364
▁dhokon	-10365
▁girtin	-10366
▁haddad	-10367
▁hunari	-10368
▁lautna	-10369
▁meayar	-10370
▁padhta	-10371
▁padsha	-10372
▁phutti	-10373
▁rufaqa	-10374
▁sahiri	-10375
▁sajaun	-10376
▁sajdon	-10377
▁sameta	-10378
▁samraj	-10379
▁samsam	-10380
▁samten	-10381
▁samton	-10382
▁sanasi	-10383
▁sanjab	-10384
▁sanjan	-10385
▁sanvli	-10386
▁sanvra	-10387
▁sanvre	-10388
▁sapand	-10389
▁sardar	-10390
▁sarkai	-10391
▁sartaj	-10392
▁sataen	-10393
▁satate	-10394
▁satvan	-10395
▁savadi	-10396
▁sayyal	-10397
▁second	-10398
▁shaban	-10399
hy	-10400
zb	-10401
ehl	-10402
fun	-10403
hla	-10404
lai	-10405
miq	-10406
sul	-10407
the	-10408
ves	-10409
▁hy	-10410
badi	-10411
hade	-10412
hula	-10413
sazi	-10414
▁kos	-10415
▁sej	-10416
▁som	-10417
▁ukh	-10418
lakon	-10419
qasim	-10420
umhla	-10421
▁abna	-10422
▁aqil	-10423
▁emar	-10424
▁jehl	-10425
▁jude	-10426
▁kizb	-10427
▁nani	-10428
▁nasa	-10429
▁pain	-10430
▁udna	-10431
▁uves	-10432
▁zaid	-10433
khaton	-10434
▁bahat	-10435
▁bayad	-10436
▁bhuna	-10437
▁dabti	-10438
▁dulai	-10439
▁ghara	-10440
▁huzan	-10441
▁jalon	-10442
▁jidal	-10443
▁kasan	-10444
▁kothe	-10445
▁quzah	-10446
▁rokun	-10447
▁salah	-10448
▁udhad	-10449
▁ukhda	-10450
▁usuli	-10451
▁vamiq	-10452
▁vaqar	-10453
▁akhade	-10454
▁asiron	-10455
▁jhumta	-10456
▁khudon	-10457
▁kisvat	-10458
▁kumhla	-10459
▁lagani	-10460
▁madfun	-10461
▁mahsul	-10462
▁mahzun	-10463
▁masale	-10464
▁nasabi	-10465
▁phodti	-10466
▁pursan	-10467
▁reshgi	-10468
▁sahifa	-10469
▁shadan	-10470
▁shahri	-10471
▁shekhi	-10472
▁sholon	-10473
▁shudan	-10474
▁shugun	-10475
▁shumal	-10476
▁shumul	-10477
▁silvat	-10478
▁siphar	-10479
▁sitani	-10480
▁soengi	-10481
▁somnat	-10482
▁subhon	-10483
▁suiyan	-10484
▁sujhae	-10485
▁sujhai	-10486
▁sujhta	-10487
▁suqrat	-10488
▁surmai	-10489
▁taabon	-10490
▁taadad	-10491
▁tabadd	-10492
▁tabqon	-10493
▁taerak	-10494
▁tahsil	-10495
▁takhta	-10496
▁takrai	-10497
▁tamadd	-10498
▁tanaff	-10499
hn	-10500
kda	-10501
hran	-10502
khen	-10503
unda	-10504
▁dik	-10505
▁haj	-10506
▁jor	-10507
▁keh	-10508
▁ula	-10509
▁yaz	-10510
hrega	-10511
▁azra	-10512
▁buad	-10513
▁daka	-10514
▁jaha	-10515
▁kala	-10516
▁kave	-10517
▁rail	-10518
▁rehn	-10519
stiyan	-10520
▁atash	-10521
▁badri	-10522
▁bhagi	-10523
▁chuni	-10524
▁daste	-10525
▁ghaiz	-10526
▁girja	-10527
▁girne	-10528
▁ismat	-10529
▁jakda	-10530
▁jalin	-10531
▁lahai	-10532
▁mitai	-10533
▁nafar	-10534
▁pilai	-10535
▁rokne	-10536
▁turab	-10537
▁ugaen	-10538
▁ulama	-10539
▁badhai	-10540
▁bohran	-10541
▁fashar	-10542
▁ghutti	-10543
▁hirman	-10544
▁kushan	-10545
▁lagave	-10546
▁lutata	-10547
▁mahzar	-10548
▁mamure	-10549
▁mangna	-10550
▁masdud	-10551
▁naslon	-10552
▁rasmon	-10553
▁sanjon	-10554
▁sapari	-10555
▁shiraz	-10556
▁sinche	-10557
▁sinchi	-10558
▁siyana	-10559
▁tamghe	-10560
▁tankti	-10561
▁tanqid	-10562
▁taqdis	-10563
▁tasdiq	-10564
▁taufir	-10565
▁tauhid	-10566
▁tauhin	-10567
▁tavari	-10568
▁tavvam	-10569
▁tazalz	-10570
▁tehqiq	-10571
▁thakne	-10572
▁thalag	-10573
▁thamti	-10574
▁tiflak	-10575
▁tujkun	-10576
▁turrah	-10577
▁ubalti	-10578
▁ubhara	-10579
▁ubhrin	-10580
▁uchhle	-10581
▁udaiye	-10582
▁udenge	-10583
▁ugalta	-10584
▁uksane	-10585
▁uktare	-10586
▁ulatte	-10587
▁uljhun	-10588
▁umadti	-10589
▁ummido	-10590
▁undelo	-10591
▁uriyan	-10592
▁uthega	-10593
▁vahmon	-10594
▁vantar	-10595
▁vaqiat	-10596
▁vaslat	-10597
▁vatani	-10598
▁yagane	-10599
hif	-10600
arad	-10601
hine	-10602
siqi	-10603
▁baf	-10604
▁inj	-10605
uthai	-10606
▁gang	-10607
▁luti	-10608
▁raft	-10609
▁roin	-10610
▁targ	-10611
▁ajaib	-10612
▁alava	-10613
▁andhe	-10614
▁aunga	-10615
▁badar	-10616
▁bando	-10617
▁banin	-10618
▁banon	-10619
▁bhata	-10620
▁bhuka	-10621
▁chume	-10622
▁dadan	-10623
▁hamla	-10624
▁injil	-10625
▁khvaj	-10626
▁milun	-10627
▁mukhi	-10628
▁nahif	-10629
▁ratan	-10630
▁ridai	-10631
▁sabad	-10632
▁spech	-10633
▁subul	-10634
▁tabaa	-10635
▁tabii	-10636
▁tarsa	-10637
▁ablagh	-10638
▁atarad	-10639
▁aurang	-10640
▁bandhi	-10641
▁baniye	-10642
▁bhagne	-10643
▁bustan	-10644
▁chunta	-10645
▁ediyon	-10646
▁guzish	-10647
▁haqdar	-10648
▁jhutla	-10649
▁kabhar	-10650
▁khavar	-10651
▁mahine	-10652
▁mearaj	-10653
▁milate	-10654
▁pasukh	-10655
▁sajaen	-10656
▁sarbaz	-10657
▁shahba	-10658
▁sipari	-10659
▁tafrih	-10660
▁tarazi	-10661
▁yakbar	-10662
▁yaqini	-10663
▁yarana	-10664
▁yasmin	-10665
▁yazdan	-10666
▁zaafar	-10667
▁zahiri	-10668
▁zaiche	-10669
▁zairon	-10670
▁zanuon	-10671
▁zarfon	-10672
▁zarrin	-10673
▁zaviye	-10674
▁zindiq	-10675
▁zuhuri	-10676
hutkiyan	-10677
ildingen	-10678
jhavenge	-10679
rofessor	-10680
valpindi	-10681
vernment	-10682
▁aflatun	-10683
▁afzaish	-10684
▁aghniya	-10685
▁ahmaqon	-10686
▁aivanon	-10687
▁akhirat	-10688
▁alvandi	-10689
▁amrohvi	-10690
▁anganon	-10691
▁angaron	-10692
▁anuragi	-10693
▁armanon	-10694
▁ashtami	-10695
▁ashyani	-10696
▁bachana	-10697
▁bachaya	-10698
▁badhaya	-10699
dib	-10700
jaf	-10701
qum	-10702
ismi	-10703
mati	-10704
sikh	-10705
sina	-10706
▁kub	-10707
mandi	-10708
matta	-10709
siyan	-10710
▁ahdi	-10711
▁aqab	-10712
▁ayya	-10713
▁buda	-10714
▁hadi	-10715
▁hisi	-10716
▁lais	-10717
▁laus	-10718
▁mari	-10719
▁maro	-10720
▁marv	-10721
▁tasi	-10722
▁aqlim	-10723
▁arazu	-10724
▁barsi	-10725
▁buzar	-10726
▁dohar	-10727
▁jagna	-10728
▁nagah	-10729
▁najaf	-10730
▁nosha	-10731
▁phans	-10732
▁qaqum	-10733
▁rache	-10734
▁rahmi	-10735
▁tadib	-10736
▁tosha	-10737
▁zabar	-10738
▁andhar	-10739
▁ayyami	-10740
▁barbat	-10741
▁barten	-10742
▁bhigun	-10743
▁chandi	-10744
▁chatni	-10745
▁chipka	-10746
▁dukhti	-10747
▁halabi	-10748
▁jankar	-10749
▁kataya	-10750
▁khamir	-10751
▁kharri	-10752
▁khatke	-10753
▁nahati	-10754
▁pasina	-10755
▁rahvar	-10756
▁safari	-10757
▁thukte	-10758
▁andhari	-10759
▁badhegi	-10760
▁bahakne	-10761
▁bahalti	-10762
▁bahlaya	-10763
▁baithin	-10764
▁baithte	-10765
▁bakhede	-10766
▁bakhili	-10767
▁bakhtan	-10768
▁banaoge	-10769
▁bandhan	-10770
▁banengi	-10771
▁banjare	-10772
▁bankpan	-10773
▁bansuri	-10774
▁banunga	-10775
▁barakat	-10776
▁bardari	-10777
▁bariyon	-10778
▁barsate	-10779
▁barsati	-10780
▁bastagi	-10781
▁bastiyo	-10782
▁batlaen	-10783
▁batlata	-10784
▁batlaun	-10785
▁bayanon	-10786
▁bazinda	-10787
▁behijab	-10788
▁bhanvre	-10789
▁bharose	-10790
▁bhejoge	-10791
▁bhigona	-10792
▁bhikari	-10793
▁bhikshu	-10794
▁bhulaun	-10795
▁bigadna	-10796
▁bikhera	-10797
▁bilaval	-10798
▁bilorin	-10799
lus	-10800
qai	-10801
sva	-10802
gade	-10803
hiya	-10804
▁hoe	-10805
▁miq	-10806
▁vuz	-10807
darat	-10808
salik	-10809
varat	-10810
varen	-10811
▁amar	-10812
▁anaj	-10813
▁aviz	-10814
▁buka	-10815
▁buna	-10816
▁dade	-10817
▁evaz	-10818
▁jauf	-10819
▁jvar	-10820
▁khve	-10821
▁lade	-10822
▁mahl	-10823
▁myan	-10824
▁qaus	-10825
▁sade	-10826
▁site	-10827
▁tajr	-10828
▁ulum	-10829
▁utho	-10830
▁utni	-10831
▁vuzu	-10832
hallus	-10833
▁abdar	-10834
▁andam	-10835
▁andha	-10836
▁batha	-10837
▁besva	-10838
▁gharb	-10839
▁gufta	-10840
▁hasra	-10841
▁indar	-10842
▁inhen	-10843
▁matun	-10844
▁nadar	-10845
▁nazir	-10846
▁peshe	-10847
▁salim	-10848
▁sikhe	-10849
▁sunen	-10850
▁suvar	-10851
▁tadka	-10852
▁tanko	-10853
▁thaka	-10854
▁ujlat	-10855
▁uthin	-10856
▁vaqai	-10857
▁avazen	-10858
▁bargah	-10859
▁bigade	-10860
▁dhappa	-10861
▁dokhta	-10862
▁gaenge	-10863
▁hammam	-10864
▁kamaya	-10865
▁khvesh	-10866
▁miqdar	-10867
▁rahebi	-10868
▁rulati	-10869
▁sannaa	-10870
▁shahab	-10871
▁suniye	-10872
▁tajrid	-10873
▁tarani	-10874
▁uthiye	-10875
▁vaqiye	-10876
▁bechare	-10877
▁betiyan	-10878
▁bitenge	-10879
▁bithata	-10880
▁bujhata	-10881
▁bujhaya	-10882
▁bulbule	-10883
▁bustani	-10884
▁buzurgi	-10885
▁chadhae	-10886
▁chadhao	-10887
▁chahkar	-10888
▁chalegi	-10889
▁chaltin	-10890
▁chameli	-10891
▁chamkao	-10892
▁chaqmaq	-10893
▁chardah	-10894
▁chauras	-10895
▁chausar	-10896
▁chhalni	-10897
▁chhapti	-10898
▁chhaton	-10899
jabi	-10900
yish	-10901
▁yug	-10902
vanon	-10903
▁arse	-10904
▁asil	-10905
▁ayaz	-10906
▁bibi	-10907
▁bota	-10908
▁dalq	-10909
▁deve	-10910
▁halq	-10911
▁hasr	-10912
▁juma	-10913
▁rato	-10914
▁rogi	-10915
▁seti	-10916
▁tarh	-10917
▁ubur	-10918
▁arabi	-10919
▁basir	-10920
▁bhaun	-10921
▁diler	-10922
▁farsi	-10923
▁ghana	-10924
▁jacha	-10925
▁jalsa	-10926
▁jalun	-10927
▁kasta	-10928
▁maari	-10929
▁maida	-10930
▁maigi	-10931
▁mitha	-10932
▁nibhi	-10933
▁paras	-10934
▁ruhul	-10935
▁sanai	-10936
▁sasta	-10937
▁shabi	-10938
▁vafat	-10939
▁apnana	-10940
▁ashyan	-10941
▁astani	-10942
▁basani	-10943
▁bharna	-10944
▁churae	-10945
▁dekhin	-10946
▁dikhao	-10947
▁furqan	-10948
▁jhamak	-10949
▁khilta	-10950
▁khvast	-10951
▁lavegi	-10952
▁maadan	-10953
▁mahlon	-10954
▁padash	-10955
▁razdar	-10956
▁toshak	-10957
▁turshi	-10958
▁vasila	-10959
▁zaghan	-10960
▁zamini	-10961
▁zardar	-10962
▁bimaron	-10963
▁bulbula	-10964
▁burrish	-10965
▁charche	-10966
▁chheden	-10967
▁chhedna	-10968
▁chhedte	-10969
▁chhidka	-10970
▁chhitki	-10971
▁chhupna	-10972
▁chhupne	-10973
▁chhuten	-10974
▁chhutun	-10975
▁chikhne	-10976
▁chikhun	-10977
▁chukega	-10978
▁churana	-10979
▁churate	-10980
▁chyunti	-10981
▁collage	-10982
▁college	-10983
▁dafinon	-10984
▁dafnane	-10985
▁dahakte	-10986
▁dahakti	-10987
▁dahqani	-10988
▁dalanon	-10989
▁dalenge	-10990
▁dallala	-10991
▁damakta	-10992
▁darbani	-10993
▁dardnak	-10994
▁darhami	-10995
▁daryaft	-10996
▁dhalega	-10997
▁dhandli	-10998
▁dhanpne	-10999
▁od	-11000
fili	-11001
htaj	-11002
sarr	-11003
ghami	-11004
laton	-11005
vasta	-11006
zimat	-11007
▁aden	-11008
▁afla	-11009
▁buto	-11010
▁gote	-11011
▁misi	-11012
▁rove	-11013
▁sove	-11014
▁taki	-11015
▁tane	-11016
▁tazi	-11017
▁umda	-11018
sarruf	-11019
vandan	-11020
▁abtar	-11021
▁afgar	-11022
▁akhri	-11023
▁andud	-11024
▁aqdar	-11025
▁avaza	-11026
▁bante	-11027
▁dagha	-11028
▁darai	-11029
▁gahna	-11030
▁girun	-11031
▁halon	-11032
▁hisan	-11033
▁jhuma	-11034
▁junhi	-11035
▁khoni	-11036
▁kundi	-11037
▁lagen	-11038
▁muvah	-11039
▁namon	-11040
▁narkh	-11041
▁nashi	-11042
▁odhte	-11043
▁pahne	-11044
▁paisa	-11045
▁qadri	-11046
▁qasme	-11047
▁samak	-11048
▁satao	-11049
▁sharq	-11050
▁tanik	-11051
▁turan	-11052
▁uthun	-11053
▁aflaki	-11054
▁apnata	-11055
▁aspand	-11056
▁bandgi	-11057
▁bastam	-11058
▁boliye	-11059
▁chahal	-11060
▁chargi	-11061
▁dilata	-11062
▁jhapti	-11063
▁lajate	-11064
▁malida	-11065
▁muhtaj	-11066
▁naukar	-11067
▁niyami	-11068
▁pazand	-11069
▁rakhsh	-11070
▁sakoge	-11071
▁salona	-11072
▁samain	-11073
▁samata	-11074
▁shohra	-11075
▁sipahi	-11076
▁alamiya	-11077
▁barfili	-11078
▁chalane	-11079
▁chandna	-11080
▁devtaon	-11081
▁dharmon	-11082
▁dhdakna	-11083
▁dhundhe	-11084
▁dhundti	-11085
▁dibacha	-11086
▁dikhain	-11087
▁dikhane	-11088
▁dikhlae	-11089
▁dohrata	-11090
▁doshina	-11091
▁doshiza	-11092
▁dubenge	-11093
▁dukhati	-11094
▁dukhaya	-11095
▁dupatta	-11096
▁dupatte	-11097
▁duriyan	-11098
▁duriyon	-11099
lke	-11100
rif	-11101
uft	-11102
ddal	-11103
▁ahr	-11104
▁bod	-11105
▁gon	-11106
▁mim	-11107
▁pud	-11108
khaza	-11109
▁banu	-11110
▁bhae	-11111
▁boda	-11112
▁bove	-11113
▁faqa	-11114
▁liqa	-11115
▁luft	-11116
▁nasr	-11117
▁qrar	-11118
▁ragi	-11119
▁afzan	-11120
▁dabao	-11121
▁galim	-11122
▁ghere	-11123
▁ghuli	-11124
▁ifrat	-11125
▁jatan	-11126
▁kabud	-11127
▁kafni	-11128
▁khote	-11129
▁khove	-11130
▁maruf	-11131
▁maten	-11132
▁maton	-11133
▁mazur	-11134
▁muhas	-11135
▁qarin	-11136
▁razai	-11137
▁sankh	-11138
▁talaf	-11139
▁talai	-11140
▁thaki	-11141
▁tisha	-11142
▁umren	-11143
▁varud	-11144
▁abdari	-11145
▁afrozi	-11146
▁ahrman	-11147
▁bhavan	-11148
▁bhulta	-11149
▁chalin	-11150
▁dukhon	-11151
▁indiya	-11152
▁jamana	-11153
▁jataya	-11154
▁khangi	-11155
▁khinga	-11156
▁lagain	-11157
▁lamhat	-11158
▁puchhi	-11159
▁pyaron	-11160
▁qafiya	-11161
▁ranjha	-11162
▁sanehe	-11163
▁shahad	-11164
▁sunani	-11165
▁sunave	-11166
▁takhti	-11167
▁zadani	-11168
▁zakhma	-11169
▁durusti	-11170
▁duzdida	-11171
▁england	-11172
▁faislon	-11173
▁fankari	-11174
▁farakhi	-11175
▁farbahi	-11176
▁farebam	-11177
▁farmati	-11178
▁farmaya	-11179
▁farmuda	-11180
▁faroshi	-11181
▁fasilon	-11182
▁fihrist	-11183
▁firozan	-11184
▁fitrati	-11185
▁gadayan	-11186
▁gahvara	-11187
▁ganjine	-11188
▁ganvaen	-11189
▁ganvane	-11190
▁ganvaun	-11191
▁gardida	-11192
▁gashtan	-11193
▁gazette	-11194
▁ghabrai	-11195
▁ghaddar	-11196
▁ghaltan	-11197
▁ghamgin	-11198
▁ghamnak	-11199
rem	-11200
suli	-11201
▁bed	-11202
▁ism	-11203
haten	-11204
khila	-11205
sahat	-11206
yaron	-11207
▁agla	-11208
▁amuz	-11209
▁atin	-11210
▁azam	-11211
▁dher	-11212
▁gine	-11213
▁prem	-11214
▁anfas	-11215
▁darba	-11216
▁deval	-11217
▁ehzar	-11218
▁gayah	-11219
▁jamti	-11220
▁jasad	-11221
▁karod	-11222
▁kasne	-11223
▁mangi	-11224
▁masum	-11225
▁milan	-11226
▁naqus	-11227
▁qarya	-11228
▁rassi	-11229
▁rumal	-11230
▁rusul	-11231
▁tapta	-11232
▁tarhi	-11233
▁todna	-11234
▁uthna	-11235
▁aghlab	-11236
▁ashiya	-11237
▁asiyon	-11238
▁baitho	-11239
▁bhulun	-11240
▁bichhe	-11241
▁dhabba	-11242
▁gardon	-11243
▁haihat	-11244
▁hamnam	-11245
▁jagati	-11246
▁jaudat	-11247
▁kahoge	-11248
▁kangar	-11249
▁khaded	-11250
▁likhni	-11251
▁lutate	-11252
▁milati	-11253
▁mithai	-11254
▁mutala	-11255
▁nachta	-11256
▁pashna	-11257
▁patvar	-11258
▁qadimi	-11259
▁qarine	-11260
▁raubab	-11261
▁rekhta	-11262
▁sairon	-11263
▁samane	-11264
▁shaiba	-11265
▁sitaro	-11266
▁tabish	-11267
▁bandhin	-11268
▁bansuli	-11269
▁chalata	-11270
▁chhodna	-11271
▁chhodun	-11272
▁dastani	-11273
▁dushamn	-11274
▁farmane	-11275
▁farzana	-11276
▁fasahat	-11277
▁gardani	-11278
▁ghaneri	-11279
▁ghaugha	-11280
▁ghavvas	-11281
▁gholiye	-11282
▁gulbang	-11283
▁gumrahi	-11284
▁gunahan	-11285
▁gusaran	-11286
▁guzarni	-11287
▁haijani	-11288
▁hairati	-11289
▁halaten	-11290
▁hamdard	-11291
▁hansaen	-11292
▁hansana	-11293
▁hansane	-11294
▁hansata	-11295
▁harakat	-11296
▁harifon	-11297
▁harison	-11298
▁harzagi	-11299
rangi	-11300
▁bela	-11301
▁duje	-11302
▁fasd	-11303
▁leni	-11304
▁malk	-11305
▁maqr	-11306
▁rele	-11307
▁yaft	-11308
ghanun	-11309
▁afsar	-11310
▁besha	-11311
▁bisri	-11312
▁didah	-11313
▁ghont	-11314
▁girai	-11315
▁hadse	-11316
▁hunga	-11317
▁huran	-11318
▁ilhad	-11319
▁jalao	-11320
▁jaogi	-11321
▁jhuke	-11322
▁kasal	-11323
▁parai	-11324
▁param	-11325
▁pauda	-11326
▁payab	-11327
▁saham	-11328
▁shaqi	-11329
▁tarse	-11330
▁tuten	-11331
▁udati	-11332
▁udaya	-11333
▁utaro	-11334
▁yasin	-11335
▁afghan	-11336
▁arasta	-11337
▁bahsen	-11338
▁batane	-11339
▁bundon	-11340
▁chunti	-11341
▁damani	-11342
▁dargah	-11343
▁dikhti	-11344
▁dilane	-11345
▁fishar	-11346
▁girata	-11347
▁giraya	-11348
▁iqtiza	-11349
▁khunuk	-11350
▁kitnon	-11351
▁kundan	-11352
▁maqruz	-11353
▁milane	-11354
▁milegi	-11355
▁payada	-11356
▁rundhe	-11357
▁sangat	-11358
▁sazgar	-11359
▁sochne	-11360
▁suhani	-11361
▁yarane	-11362
▁yasman	-11363
▁afrangi	-11364
▁banavat	-11365
▁chalati	-11366
▁dhundna	-11367
▁dilavar	-11368
▁figaran	-11369
▁gustari	-11370
▁hashiya	-11371
▁hasidan	-11372
▁hasinan	-11373
▁hasrata	-11374
▁hauslon	-11375
▁hazimat	-11376
▁hijabat	-11377
▁hisabon	-11378
▁hovenge	-11379
▁huvaida	-11380
▁iklauta	-11381
▁imbisat	-11382
▁infisal	-11383
▁inhimak	-11384
▁inkaron	-11385
▁intifaa	-11386
▁iqraron	-11387
▁irtiash	-11388
▁irtibat	-11389
▁istikak	-11390
▁istimaa	-11391
▁itraoge	-11392
▁ittifaq	-11393
▁ittihad	-11394
▁iztirar	-11395
▁jagaegi	-11396
▁jagaiye	-11397
▁jataiye	-11398
▁jatanon	-11399
simgi	-11400
▁banam	-11401
▁mayub	-11402
▁surin	-11403
▁bahaen	-11404
▁bahate	-11405
▁dafnae	-11406
▁nigare	-11407
▁chhalle	-11408
▁javabon	-11409
▁jhalkar	-11410
▁jhukaen	-11411
▁jhukane	-11412
▁jumbani	-11413
▁jutiyon	-11414
▁kadiyon	-11415
▁kaharon	-11416
▁kahlane	-11417
▁kahungi	-11418
▁kakulen	-11419
▁kalejon	-11420
▁kaliyan	-11421
▁kamrani	-11422
▁kariyan	-11423
▁karodon	-11424
▁kasafat	-11425
▁kasauti	-11426
▁kasturi	-11427
▁katarna	-11428
▁katengi	-11429
▁khaenge	-11430
▁khallaq	-11431
▁khapana	-11432
▁khapata	-11433
▁kharaba	-11434
▁kharami	-11435
▁kharidi	-11436
▁khashin	-11437
▁khatmur	-11438
▁khatrat	-11439
▁khayyam	-11440
▁khiladi	-11441
▁khilane	-11442
▁khincho	-11443
▁khissat	-11444
▁khizani	-11445
▁khoenge	-11446
▁kholiyo	-11447
▁khudara	-11448
▁khuftan	-11449
▁khujata	-11450
▁khulvae	-11451
▁khurdar	-11452
▁khusrau	-11453
▁khvahon	-11454
▁khvajgi	-11455
▁khvanon	-11456
▁khvasta	-11457
▁kibriya	-11458
▁kudhana	-11459
▁kushuda	-11460
▁labalab	-11461
▁labbaik	-11462
▁lagengi	-11463
▁lahakta	-11464
▁lahauti	-11465
▁lahraen	-11466
▁lahrane	-11467
▁latafat	-11468
▁latakta	-11469
▁lautiyo	-11470
▁lavenge	-11471
▁layaani	-11472
▁licence	-11473
▁likhiye	-11474
▁lipatna	-11475
▁lutaega	-11476
▁maamuli	-11477
▁maamura	-11478
▁maazuli	-11479
▁machaya	-11480
▁madrasa	-11481
▁mahinon	-11482
▁mahiyat	-11483
▁mahkumi	-11484
▁mahvash	-11485
▁majzubi	-11486
▁makhluq	-11487
▁makhmal	-11488
▁mansube	-11489
▁maqamat	-11490
▁marahil	-11491
▁marenge	-11492
▁marizan	-11493
▁marizon	-11494
▁marsiye	-11495
▁martaba	-11496
▁masalti	-11497
▁mashhad	-11498
▁mashhud	-11499
▁mashuqi	-11500
▁mastane	-11501
▁mastani	-11502
▁matiyan	-11503
▁maurusi	-11504
▁mausiqi	-11505
▁mazhabi	-11506
▁membari	-11507
▁mezbani	-11508
▁milaoge	-11509
▁minaron	-11510
▁mitenge	-11511
▁moajaza	-11512
▁moazzin	-11513
▁mohalla	-11514
▁mohamad	-11515
▁mohataj	-11516
▁mohtaji	-11517
▁motarif	-11518
▁mudarat	-11519
▁muhasba	-11520
▁mumkina	-11521
▁munafiq	-11522
▁muqtaza	-11523
▁muradan	-11524
▁musaffa	-11525
▁mustafa	-11526
▁muvafiq	-11527
▁nadaram	-11528
▁nadiyan	-11529
▁nalidan	-11530
▁namvari	-11531
▁napadid	-11532
▁naranji	-11533
▁nasabon	-11534
▁nashini	-11535
▁nashist	-11536
▁navayan	-11537
▁navisht	-11538
▁nazdiki	-11539
▁nazrana	-11540
▁nekiyan	-11541
▁nibahta	-11542
▁nibahte	-11543
▁nibhana	-11544
▁nibhate	-11545
▁nighare	-11546
▁nikamma	-11547
▁nikamme	-11548
▁niklegi	-11549
▁nizamon	-11550
▁padosan	-11551
▁padshah	-11552
▁paedari	-11553
▁paenche	-11554
▁pahnata	-11555
▁pairaya	-11556
▁paivast	-11557
▁pakadte	-11558
▁palatta	-11559
▁panchhi	-11560
▁pardagi	-11561
▁pardesh	-11562
▁pariyon	-11563
▁parsaon	-11564
▁patakne	-11565
▁patakta	-11566
▁pathrav	-11567
▁pechish	-11568
▁phailen	-11569
▁phansta	-11570
▁phansun	-11571
▁phirata	-11572
▁phodiye	-11573
▁phunkne	-11574
▁phunkta	-11575
▁piritam	-11576
▁pochhne	-11577
▁puchhti	-11578
▁pukarta	-11579
▁qafilon	-11580
▁qaisari	-11581
▁qattala	-11582
▁qismati	-11583
▁qumquma	-11584
▁rachana	-11585
▁rahbari	-11586
▁rahengi	-11587
▁rahravo	-11588
▁rakkhen	-11589
▁ranjuri	-11590
▁rifaten	-11591
▁rifaton	-11592
▁rihaish	-11593
▁rotiyan	-11594
▁rovenge	-11595
▁rukavat	-11596
▁sababon	-11597
▁sachche	-11598
▁safihon	-11599
▁safiron	-11600
▁saharon	-11601
▁sahraon	-11602
▁saiyyad	-11603
▁sajjada	-11604
▁sakungi	-11605
▁salibon	-11606
▁samajat	-11607
▁samjhao	-11608
▁sandali	-11609
▁sanehat	-11610
▁sanjida	-11611
▁sanobar	-11612
▁sanvari	-11613
▁sarahne	-11614
▁sarakte	-11615
▁sarayat	-11616
▁sarmadi	-11617
▁sarsari	-11618
▁sataegi	-11619
▁saugand	-11620
▁saundhi	-11621
▁saunpen	-11622
▁sazgari	-11623
▁saziyan	-11624
▁shabash	-11625
▁shaddad	-11626
▁shagufa	-11627
▁shahbaz	-11628
▁shahidi	-11629
▁shaigan	-11630
▁shairon	-11631
▁shakkar	-11632
▁sharare	-11633
▁sharmai	-11634
▁sharmao	-11635
▁shiknon	-11636
▁shishon	-11637
▁shobada	-11638
▁shunvai	-11639
▁sikhain	-11640
▁silvane	-11641
▁simatne	-11642
▁simatte	-11643
▁singhar	-11644
▁sipahen	-11645
▁sirisht	-11646
▁siyahan	-11647
▁sudhari	-11648
▁sukhani	-11649
▁sulagne	-11650
▁sulagti	-11651
▁sumbule	-11652
▁sunahra	-11653
▁surgeon	-11654
▁taassub	-11655
▁taassuf	-11656
▁tabibon	-11657
▁tabinda	-11658
▁tabiyan	-11659
▁tadpaen	-11660
▁tadpaya	-11661
▁tadrrav	-11662
▁tahalna	-11663
▁tahalte	-11664
▁tahaqiq	-11665
▁tahayya	-11666
▁takhtan	-11667
▁takrata	-11668
▁talasha	-11669
▁talaton	-11670
▁talenge	-11671
▁taliban	-11672
▁tamazat	-11673
▁tansikh	-11674
▁tapasya	-11675
▁tapkane	-11676
▁tarashi	-11677
▁tarasne	-11678
▁targhib	-11679
▁tashrif	-11680
▁tatolte	-11681
▁tavanon	-11682
▁tavazun	-11683
▁tazkire	-11684
▁thahrav	-11685
▁tijarat	-11686
▁tilismi	-11687
▁tiliyon	-11688
▁tirchhe	-11689
▁tirchhi	-11690
▁tiryaki	-11691
▁tutengi	-11692
▁ubharte	-11693
▁ubhrega	-11694
▁uchatte	-11695
▁uchhala	-11696
▁udhadte	-11697
▁ulajhta	-11698
▁uljhata	-11699
▁umandti	-11700
▁umidana	-11701
▁undelin	-11702
▁unvanon	-11703
▁uthaegi	-11704
▁uthaoge	-11705
▁utrenge	-11706
▁utthegi	-11707
▁vadiyon	-11708
▁varnish	-11709
▁vaziron	-11710
▁yaghmai	-11711
▁zabanen	-11712
▁zabanon	-11713
▁zahidan	-11714
▁zamiron	-11715
▁zamzame	-11716
▁zangari	-11717
▁zindiqi	-11718
▁zunnari	-11719
haiyyulat	-11720
▁abistani	-11721
▁adamiyat	-11722
▁adamiyon	-11723
▁ahistagi	-11724
▁angrezon	-11725
▁anjumani	-11726
▁ankhiyon	-11727
▁araishen	-11728
▁arghanun	-11729
▁armidagi	-11730
▁ashiyane	-11731
▁atkhaton	-11732
▁azimabad	-11733
▁azmaungi	-11734
▁bachaega	-11735
▁badlenge	-11736
▁badliyan	-11737
▁badobast	-11738
▁bahattar	-11739
▁bahutere	-11740
▁bakhshad	-11741
▁bakhshen	-11742
▁bakhshin	-11743
▁bakhshna	-11744
▁balaghat	-11745
▁balghami	-11746
▁banafsha	-11747
▁bandagan	-11748
▁bandhiye	-11749
▁barahman	-11750
▁bardaran	-11751
▁barishon	-11752
▁barsaoge	-11753
▁basharat	-11754
▁bataunga	-11755
▁bauchhar	-11756
▁bhadakte	-11757
▁bhadakti	-11758
▁bhadkati	-11759
▁bhatakta	-11760
▁bhatakte	-11761
▁bichhaen	-11762
▁bikhrane	-11763
▁bismilon	-11764
▁bujhaega	-11765
▁bulbulon	-11766
▁bulvaiye	-11767
▁buraiyon	-11768
▁burdbari	-11769
▁chadaron	-11770
▁chahenge	-11771
▁chakrate	-11772
▁chamkaen	-11773
▁chamkati	-11774
▁chamkaya	-11775
▁changezi	-11776
▁chashida	-11777
▁chauguni	-11778
▁chaurahe	-11779
▁chauthai	-11780
▁chhalava	-11781
▁chhanaka	-11782
▁chhappar	-11783
▁chhediye	-11784
▁chhedoge	-11785
▁chhodega	-11786
▁chhodegi	-11787
▁chhodiyo	-11788
▁chhudana	-11789
▁chhudati	-11790
▁chhupaen	-11791
▁chhupane	-11792
▁chhupata	-11793
▁chhupaun	-11794
▁chhutega	-11795
▁chidiyan	-11796
▁chiniyan	-11797
▁chukenge	-11798
▁damavand	-11799
▁daulatan	-11800
▁dilkashi	-11801
▁divangan	-11802
▁duniyavi	-11803
▁electric	-11804
▁faqirana	-11805
▁farzandi	-11806
▁farzanon	-11807
▁faujdari	-11808
▁fitnagar	-11809
▁furqaten	-11810
▁gadayana	-11811
▁ghabraen	-11812
▁ghabrati	-11813
▁ghaltani	-11814
▁ghavvasi	-11815
▁ghazalon	-11816
▁ghaznavi	-11817
▁ghunghat	-11818
▁gintiyon	-11819
▁goristan	-11820
▁goshvara	-11821
▁gusekhta	-11822
▁guzishta	-11823
▁hairaton	-11824
▁hangamon	-11825
▁harifana	-11826
▁hathiyar	-11827
▁hijraton	-11828
▁hikmaten	-11829
▁hushiyar	-11830
▁ibadaten	-11831
▁ikhtilaj	-11832
▁ikhtiraa	-11833
▁iltijaen	-11834
▁ishtihar	-11835
▁ishtirak	-11836
▁istiqlal	-11837
▁jadugari	-11838
▁jahannum	-11839
▁jalaenge	-11840
▁janiyega	-11841
▁jatlaoge	-11842
▁javidani	-11843
▁jhalakta	-11844
▁jhalakti	-11845
▁jhelenge	-11846
▁jhijakne	-11847
▁jhijakte	-11848
▁jhutlaen	-11849
▁joshiyan	-11850
▁kafirana	-11851
▁kaiqibad	-11852
▁kamzoron	-11853
▁kargason	-11854
▁khairati	-11855
▁khanqahi	-11856
▁kharabon	-11857
▁kharajat	-11858
▁kharashi	-11859
▁khatakte	-11860
▁khavenge	-11861
▁khetiyan	-11862
▁kheziyan	-11863
▁khinchna	-11864
▁khubiyan	-11865
▁khudayan	-11866
▁khulvaen	-11867
▁khulvane	-11868
▁khusravi	-11869
▁khvandan	-11870
▁lalachon	-11871
▁lautunga	-11872
▁lillahil	-11873
▁maarifat	-11874
▁maasiyat	-11875
▁machanon	-11876
▁maghribi	-11877
▁mahviyat	-11878
▁maikhane	-11879
▁majburan	-11880
▁makaukab	-11881
▁malakuti	-11882
▁manaungi	-11883
▁mangenge	-11884
▁manjdhar	-11885
▁manvaoge	-11886
▁marghola	-11887
▁marsiyan	-11888
▁mashghul	-11889
▁mashrabi	-11890
▁mashvare	-11891
▁mastiyan	-11892
▁mazlumon	-11893
▁milkiyat	-11894
▁mizhgani	-11895
▁moharram	-11896
▁mohazzab	-11897
▁mohibban	-11898
▁mubaddal	-11899
▁mubalghe	-11900
▁mufassir	-11901
▁muflisan	-11902
▁mughanni	-11903
▁mujtanib	-11904
▁mukaddar	-11905
▁mukhatab	-11906
▁mukhatib	-11907
▁mumlikat	-11908
▁munharif	-11909
▁munhasir	-11910
▁munqasim	-11911
▁munsalik	-11912
▁muqaddas	-11913
▁murdagan	-11914
▁murjhane	-11915
▁murjhate	-11916
▁musafiro	-11917
▁musannif	-11918
▁musattah	-11919
▁mushaera	-11920
▁mushiron	-11921
▁muskurao	-11922
▁mustajab	-11923
▁muvahhid	-11924
▁nahangon	-11925
▁nakhshab	-11926
▁nakhunon	-11927
▁nashshah	-11928
▁nikharna	-11929
▁nikharne	-11930
▁nikharta	-11931
▁nisbaten	-11932
▁niyastan	-11933
▁pachhtae	-11934
▁paemalon	-11935
▁pagdandi	-11936
▁paidavar	-11937
▁paimaish	-11938
▁pairasta	-11939
▁paivandi	-11940
▁paivasta	-11941
▁parakhne	-11942
▁parakhta	-11943
▁parbaton	-11944
▁parkhash	-11945
▁parniyan	-11946
▁parvarda	-11947
▁pastiyan	-11948
▁patangon	-11949
▁pathraya	-11950
▁peshkash	-11951
▁phadakta	-11952
▁phailane	-11953
▁phailegi	-11954
▁phirunga	-11955
▁phisalne	-11956
▁phunkegi	-11957
▁phuvaren	-11958
▁pighalna	-11959
▁pighlaen	-11960
▁poshaken	-11961
▁puchhega	-11962
▁puchhoge	-11963
▁pukaregi	-11964
▁qahirana	-11965
▁qahqahon	-11966
▁qalamkar	-11967
▁qismaton	-11968
▁rachaita	-11969
▁	-11970
a	-11971
h	-11972
i	-11973
n	-11974
e	-11975
k	-11976
r	-11977
s	-11978
t	-11979
u	-11980
m	-11981
-	-11982
o	-11983
b	-11984
d	-11985
l	-11986
g	-11987
j	-11988
y	-11989
z	-11990
p	-11991
v	-11992
c	-11993
q	-11994
f	-11995
