<pad>	0
</s>	0
<unk>	0
<s>	0
▁ک	-0
▁ہ	-1
▁ا	-2
▁م	-3
یں	-4
▁ب	-5
▁ت	-6
▁س	-7
▁ن	-8
▁د	-9
▁ج	-10
▁ہے	-11
یا	-12
▁پ	-13
▁گ	-14
▁ہو	-15
▁میں	-16
▁و	-17
▁ر	-18
▁نہ	-19
▁کو	-20
ھی	-21
وں	-22
ان	-23
▁سے	-24
▁کی	-25
ار	-26
▁خ	-27
▁کہ	-28
▁ل	-29
یے	-30
▁کے	-31
▁تو	-32
اں	-33
▁چ	-34
▁ش	-35
▁کا	-36
یر	-37
یی	-38
▁بھی	-39
▁ی	-40
▁اس	-41
▁ہیں	-42
ات	-43
ھا	-44
▁ہم	-45
▁کر	-46
▁کیا	-47
▁نہیں	-48
▁دل	-49
▁ع	-50
ور	-51
تا	-52
▁وہ	-53
جھ	-54
▁یہ	-55
نا	-56
را	-57
یک	-58
تے	-59
▁ز	-60
ال	-61
▁ح	-62
▁ان	-63
▁جو	-64
▁رہ	-65
ھر	-66
ام	-67
ری	-68
▁ق	-69
▁ف	-70
نے	-71
▁غ	-72
▁نے	-73
▁اب	-74
اہ	-75
▁پر	-76
▁اپ	-77
چھ	-78
▁تھا	-79
▁جا	-80
▁خو	-81
ھو	-82
▁مجھ	-83
▁پہ	-84
دا	-85
ست	-86
▁ص	-87
لا	-88
ند	-89
▁ہوں	-90
▁ہی	-91
رے	-92
▁دیک	-93
▁کویی	-94
▁یا	-95
کھ	-96
▁تم	-97
▁کس	-98
▁بہ	-99
▁ط	-100
گر	-101
▁اور	-102
▁کچھ	-103
تی	-104
▁میر	-105
▁جان	-106
از	-107
▁ہوا	-108
لے	-109
▁بے	-110
▁در	-111
▁اک	-112
نی	-113
اب	-114
▁سو	-115
▁رو	-116
نہ	-117
اد	-118
▁گر	-119
▁دی	-120
شق	-121
▁ہر	-122
▁پھر	-123
▁دیکھ	-124
▁گیا	-125
نگ	-126
▁تیر	-127
▁کب	-128
▁دو	-129
ہر	-130
▁مح	-131
▁سر	-132
گی	-133
▁اے	-134
یس	-135
ھے	-136
▁گل	-137
▁جس	-138
▁عشق	-139
▁مجھے	-140
▁غم	-141
▁دن	-142
ید	-143
ییں	-144
▁پا	-145
▁جب	-146
▁سا	-147
انی	-148
لی	-149
▁رہا	-150
▁اج	-151
لو	-152
▁سب	-153
▁لگ	-154
▁نظ	-155
▁طر	-156
▁گا	-157
اری	-158
▁تجھ	-159
اتھ	-160
▁بی	-161
▁سم	-162
▁تھی	-163
▁بات	-164
انہ	-165
▁ایک	-166
▁تک	-167
انے	-168
▁جایے	-169
▁جات	-170
▁کیوں	-171
▁انکھ	-172
▁نک	-173
▁حس	-174
▁کبھی	-175
فا	-176
▁بر	-177
▁مرے	-178
▁کسی	-179
▁ٹ	-180
▁تھے	-181
▁ڈ	-182
▁نظر	-183
▁مو	-184
▁مر	-185
ایے	-186
▁ال	-187
▁اہ	-188
▁بہت	-189
▁گیی	-190
بت	-191
▁ات	-192
▁مل	-193
قت	-194
▁سک	-195
▁اپنے	-196
▁کہاں	-197
بر	-198
▁گز	-199
شم	-200
▁زند	-201
یاں	-202
▁اٹ	-203
شت	-204
▁رہے	-205
▁نگ	-206
▁گے	-207
اک	-208
فت	-209
▁فر	-210
▁بد	-211
▁مگر	-212
▁ذ	-213
▁تری	-214
▁زم	-215
▁پی	-216
▁کھ	-217
▁لو	-218
▁سی	-219
▁ترے	-220
▁او	-221
▁خود	-222
▁چاہ	-223
قی	-224
▁اش	-225
▁گیے	-226
ارے	-227
▁کم	-228
▁دے	-229
▁شب	-230
▁ایس	-231
▁مری	-232
▁اپنی	-233
▁کہیں	-234
▁یاد	-235
▁ہویے	-236
دم	-237
دہ	-238
مت	-239
فر	-240
▁یار	-241
سی	-242
ایی	-243
▁اگر	-244
▁من	-245
▁دیا	-246
▁رنگ	-247
▁جن	-248
▁سن	-249
▁گھر	-250
▁نا	-251
▁ہویی	-252
▁ہوتا	-253
▁مع	-254
▁رات	-255
لہ	-256
▁پو	-257
▁جہ	-258
▁بس	-259
▁شو	-260
▁لیے	-261
▁ایی	-262
اغ	-263
▁طرح	-264
▁خدا	-265
▁میرے	-266
▁میری	-267
باں	-268
▁یوں	-269
کر	-270
▁درد	-271
▁زندگی	-272
▁ایا	-273
ھول	-274
▁جی	-275
▁ایے	-276
رم	-277
نچ	-278
راب	-279
▁دنیا	-280
▁تمہ	-281
▁لی	-282
ای	-283
▁تیری	-284
▁اپنا	-285
یز	-286
ین	-287
▁سمجھ	-288
▁ہاتھ	-289
▁اخ	-290
▁گو	-291
▁راہ	-292
▁وفا	-293
▁بو	-294
▁خوش	-295
▁جہاں	-296
ارا	-297
▁محبت	-298
رت	-299
انا	-300
▁بھر	-301
▁رکھ	-302
▁پیا	-303
▁پڑ	-304
▁ناز	-305
▁حال	-306
▁نام	-307
زم	-308
▁کرے	-309
▁حسن	-310
▁دم	-311
▁نگاہ	-312
▁لب	-313
▁شا	-314
▁اسے	-315
▁دور	-316
▁ست	-317
▁پوچھ	-318
▁لے	-319
▁جانے	-320
نج	-321
▁ظ	-322
▁مرا	-323
▁چھو	-324
▁شک	-325
▁دیو	-326
▁ہمیں	-327
ستی	-328
سو	-329
گا	-330
▁ابھی	-331
▁وہی	-332
▁ساتھ	-333
▁بن	-334
▁گی	-335
▁شہر	-336
▁کون	-337
▁لیک	-338
الب	-339
▁ام	-340
▁میرا	-341
▁صب	-342
▁چشم	-343
بی	-344
▁وال	-345
الم	-346
▁کام	-347
صل	-348
▁لیکن	-349
ہی	-350
فل	-351
▁اگ	-352
یش	-353
اند	-354
▁چھ	-355
من	-356
سم	-357
▁اف	-358
زل	-359
کھا	-360
▁ترا	-361
▁خاک	-362
▁مے	-363
لف	-364
▁نش	-365
▁لوگ	-366
ماں	-367
▁ہن	-368
طر	-369
▁بار	-370
▁بھ	-371
▁رہی	-372
▁کرتے	-373
▁دیکھا	-374
▁مان	-375
▁با	-376
▁شم	-377
▁فرا	-378
کا	-379
ستہ	-380
عت	-381
▁تیرے	-382
▁ہوگا	-383
البؔ	-384
در	-385
▁بڑ	-386
▁لا	-387
▁چھوڑ	-388
▁چل	-389
مر	-390
جر	-391
▁کہتے	-392
▁انکھوں	-393
▁شام	-394
▁داغ	-395
سا	-396
▁شوق	-397
▁گزر	-398
لک	-399
▁ادا	-400
ون	-401
▁ض	-402
▁جاں	-403
▁سخ	-404
▁خیا	-405
▁وقت	-406
زا	-407
▁جل	-408
▁نو	-409
▁دوست	-410
▁خواب	-411
▁ٹھ	-412
▁غیر	-413
بار	-414
▁زلف	-415
▁مد	-416
▁خبر	-417
▁گرد	-418
عد	-419
▁جاتا	-420
لب	-421
▁تر	-422
▁تیرا	-423
▁عالم	-424
شک	-425
یب	-426
▁چلے	-427
▁کل	-428
▁تجھے	-429
ورت	-430
▁اد	-431
▁خیال	-432
ود	-433
▁وا	-434
▁ہایے	-435
▁جاییں	-436
▁جگر	-437
▁اٹھا	-438
خم	-439
▁بیٹ	-440
▁جاتے	-441
▁بہار	-442
ارہ	-443
نوں	-444
▁کش	-445
▁اٹھ	-446
▁بزم	-447
ٹا	-448
▁اتا	-449
▁طرف	-450
▁جانا	-451
سے	-452
▁ای	-453
▁اسی	-454
▁جیس	-455
رار	-456
▁یک	-457
▁بند	-458
▁گری	-459
عا	-460
▁نق	-461
▁زخم	-462
▁موج	-463
▁بنا	-464
▁اح	-465
▁اچ	-466
▁صح	-467
▁عج	-468
▁ستم	-469
▁ار	-470
▁خط	-471
▁دام	-472
▁از	-473
▁مق	-474
▁عمر	-475
▁لیا	-476
ھون	-477
▁اہل	-478
▁یاں	-479
▁جلو	-480
▁صبح	-481
▁چرا	-482
▁جھ	-483
▁اتے	-484
▁اخر	-485
▁یہی	-486
▁شمع	-487
▁گھ	-488
▁غالبؔ	-489
▁مہ	-490
▁باد	-491
▁کار	-492
▁چاند	-493
کے	-494
▁سنا	-495
▁لگا	-496
▁ہجر	-497
▁دھو	-498
اش	-499
اتے	-500
▁شع	-501
▁کت	-502
رو	-503
▁را	-504
▁دیکھتے	-505
پا	-506
▁بت	-507
▁صورت	-508
▁عا	-509
▁نم	-510
▁ملا	-511
▁تا	-512
▁تنہ	-513
▁روز	-514
▁چمن	-515
▁اڑ	-516
▁رخ	-517
▁کرو	-518
حر	-519
شن	-520
▁بج	-521
▁مج	-522
اروں	-523
▁چراغ	-524
ثر	-525
▁انت	-526
▁دشم	-527
▁کھل	-528
▁کھی	-529
▁عر	-530
▁کہہ	-531
وش	-532
▁بچ	-533
▁باز	-534
▁ہوتے	-535
▁یہاں	-536
▁چاہیے	-537
▁سفر	-538
▁انکھیں	-539
داز	-540
▁سہی	-541
خت	-542
▁مس	-543
▁نکلا	-544
▁پہلے	-545
▁سخن	-546
▁جیسے	-547
▁تمہیں	-548
می	-549
▁ایسے	-550
▁ہوتی	-551
لم	-552
▁دریا	-553
▁دکھ	-554
▁کھو	-555
▁جاتی	-556
▁ذرا	-557
▁سام	-558
▁پری	-559
▁نکل	-560
▁پھول	-561
بو	-562
▁وح	-563
▁ملتا	-564
ضا	-565
▁دست	-566
▁سوچ	-567
▁لگتا	-568
▁کریں	-569
▁نال	-570
▁فراق	-571
شر	-572
نم	-573
ریب	-574
▁قدم	-575
فس	-576
▁لہ	-577
▁ور	-578
▁جسے	-579
▁دید	-580
▁قدر	-581
▁منزل	-582
وت	-583
تاب	-584
▁بعد	-585
رف	-586
یت	-587
بان	-588
▁حیا	-589
▁سوں	-590
▁کیسے	-591
لوم	-592
کار	-593
▁اشنا	-594
اف	-595
▁شی	-596
▁صدا	-597
▁ساقی	-598
▁شاید	-599
اتا	-600
ییے	-601
▁اسد	-602
▁مہر	-603
▁قیا	-604
▁معلوم	-605
زو	-606
▁شوخ	-607
▁اسدؔ	-608
▁عاشق	-609
▁نی	-610
▁ملے	-611
▁کیج	-612
▁ادھر	-613
▁بھول	-614
یار	-615
▁پاس	-616
▁ایسا	-617
▁خراب	-618
▁زباں	-619
▁ادم	-620
▁لکھ	-621
▁پرو	-622
▁کہا	-623
▁زمانہ	-624
▁خم	-625
▁سل	-626
▁منہ	-627
▁دھ	-628
▁سوز	-629
▁امید	-630
▁جنوں	-631
▁والے	-632
وٹ	-633
لق	-634
▁مٹ	-635
▁جام	-636
▁دکھا	-637
▁ہستی	-638
▁قیامت	-639
▁پت	-640
ھونڈ	-641
▁انہ	-642
▁راز	-643
▁تمنا	-644
▁صحرا	-645
▁ڈھونڈ	-646
▁جم	-647
انوں	-648
▁اتش	-649
▁دشمن	-650
نو	-651
▁بلا	-652
▁کوں	-653
▁نکلے	-654
▁غر	-655
▁مت	-656
▁جدا	-657
▁پہنچ	-658
ہن	-659
▁تھ	-660
▁زمیں	-661
▁کہوں	-662
▁دیوار	-663
با	-664
صت	-665
زار	-666
▁بدل	-667
▁نیا	-668
▁ایسی	-669
▁وحشت	-670
▁حسرت	-671
وس	-672
▁اند	-673
▁کیے	-674
▁ارزو	-675
▁اچھا	-676
▁تماش	-677
▁تمام	-678
▁انہیں	-679
▁تس	-680
▁مک	-681
▁اتی	-682
▁جاو	-683
▁نقش	-684
▁اتنا	-685
▁تص	-686
▁ڈر	-687
ستاں	-688
▁اشک	-689
▁خام	-690
▁انداز	-691
▁جگ	-692
▁خا	-693
▁خون	-694
▁خوں	-695
▁لگے	-696
▁شراب	-697
▁ہمارے	-698
یوں	-699
▁صد	-700
▁حیر	-701
▁پیار	-702
اتل	-703
▁حا	-704
▁قاتل	-705
▁ایینہ	-706
▁قر	-707
▁انج	-708
▁اگے	-709
▁باقی	-710
▁ورنہ	-711
▁ہماری	-712
وق	-713
سان	-714
▁بیٹھے	-715
▁تن	-716
▁شر	-717
▁ارا	-718
▁رنج	-719
▁شرم	-720
▁بھلا	-721
▁دیکھی	-722
▁تع	-723
▁تی	-724
▁سہ	-725
▁ساز	-726
▁پیر	-727
▁زمانے	-728
مان	-729
▁طا	-730
▁دعا	-731
▁لہو	-732
▁کرتا	-733
▁گییں	-734
▁تق	-735
▁فی	-736
▁عجب	-737
وب	-738
ڑے	-739
▁دار	-740
▁مزا	-741
▁انتظ	-742
اہر	-743
▁حق	-744
▁سحر	-745
▁پاوں	-746
افل	-747
جھا	-748
▁بخ	-749
▁تب	-750
ڑا	-751
▁مص	-752
▁کن	-753
▁دیں	-754
▁سکے	-755
▁ادمی	-756
تیں	-757
▁بال	-758
▁بتا	-759
▁سنگ	-760
▁اسماں	-761
▁رک	-762
▁ہوش	-763
▁سکتا	-764
▁کھینچ	-765
▁انے	-766
▁سوا	-767
▁حیات	-768
▁اہستہ	-769
▁باتیں	-770
▁انتظار	-771
شی	-772
ہد	-773
امت	-774
شاں	-775
▁فق	-776
▁لط	-777
▁صبا	-778
▁مست	-779
▁ٹوٹ	-780
▁انسو	-781
▁خانہ	-782
▁محفل	-783
▁کہیے	-784
فی	-785
ہرے	-786
یشہ	-787
▁انگ	-788
▁شور	-789
▁نگہ	-790
▁کہو	-791
یاد	-792
▁رسو	-793
▁الفت	-794
▁برا	-795
▁چار	-796
▁خاطر	-797
▁میرؔ	-798
جو	-799
دے	-800
ڑی	-801
ستے	-802
▁طو	-803
▁دیر	-804
▁خواہ	-805
▁مانگ	-806
▁تاب	-807
▁جلا	-808
▁سان	-809
▁وصل	-810
خص	-811
ٹے	-812
▁عق	-813
▁شخص	-814
▁تنہا	-815
▁دیکھنا	-816
ڑک	-817
اتی	-818
▁بدن	-819
▁اللہ	-820
▁تیغ	-821
▁کروں	-822
▁دیکھو	-823
یہ	-824
ندر	-825
▁سچ	-826
▁شہ	-827
▁اواز	-828
یل	-829
▁تہ	-830
▁حو	-831
▁رب	-832
▁مشک	-833
▁پھی	-834
دۂ	-835
مل	-836
زاں	-837
▁نفس	-838
▁خودی	-839
▁دامن	-840
▁بک	-841
▁نص	-842
▁ذوق	-843
▁جاوں	-844
▁فرصت	-845
▁کیجے	-846
▁گزرے	-847
▁بغ	-848
▁چپ	-849
▁باغ	-850
▁رفت	-851
▁پڑے	-852
▁دیتے	-853
مک	-854
▁پل	-855
▁اثر	-856
▁طلب	-857
▁عہد	-858
▁چلا	-859
▁چھی	-860
▁جلوہ	-861
▁پانی	-862
سر	-863
باب	-864
▁شاخ	-865
▁لطف	-866
▁ویر	-867
▁داغؔ	-868
▁پایا	-869
▁کھلا	-870
▁تماشا	-871
▁فراقؔ	-872
وے	-873
ھل	-874
▁مش	-875
▁اتر	-876
▁اوے	-877
▁طبی	-878
▁سمجھا	-879
ہم	-880
صلہ	-881
طرہ	-882
واں	-883
گاں	-884
▁سج	-885
▁حقی	-886
▁شاہ	-887
▁جانتے	-888
انۂ	-889
▁جت	-890
▁مث	-891
▁اخت	-892
▁مدت	-893
▁موت	-894
▁لیتے	-895
▁والا	-896
▁کیسی	-897
غم	-898
چہ	-899
▁برق	-900
▁بنے	-901
▁ترک	-902
▁سنب	-903
▁ناص	-904
▁کان	-905
▁لاکھ	-906
▁ہونا	-907
ٹی	-908
▁ث	-909
▁بل	-910
▁حج	-911
▁اعت	-912
▁بجھ	-913
▁قرار	-914
دو	-915
وار	-916
▁ضر	-917
▁ٹک	-918
▁روش	-919
▁گاہ	-920
▁ہنس	-921
▁کرتی	-922
▁حقیقت	-923
▁سمجھے	-924
بہ	-925
حت	-926
▁حض	-927
▁قص	-928
▁لم	-929
▁بیا	-930
▁جوش	-931
▁سرا	-932
▁چند	-933
▁کھا	-934
▁حاصل	-935
▁مشکل	-936
زہ	-937
وہ	-938
▁مط	-939
▁غزل	-940
▁گرم	-941
▁گلی	-942
▁اینہ	-943
▁کرنا	-944
سن	-945
ول	-946
وری	-947
▁قس	-948
▁بڑھ	-949
▁جفا	-950
▁شیخ	-951
▁پیدا	-952
دی	-953
▁اغ	-954
▁دا	-955
▁تار	-956
▁روح	-957
▁مسی	-958
▁ناد	-959
▁چھپ	-960
▁کہے	-961
▁ازاد	-962
▁رکھا	-963
▁موسم	-964
▁طبیعت	-965
▁ہمارا	-966
الی	-967
▁تش	-968
▁تصو	-969
▁خار	-970
▁چاک	-971
▁چیز	-972
▁قسمت	-973
▁گردش	-974
اط	-975
غر	-976
کی	-977
▁عز	-978
▁وص	-979
▁است	-980
▁دوں	-981
▁ظفر	-982
▁لوٹ	-983
▁چلو	-984
▁ہاں	-985
▁ساری	-986
▁کیون	-987
▁دونوں	-988
▁تنہایی	-989
▁دیکھیے	-990
▁گریباں	-991
اح	-992
▁خوب	-993
▁صبر	-994
▁فلک	-995
▁فکر	-996
▁لال	-997
▁پہچ	-998
▁مقام	-999
▁نالہ	-1000
▁تصویر	-1001
جہ	-1002
ادہ	-1003
▁فت	-1004
▁می	-1005
▁ابر	-1006
▁سبب	-1007
▁فضا	-1008
▁نغم	-1009
▁سانس	-1010
▁ظفرؔ	-1011
▁پردہ	-1012
▁کہتا	-1013
▁اندھی	-1014
ذب	-1015
ما	-1016
وز	-1017
باد	-1018
▁رگ	-1019
▁جھو	-1020
▁ذکر	-1021
▁گفت	-1022
▁اتنی	-1023
▁حجاب	-1024
▁حیرت	-1025
▁فرقت	-1026
▁وہاں	-1027
▁چاہتا	-1028
▁تمہارے	-1029
ظر	-1030
نۂ	-1031
وی	-1032
گز	-1033
ایت	-1034
ساں	-1035
▁اق	-1036
▁پھ	-1037
▁برس	-1038
▁جاگ	-1039
▁خور	-1040
▁لگی	-1041
▁نور	-1042
▁وار	-1043
▁چہر	-1044
▁بغیر	-1045
▁بکھر	-1046
▁فراز	-1047
گو	-1048
▁لذ	-1049
▁بیگ	-1050
▁تلا	-1051
▁عرض	-1052
▁لیں	-1053
▁پیش	-1054
▁روشن	-1055
▁ظالم	-1056
▁ناصح	-1057
▁کہنا	-1058
▁ہزار	-1059
▁خواہش	-1060
▁سامنے	-1061
▁دیوانہ	-1062
یؔ	-1063
دھر	-1064
▁کف	-1065
▁بلب	-1066
▁بچھ	-1067
▁بیم	-1068
▁تنگ	-1069
▁سور	-1070
▁شیر	-1071
▁لمح	-1072
▁واں	-1073
▁اکثر	-1074
▁باند	-1075
▁سارے	-1076
▁ہونے	-1077
▁ہوگی	-1078
▁خوشبو	-1079
تل	-1080
سیم	-1081
یدہ	-1082
▁دع	-1083
▁قد	-1084
▁امت	-1085
▁انا	-1086
▁جذب	-1087
▁شاد	-1088
▁لذت	-1089
▁وعد	-1090
▁کرم	-1091
▁تھیں	-1092
▁رہیں	-1093
▁سایے	-1094
▁شوخی	-1095
▁نیاز	-1096
▁گزری	-1097
عظ	-1098
کہ	-1099
رام	-1100
سار	-1101
▁تغ	-1102
▁عذ	-1103
▁ازم	-1104
▁حرف	-1105
▁مات	-1106
▁اچھی	-1107
▁خوشی	-1108
▁کافر	-1109
▁ہرگز	-1110
▁جاییے	-1111
▁رکھتے	-1112
▁سمجھتے	-1113
لاب	-1114
نجیر	-1115
▁جوں	-1116
▁ٹھہ	-1117
▁ہنر	-1118
▁ہوس	-1119
▁زندہ	-1120
▁غبار	-1121
▁چھپا	-1122
▁جالبؔ	-1123
▁جاناں	-1124
▁دھواں	-1125
▁زنجیر	-1126
لت	-1127
چے	-1128
داد	-1129
▁جسم	-1130
▁دشت	-1131
▁زہر	-1132
▁فنا	-1133
▁چھا	-1134
▁کاش	-1135
▁جواب	-1136
▁حساب	-1137
▁زبان	-1138
▁سورج	-1139
▁قطرہ	-1140
▁نیند	-1141
▁گم	-1142
▁یع	-1143
▁فیض	-1144
▁ماہ	-1145
▁منت	-1146
▁ولی	-1147
▁ڈال	-1148
▁سینے	-1149
▁مدعا	-1150
▁پایے	-1151
▁تغافل	-1152
▁فرازؔ	-1153
رد	-1154
احب	-1155
شتہ	-1156
▁غل	-1157
▁بخش	-1158
▁بھو	-1159
▁توڑ	-1160
▁رقی	-1161
▁بلبل	-1162
▁وصال	-1163
▁پتھر	-1164
▁یارو	-1165
▁مانگے	-1166
▁فس	-1167
▁جگہ	-1168
▁رند	-1169
▁سیا	-1170
▁قسم	-1171
▁چکا	-1172
▁رہتا	-1173
▁فریب	-1174
▁نصیب	-1175
▁گلشن	-1176
▁کیونکر	-1177
سنؔ	-1178
ناہ	-1179
▁نب	-1180
▁رشک	-1181
▁شعر	-1182
▁گلہ	-1183
▁رقیب	-1184
▁مزاج	-1185
▁واعظ	-1186
▁دیکھے	-1187
▁محسنؔ	-1188
▁اعتبار	-1189
▁رسوایی	-1190
▁ہاتھوں	-1191
عی	-1192
ازہ	-1193
بال	-1194
ٹوں	-1195
▁تلک	-1196
▁جرم	-1197
▁حلق	-1198
▁صرف	-1199
▁غنچ	-1200
▁قتل	-1201
▁کوہ	-1202
▁اییں	-1203
▁تلاش	-1204
▁صاحب	-1205
▁سمندر	-1206
▁پریشاں	-1207
بط	-1208
حل	-1209
▁خس	-1210
▁کٹ	-1211
▁سزا	-1212
▁صنم	-1213
▁مرگ	-1214
▁اکبر	-1215
▁دیتا	-1216
▁سودا	-1217
▁عزیز	-1218
▁ولیؔ	-1219
▁برباد	-1220
▁جانتا	-1221
ضر	-1222
طن	-1223
دار	-1224
▁حد	-1225
▁رح	-1226
▁سپ	-1227
▁حشر	-1228
▁داد	-1229
▁زیر	-1230
▁سیر	-1231
▁ضبط	-1232
▁اٹھے	-1233
▁بادہ	-1234
▁جلوۂ	-1235
▁جوہر	-1236
▁ساغر	-1237
▁طاقت	-1238
▁کہنے	-1239
▁لوگوں	-1240
▁اختیار	-1241
▁تمہاری	-1242
▁دیکھوں	-1243
ایل	-1244
ھتے	-1245
▁تھو	-1246
▁خند	-1247
▁ویس	-1248
▁گوش	-1249
▁حضرت	-1250
▁دلوں	-1251
▁دیدۂ	-1252
▁کیسا	-1253
▁اکبرؔ	-1254
▁خاموش	-1255
▁تج	-1256
▁جز	-1257
▁صف	-1258
▁چر	-1259
▁تیز	-1260
▁جنگ	-1261
▁شاع	-1262
▁صاف	-1263
▁غرض	-1264
▁فصل	-1265
▁مسا	-1266
▁ڈوب	-1267
▁کسے	-1268
▁تسلی	-1269
▁سکتی	-1270
▁کتنا	-1271
غاں	-1272
ھال	-1273
▁اکی	-1274
▁طوف	-1275
▁فقط	-1276
▁قبا	-1277
▁قفس	-1278
▁چین	-1279
▁اتنے	-1280
▁سبھی	-1281
▁لکھا	-1282
▁مانا	-1283
▁مسیح	-1284
▁نہاں	-1285
▁کتاب	-1286
▁کتنی	-1287
▁کتنے	-1288
▁کرنے	-1289
جا	-1290
▁حک	-1291
▁پس	-1292
بانی	-1293
▁ریز	-1294
▁سخت	-1295
▁عدم	-1296
▁مقت	-1297
▁اباد	-1298
▁اوار	-1299
▁بچھڑ	-1300
▁جمال	-1301
▁خانۂ	-1302
▁شکست	-1303
▁عجیب	-1304
▁چاہے	-1305
▁چہرے	-1306
▁کھول	-1307
▁گزار	-1308
▁یعنی	-1309
▁عش	-1310
شانی	-1311
نگام	-1312
▁رسم	-1313
▁زیا	-1314
▁ظلم	-1315
▁پنہ	-1316
▁کلی	-1317
▁زمین	-1318
▁ظاہر	-1319
▁میاں	-1320
▁ٹھہر	-1321
▁چارہ	-1322
▁چہرہ	-1323
▁جوانی	-1324
▁درکار	-1325
▁دیدار	-1326
▁روشنی	-1327
▁ہنگام	-1328
ہا	-1329
ابل	-1330
کیں	-1331
▁دش	-1332
▁دہ	-1333
▁لڑ	-1334
▁بول	-1335
▁بیچ	-1336
▁خلو	-1337
▁دوا	-1338
▁شکر	-1339
▁عقل	-1340
▁پان	-1341
▁کہی	-1342
▁ابرو	-1343
▁دھوپ	-1344
▁ساحل	-1345
▁سایہ	-1346
▁سوال	-1347
▁سویے	-1348
▁گماں	-1349
▁جدایی	-1350
سط	-1351
لۂ	-1352
▁اض	-1353
▁تپ	-1354
▁بام	-1355
▁جنہ	-1356
▁خیر	-1357
▁سرم	-1358
▁پڑا	-1359
▁کیی	-1360
▁اساں	-1361
▁اسیر	-1362
▁مطلب	-1363
▁ملنے	-1364
▁مکاں	-1365
▁واسط	-1366
▁پایی	-1367
▁گناہ	-1368
▁گویا	-1369
اص	-1370
رہ	-1371
جیے	-1372
شتۂ	-1373
نجر	-1374
▁شے	-1375
▁گہ	-1376
▁بوس	-1377
▁ذہن	-1378
▁علم	-1379
▁نیی	-1380
▁پلک	-1381
▁چمک	-1382
▁کمی	-1383
▁بستی	-1384
▁خزاں	-1385
▁سینہ	-1386
▁لالہ	-1387
▁پہلو	-1388
▁گرفت	-1389
▁شکایت	-1390
▁پیارے	-1391
جد	-1392
ضب	-1393
اہد	-1394
جوم	-1395
سوس	-1396
طرت	-1397
▁خل	-1398
▁ما	-1399
▁ارم	-1400
▁خطا	-1401
▁دہر	-1402
▁غضب	-1403
▁ٹھک	-1404
▁پار	-1405
▁اداس	-1406
▁رہتے	-1407
▁زاہد	-1408
▁فطرت	-1409
▁نکال	-1410
▁پردے	-1411
▁چھیڑ	-1412
▁کدھر	-1413
▁گریہ	-1414
▁ہنوز	-1415
▁بیٹھا	-1416
▁حالیؔ	-1417
▁مانند	-1418
▁پنہاں	-1419
▁پہنچے	-1420
▁بیاباں	-1421
▁تمہارا	-1422
تم	-1423
ضی	-1424
گار	-1425
▁نس	-1426
▁ہا	-1427
▁بان	-1428
▁درم	-1429
▁رہو	-1430
▁زار	-1431
▁لوں	-1432
▁پیچ	-1433
▁تصور	-1434
▁خنجر	-1435
▁رفتہ	-1436
▁صیاد	-1437
▁لینا	-1438
▁محشر	-1439
▁مرنے	-1440
▁ملتی	-1441
▁نشاط	-1442
▁نغمہ	-1443
▁گرمی	-1444
▁انجمن	-1445
▁انسان	-1446
▁باتوں	-1447
▁رکھتا	-1448
▁پھرتے	-1449
رگ	-1450
ٹک	-1451
جود	-1452
قات	-1453
یبت	-1454
▁تڑ	-1455
▁زن	-1456
▁چڑ	-1457
طراب	-1458
▁بڑا	-1459
▁بھا	-1460
▁حرم	-1461
▁حری	-1462
▁سکا	-1463
▁مثل	-1464
▁محو	-1465
▁مرد	-1466
▁ناک	-1467
▁نیے	-1468
▁گہر	-1469
▁جگرؔ	-1470
▁خانے	-1471
▁دماغ	-1472
▁شبنم	-1473
▁صحبت	-1474
▁غافل	-1475
▁فیضؔ	-1476
▁گردن	-1477
▁جنہیں	-1478
▁راتیں	-1479
▁واسطے	-1480
▁پہنچا	-1481
▁کیجیے	-1482
▁اضطراب	-1483
صر	-1484
عل	-1485
نگی	-1486
▁کع	-1487
رایے	-1488
سیمؔ	-1489
▁بجا	-1490
▁بسر	-1491
▁خفا	-1492
▁شان	-1493
▁نار	-1494
▁پڑی	-1495
▁امتح	-1496
▁بجھا	-1497
▁بیاں	-1498
▁شعلہ	-1499
▁لگتی	-1500
▁معنی	-1501
▁مقتل	-1502
▁کمال	-1503
▁کویے	-1504
▁ہجوم	-1505
▁دوستی	-1506
▁سلامت	-1507
▁مسافر	-1508
▁وسیمؔ	-1509
▁چھوڑا	-1510
فظ	-1511
▁بٹ	-1512
▁رت	-1513
▁رق	-1514
سایی	-1515
▁احت	-1516
▁عدو	-1517
▁لخت	-1518
▁مار	-1519
▁چلی	-1520
▁کرن	-1521
▁ہمت	-1522
▁تکلف	-1523
▁داری	-1524
▁رکھے	-1525
▁غریب	-1526
▁گراں	-1527
▁احسان	-1528
▁انساں	-1529
▁اٹھتا	-1530
▁اکیلا	-1531
▁زنداں	-1532
▁شیریں	-1533
▁فریاد	-1534
▁مصیبت	-1535
▁پہچان	-1536
▁کہانی	-1537
▁دکھایی	-1538
ندی	-1539
▁مض	-1540
▁اڑا	-1541
▁جست	-1542
▁درو	-1543
▁سنو	-1544
▁عیش	-1545
▁لفظ	-1546
▁ملی	-1547
▁افسر	-1548
▁بسکہ	-1549
▁رستے	-1550
▁شکوہ	-1551
▁کھلے	-1552
▁بیمار	-1553
▁مجنوں	-1554
▁والوں	-1555
▁دیکھتا	-1556
▁چاہییے	-1557
▁گلستاں	-1558
لس	-1559
ایش	-1560
ثار	-1561
شید	-1562
ویے	-1563
▁وع	-1564
انگی	-1565
ستان	-1566
▁اول	-1567
▁خضر	-1568
▁دان	-1569
▁زور	-1570
▁عار	-1571
▁پوچ	-1572
▁چکے	-1573
▁ڈھل	-1574
▁گھب	-1575
▁ہار	-1576
▁ہون	-1577
▁بازی	-1578
▁تشنہ	-1579
▁دعوی	-1580
▁رستہ	-1581
▁رونے	-1582
▁شیشہ	-1583
▁قریب	-1584
▁مثال	-1585
▁پاتے	-1586
▁کھیل	-1587
▁فیصلہ	-1588
▁نکلتی	-1589
▁پرواز	-1590
▁گفتگو	-1591
▁ہمیشہ	-1592
▁ہواوں	-1593
▁اوارگی	-1594
زے	-1595
قا	-1596
قع	-1597
وم	-1598
وۂ	-1599
کس	-1600
ادت	-1601
امی	-1602
بور	-1603
شتر	-1604
لوں	-1605
میر	-1606
▁تل	-1607
▁لٹ	-1608
▁برگ	-1609
▁برہ	-1610
▁بست	-1611
▁تھک	-1612
▁حنا	-1613
▁طرز	-1614
▁پتا	-1615
▁پیم	-1616
▁کمر	-1617
▁گدا	-1618
▁گلے	-1619
▁الجھ	-1620
▁بدلا	-1621
▁برپا	-1622
▁خوار	-1623
▁بنایا	-1624
▁جستجو	-1625
▁پوچھے	-1626
▁کارواں	-1627
اق	-1628
چھے	-1629
ھیے	-1630
▁بگ	-1631
▁نز	-1632
▁بڑی	-1633
▁بہا	-1634
▁بیک	-1635
▁خوف	-1636
▁ذرہ	-1637
▁مال	-1638
▁کوچ	-1639
▁ابھر	-1640
▁بوجھ	-1641
▁تازہ	-1642
▁جینے	-1643
▁خالی	-1644
▁خلوت	-1645
▁دیدہ	-1646
▁منظر	-1647
▁وعدہ	-1648
▁ایینۂ	-1649
▁بازار	-1650
▁پوچھو	-1651
▁پیرہن	-1652
▁خورشید	-1653
اس	-1654
فتہ	-1655
قیں	-1656
وال	-1657
▁رم	-1658
▁زی	-1659
▁طل	-1660
▁افس	-1661
▁الت	-1662
▁باب	-1663
▁تقا	-1664
▁تڑپ	-1665
▁جنت	-1666
▁سرو	-1667
▁سنے	-1668
▁غفل	-1669
▁قید	-1670
▁مٹی	-1671
▁نظم	-1672
▁نما	-1673
▁وہم	-1674
▁چال	-1675
▁گنو	-1676
▁تعلق	-1677
▁جتنا	-1678
▁جلتے	-1679
▁دینا	-1680
▁راحت	-1681
▁رویے	-1682
▁فغاں	-1683
▁مینا	-1684
▁نالے	-1685
▁ہمدم	-1686
▁زیادہ	-1687
▁سراپا	-1688
▁ٹھہرے	-1689
▁ہوایے	-1690
▁داستاں	-1691
وا	-1692
راز	-1693
▁دب	-1694
▁جور	-1695
▁دری	-1696
▁طور	-1697
▁نگر	-1698
▁پیک	-1699
▁ارام	-1700
▁بسمل	-1701
▁رخصت	-1702
▁سادہ	-1703
▁سنتے	-1704
▁سکتے	-1705
▁شہید	-1706
▁لیتا	-1707
▁وجود	-1708
▁وعدۂ	-1709
▁اقرار	-1710
▁درمیاں	-1711
حہ	-1712
قہ	-1713
یم	-1714
اہی	-1715
شیں	-1716
وسف	-1717
ہور	-1718
▁فا	-1719
▁بید	-1720
▁جنا	-1721
▁عکس	-1722
▁نمک	-1723
▁اجال	-1724
▁باہر	-1725
▁جانب	-1726
▁جیتے	-1727
▁دنوں	-1728
▁رواں	-1729
▁سکوں	-1730
▁غفلت	-1731
▁ماتم	-1732
▁مقدر	-1733
▁نشاں	-1734
▁پرست	-1735
▁پروا	-1736
▁گرچہ	-1737
▁گلاب	-1738
▁یوسف	-1739
▁بیداد	-1740
▁حوصلہ	-1741
▁لکھوں	-1742
▁دیکھنے	-1743
▁پروانہ	-1744
جے	-1745
ایم	-1746
ختہ	-1747
روں	-1748
رگس	-1749
ستا	-1750
یان	-1751
▁زر	-1752
▁ضد	-1753
▁ڈھ	-1754
ینوں	-1755
▁بحر	-1756
▁بڑے	-1757
▁تقد	-1758
▁تلو	-1759
▁حور	-1760
▁دلی	-1761
▁صفا	-1762
▁عام	-1763
▁فرد	-1764
▁فرو	-1765
▁مٹا	-1766
▁نات	-1767
▁پاک	-1768
▁پلٹ	-1769
▁چور	-1770
▁الٹی	-1771
▁اندر	-1772
▁بھری	-1773
▁جہان	-1774
▁دولت	-1775
▁رہنے	-1776
▁لایے	-1777
▁مکان	-1778
▁نازک	-1779
▁نامہ	-1780
▁نرگس	-1781
▁پھری	-1782
▁کشتی	-1783
▁گداز	-1784
▁افتاب	-1785
▁اگرچہ	-1786
▁ٹھہرا	-1787
یۂ	-1788
ادث	-1789
بیر	-1790
تاع	-1791
ڑوں	-1792
▁حی	-1793
▁ہز	-1794
مانی	-1795
یروں	-1796
▁ازل	-1797
▁سعی	-1798
▁سلی	-1799
▁سمت	-1800
▁شیش	-1801
▁علا	-1802
▁عید	-1803
▁پتہ	-1804
▁پیغ	-1805
▁کیف	-1806
▁ازار	-1807
▁بیٹھ	-1808
▁جلوے	-1809
▁خوبی	-1810
▁شرار	-1811
▁متاع	-1812
▁محرو	-1813
▁مستی	-1814
▁گوہر	-1815
▁ہنسی	-1816
▁یقیں	-1817
▁افسوس	-1818
▁انجام	-1819
▁تقدیر	-1820
▁ناداں	-1821
▁گھبرا	-1822
▁سنبھال	-1823
▁گرفتار	-1824
▁ڈھونڈتے	-1825
زن	-1826
ازی	-1827
بول	-1828
ثیر	-1829
▁رع	-1830
▁ری	-1831
▁چا	-1832
▁بچا	-1833
▁ختم	-1834
▁خرم	-1835
▁خشک	-1836
▁دگر	-1837
▁دیے	-1838
▁سبز	-1839
▁سما	-1840
▁سہل	-1841
▁شکل	-1842
▁قاف	-1843
▁قلم	-1844
▁مای	-1845
▁مسک	-1846
▁نیم	-1847
▁گیس	-1848
▁اغوش	-1849
▁جنگل	-1850
▁دھڑک	-1851
▁شعلۂ	-1852
▁عذاب	-1853
▁غرور	-1854
▁لبوں	-1855
▁لینے	-1856
▁محرم	-1857
▁نشیں	-1858
▁پانچ	-1859
▁پیاس	-1860
▁کعبہ	-1861
▁ہووے	-1862
▁تاثیر	-1863
▁جانیں	-1864
▁دشوار	-1865
▁مسیحا	-1866
▁نظارہ	-1867
▁ٹھہری	-1868
▁یاروں	-1869
▁بیگانہ	-1870
▁چاندنی	-1871
سب	-1872
ظہ	-1873
نڈ	-1874
کش	-1875
زام	-1876
لاک	-1877
نام	-1878
نما	-1879
▁دک	-1880
▁قط	-1881
▁پک	-1882
▁ادب	-1883
▁جمع	-1884
▁دلا	-1885
▁دود	-1886
▁دوس	-1887
▁دھر	-1888
▁ذات	-1889
▁روٹ	-1890
▁شرر	-1891
▁فرم	-1892
▁مرغ	-1893
▁ممک	-1894
▁مکر	-1895
▁وطن	-1896
▁پیے	-1897
▁چرخ	-1898
▁کدہ	-1899
▁گیر	-1900
▁بوسہ	-1901
▁جنون	-1902
▁ضرور	-1903
▁لمحہ	-1904
▁ملتے	-1905
▁ملیں	-1906
▁وہیں	-1907
▁پسند	-1908
▁کہتی	-1909
▁الزام	-1910
▁انتہا	-1911
▁اوروں	-1912
▁حیراں	-1913
▁دکھلا	-1914
▁سامان	-1915
▁لکھنو	-1916
▁منتظر	-1917
▁موجود	-1918
▁اٹھایے	-1919
▁ہونٹوں	-1920
بش	-1921
عف	-1922
چل	-1923
سعت	-1924
نبی	-1925
▁اع	-1926
▁پن	-1927
شتوں	-1928
نایی	-1929
▁الم	-1930
▁تلخ	-1931
▁دہن	-1932
▁زان	-1933
▁سدا	-1934
▁سیک	-1935
▁ضعف	-1936
▁غلط	-1937
▁قضا	-1938
▁لعل	-1939
▁منا	-1940
▁ناچ	-1941
▁نوا	-1942
▁پچھ	-1943
▁پھو	-1944
▁کسو	-1945
▁گار	-1946
▁گھٹ	-1947
▁بارے	-1948
▁بھیگ	-1949
▁جادو	-1950
▁جنبش	-1951
▁حباب	-1952
▁خرام	-1953
▁رہتی	-1954
▁سایۂ	-1955
▁شباب	-1956
▁علاج	-1957
▁ممکن	-1958
▁نالۂ	-1959
▁نثار	-1960
▁وسعت	-1961
▁پیام	-1962
▁کارو	-1963
▁کھنچ	-1964
▁گنوا	-1965
▁اشیاں	-1966
▁ساماں	-1967
▁لیجیے	-1968
▁پیغام	-1969
▁ملاقات	-1970
بث	-1971
نت	-1972
ادی	-1973
ساس	-1974
گان	-1975
▁ٹپ	-1976
▁امد	-1977
▁رحم	-1978
▁ریت	-1979
▁ساد	-1980
▁سرد	-1981
▁شمش	-1982
▁عبث	-1983
▁عذر	-1984
▁عنو	-1985
▁قیس	-1986
▁مفت	-1987
▁مید	-1988
▁ناخ	-1989
▁ناگ	-1990
▁چکی	-1991
▁گلا	-1992
▁بتاں	-1993
▁بنتا	-1994
▁بھرے	-1995
▁بہتر	-1996
▁جھوٹ	-1997
▁دیتی	-1998
▁رسوا	-1999
▁زیست	-2000
▁سراب	-2001
▁سکوت	-2002
▁قبول	-2003
▁مرنا	-2004
▁ملنا	-2005
▁نقاب	-2006
▁نگار	-2007
▁وعدے	-2008
▁پردۂ	-2009
▁ڈرتے	-2010
▁کوچۂ	-2011
▁گھٹا	-2012
▁اجنبی	-2013
▁احباب	-2014
▁احتیا	-2015
▁احساس	-2016
▁اسمان	-2017
▁اٹھتے	-2018
▁بندگی	-2019
▁راستہ	-2020
▁راستے	-2021
▁رفتار	-2022
▁ستارے	-2023
▁سنبھل	-2024
▁شاعری	-2025
▁عاشقی	-2026
▁نکلتے	-2027
▁ہجراں	-2028
▁ستاروں	-2029
▁مہرباں	-2030
▁نگاہیں	-2031
▁ہزاروں	-2032
نک	-2033
چا	-2034
ازت	-2035
تاق	-2036
عار	-2037
ندہ	-2038
▁فن	-2039
▁مذ	-2040
▁ٹو	-2041
بارک	-2042
تابی	-2043
ینات	-2044
▁ایج	-2045
▁سیہ	-2046
▁شجر	-2047
▁شرط	-2048
▁طرب	-2049
▁مقص	-2050
▁پڑھ	-2051
▁گرہ	-2052
▁یاس	-2053
▁الہی	-2054
▁انگن	-2055
▁حالت	-2056
▁حریف	-2057
▁خندہ	-2058
▁روتے	-2059
▁شمار	-2060
▁غنچہ	-2061
▁فتنہ	-2062
▁ویسے	-2063
▁چاہا	-2064
▁گھڑی	-2065
▁انکار	-2066
▁تسلیم	-2067
▁تلوار	-2068
▁حالات	-2069
▁خوباں	-2070
▁دشمنی	-2071
▁دھوکا	-2072
▁سوچتا	-2073
▁مبارک	-2074
▁مشتاق	-2075
▁امتحاں	-2076
▁داستان	-2077
▁لاکھوں	-2078
▁نگاہوں	-2079
▁کاینات	-2080
بے	-2081
ذر	-2082
غذ	-2083
ارت	-2084
کین	-2085
یاب	-2086
یدن	-2087
▁تح	-2088
▁نخ	-2089
▁گن	-2090
▁ہل	-2091
ظہار	-2092
▁بشر	-2093
▁جیے	-2094
▁خرا	-2095
▁درس	-2096
▁رون	-2097
▁عیب	-2098
▁غنی	-2099
▁فرق	-2100
▁قصہ	-2101
▁مخت	-2102
▁مرح	-2103
▁واہ	-2104
▁گوں	-2105
▁بدلے	-2106
▁بلند	-2107
▁جتنے	-2108
▁جواں	-2109
▁حلقۂ	-2110
▁خمار	-2111
▁رونا	-2112
▁سارا	-2113
▁سوچا	-2114
▁لایا	-2115
▁لیلی	-2116
▁مجھی	-2117
▁مسجد	-2118
▁نشان	-2119
▁وایے	-2120
▁کاغذ	-2121
▁کلام	-2122
▁کوچے	-2123
▁یارب	-2124
▁اجازت	-2125
▁ارمان	-2126
▁اظہار	-2127
▁اقبال	-2128
▁ایجاد	-2129
▁تاروں	-2130
▁خامشی	-2131
▁رنگیں	-2132
▁رہنما	-2133
▁طوفاں	-2134
▁فسانہ	-2135
▁پھرتا	-2136
▁کھلتا	-2137
▁افسردہ	-2138
▁دیکھیں	-2139
▁ویرانی	-2140
▁پوچھتے	-2141
▁چراغاں	-2142
صے	-2143
جات	-2144
ذیب	-2145
لاف	-2146
لاں	-2147
▁اص	-2148
▁دف	-2149
▁قب	-2150
▁قی	-2151
▁وض	-2152
صلحت	-2153
گانی	-2154
▁بقا	-2155
▁جیب	-2156
▁دین	-2157
▁ربط	-2158
▁سال	-2159
▁سنی	-2160
▁سیل	-2161
▁سیں	-2162
▁مند	-2163
▁مہک	-2164
▁ننگ	-2165
▁وجہ	-2166
▁پلا	-2167
▁کشی	-2168
▁اخری	-2169
▁انجم	-2170
▁اگہی	-2171
▁بارش	-2172
▁بندہ	-2173
▁بڑھا	-2174
▁تبسم	-2175
▁جبیں	-2176
▁خندۂ	-2177
▁دینے	-2178
▁رشتۂ	-2179
▁زیاں	-2180
▁شاعر	-2181
▁طلسم	-2182
▁قابل	-2183
▁قامت	-2184
▁پھیر	-2185
▁کھلی	-2186
▁احوال	-2187
▁ازادی	-2188
▁اشعار	-2189
▁بھولے	-2190
▁تہذیب	-2191
▁دوراں	-2192
▁شمشیر	-2193
▁صدایے	-2194
▁مصلحت	-2195
▁پوچھا	-2196
▁گردوں	-2197
شش	-2198
فو	-2199
ہب	-2200
بری	-2201
فرت	-2202
▁طب	-2203
ستگی	-2204
لیاں	-2205
▁بخت	-2206
▁بہل	-2207
▁خال	-2208
▁خلق	-2209
▁ستا	-2210
▁سکھ	-2211
▁شنا	-2212
▁عنا	-2213
▁قاص	-2214
▁محت	-2215
▁مشت	-2216
▁ندی	-2217
▁نشہ	-2218
▁ولے	-2219
▁کدے	-2220
▁کفن	-2221
▁ہند	-2222
▁بتوں	-2223
▁بولے	-2224
▁جیسا	-2225
▁خموش	-2226
▁سکھا	-2227
▁سکیں	-2228
▁عادت	-2229
▁مارا	-2230
▁مرتا	-2231
▁مروت	-2232
▁نصیر	-2233
▁نییں	-2234
▁پاتا	-2235
▁کبھو	-2236
▁گزرا	-2237
▁اشکوں	-2238
▁اوارہ	-2239
▁رخسار	-2240
▁صدیوں	-2241
▁ضروری	-2242
▁مدتوں	-2243
▁ناکام	-2244
▁وفایی	-2245
▁گلزار	-2246
▁باندھا	-2247
▁ہنگامہ	-2248
▁باندھتے	-2249
▁زندگانی	-2250
اڑ	-2251
جی	-2252
دت	-2253
قف	-2254
وک	-2255
ابت	-2256
داع	-2257
▁حر	-2258
▁زد	-2259
▁غش	-2260
▁قل	-2261
▁لک	-2262
▁ادھ	-2263
▁الو	-2264
▁بگڑ	-2265
▁بہر	-2266
▁جھک	-2267
▁سرخ	-2268
▁سلس	-2269
▁سود	-2270
▁شکن	-2271
▁طبع	-2272
▁مسل	-2273
▁ملک	-2274
▁نگۂ	-2275
▁نیر	-2276
▁پاب	-2277
▁چنگ	-2278
▁چون	-2279
▁گنہ	-2280
▁ازما	-2281
▁باری	-2282
▁برہم	-2283
▁جھون	-2284
▁جینا	-2285
▁حادث	-2286
▁خرمن	-2287
▁رایی	-2288
▁زانو	-2289
▁سیاہ	-2290
▁غیرت	-2291
▁قدرت	-2292
▁قربت	-2293
▁مراد	-2294
▁معام	-2295
▁ٹکڑے	-2296
▁کرشم	-2297
▁تشنگی	-2298
▁تقاضا	-2299
▁جانیے	-2300
▁راتوں	-2301
▁سادگی	-2302
▁غیروں	-2303
▁قربان	-2304
▁مقابل	-2305
▁ملامت	-2306
▁گفتار	-2307
▁گلیوں	-2308
▁دوستوں	-2309
▁سمجھتا	-2310
▁محرومی	-2311
▁پھولوں	-2312
عث	-2313
غت	-2314
شار	-2315
فیق	-2316
گیں	-2317
▁بح	-2318
▁جر	-2319
▁خز	-2320
▁عن	-2321
▁لپ	-2322
▁وو	-2323
گرنہ	-2324
یاری	-2325
▁اجل	-2326
▁بجز	-2327
▁بنی	-2328
▁تہی	-2329
▁روا	-2330
▁سید	-2331
▁عجز	-2332
▁عمل	-2333
▁قبر	-2334
▁نشۂ	-2335
▁نشے	-2336
▁پاو	-2337
▁پیڑ	-2338
▁گرا	-2339
▁اغاز	-2340
▁ایام	-2341
▁بادل	-2342
▁باعث	-2343
▁بساط	-2344
▁بویے	-2345
▁بہلا	-2346
▁تارا	-2347
▁جانی	-2348
▁جناب	-2349
▁جھکا	-2350
▁جیوں	-2351
▁خطرہ	-2352
▁دھند	-2353
▁دیار	-2354
▁رحمت	-2355
▁روتا	-2356
▁رکھی	-2357
▁زنار	-2358
▁سرمہ	-2359
▁سرگر	-2360
▁سلام	-2361
▁سنتا	-2362
▁شاہد	-2363
▁غلام	-2364
▁قاصد	-2365
▁لگیں	-2366
▁مانع	-2367
▁محبو	-2368
▁مزار	-2369
▁نفرت	-2370
▁کروٹ	-2371
▁کوشش	-2372
▁اجالا	-2373
▁اشارے	-2374
▁اغیار	-2375
▁ایینے	-2376
▁بتاوں	-2377
▁برابر	-2378
▁تھوڑی	-2379
▁زلفوں	-2380
▁غنیمت	-2381
▁محتسب	-2382
▁مسکرا	-2383
▁نصیرؔ	-2384
▁نظریں	-2385
▁وگرنہ	-2386
▁یادوں	-2387
▁احتیاط	-2388
▁اشنایی	-2389
▁بیتابی	-2390
▁خاموشی	-2391
▁دعاییں	-2392
▁دیوانے	-2393
▁روزگار	-2394
▁کاروبار	-2395
قے	-2396
برت	-2397
ریر	-2398
طرۂ	-2399
فتر	-2400
لیب	-2401
ھتا	-2402
▁طع	-2403
▁پگ	-2404
اییے	-2405
داوت	-2406
▁اہٹ	-2407
▁ثمر	-2408
▁رضا	-2409
▁طری	-2410
▁عرش	-2411
▁مزہ	-2412
▁مشق	-2413
▁معم	-2414
▁پرس	-2415
▁پنج	-2416
▁گام	-2417
▁اٹھی	-2418
▁بھرا	-2419
▁بھید	-2420
▁تباہ	-2421
▁تجلی	-2422
▁توجہ	-2423
▁تہمت	-2424
▁حسیں	-2425
▁حضور	-2426
▁دفتر	-2427
▁دلبر	-2428
▁دوری	-2429
▁رشتہ	-2430
▁سکون	-2431
▁شیشے	-2432
▁طالب	-2433
▁عبرت	-2434
▁عشرت	-2435
▁غربت	-2436
▁فردا	-2437
▁لباس	-2438
▁لمحے	-2439
▁محال	-2440
▁محنت	-2441
▁نسیم	-2442
▁نماز	-2443
▁وادی	-2444
▁ٹوٹے	-2445
▁ایمان	-2446
▁برسوں	-2447
▁بہانے	-2448
▁تعمیر	-2449
▁خدایی	-2450
▁خرابی	-2451
▁زمانا	-2452
▁سناٹا	-2453
▁عداوت	-2454
▁قراری	-2455
▁مجبور	-2456
▁پلکوں	-2457
▁پیچھے	-2458
▁گوارا	-2459
▁ہوتیں	-2460
▁اقبالؔ	-2461
▁پوچھتا	-2462
▁کامیاب	-2463
جن	-2464
سل	-2465
الے	-2466
برو	-2467
شاد	-2468
شان	-2469
طرب	-2470
لیف	-2471
واب	-2472
ورا	-2473
ہاد	-2474
یدی	-2475
یرے	-2476
▁ظل	-2477
▁لح	-2478
لانے	-2479
▁افت	-2480
▁اچھ	-2481
▁تاج	-2482
▁تپش	-2483
▁جلے	-2484
▁جنس	-2485
▁حکم	-2486
▁خان	-2487
▁راس	-2488
▁رقم	-2489
▁زاد	-2490
▁زرد	-2491
▁سجن	-2492
▁صید	-2493
▁عیس	-2494
▁لاش	-2495
▁لڑک	-2496
▁معت	-2497
▁منص	-2498
▁موڑ	-2499
▁ناس	-2500
▁پشی	-2501
▁چاپ	-2502
▁چوٹ	-2503
▁انیس	-2504
▁بازو	-2505
▁بستر	-2506
▁بڑھے	-2507
▁جادہ	-2508
▁جذبۂ	-2509
▁جلاد	-2510
▁خامہ	-2511
▁دییے	-2512
▁روزن	-2513
▁رونق	-2514
▁سرور	-2515
▁سوچو	-2516
▁شکار	-2517
▁عارض	-2518
▁عشاق	-2519
▁فروغ	-2520
▁فقیر	-2521
▁قیمت	-2522
▁مجلس	-2523
▁موتی	-2524
▁نشتر	-2525
▁نظمؔ	-2526
▁وداع	-2527
▁ٹوٹا	-2528
▁پرسش	-2529
▁پڑتا	-2530
▁پکار	-2531
▁چاہت	-2532
▁چلتی	-2533
▁چلنا	-2534
▁چھین	-2535
▁کشتہ	-2536
▁کھڑے	-2537
▁گاوں	-2538
▁بدنام	-2539
▁تیرگی	-2540
▁سہارا	-2541
▁عنایت	-2542
▁فرہاد	-2543
▁مسیلہ	-2544
▁نشانی	-2545
▁پیاسا	-2546
▁پیمان	-2547
▁ہوییں	-2548
▁ازمایش	-2549
▁انسووں	-2550
▁بھولنے	-2551
▁ٹھکانا	-2552
▁کانٹوں	-2553
▁دیوانگی	-2554
▁راییگاں	-2555
▁پریشانی	-2556
فہ	-2557
پر	-2558
پن	-2559
چک	-2560
گے	-2561
جاز	-2562
خیر	-2563
داں	-2564
دگی	-2565
فات	-2566
فاظ	-2567
ڑتے	-2568
کتا	-2569
یاز	-2570
▁تد	-2571
▁سف	-2572
▁عط	-2573
▁قم	-2574
▁لر	-2575
ساری	-2576
قلاب	-2577
▁الگ	-2578
▁بری	-2579
▁بسا	-2580
▁تحر	-2581
▁تمث	-2582
▁جون	-2583
▁جگا	-2584
▁خاص	-2585
▁دوش	-2586
▁رقص	-2587
▁سبک	-2588
▁سکی	-2589
▁طفل	-2590
▁ظرف	-2591
▁ماں	-2592
▁مضم	-2593
▁مغر	-2594
▁منظ	-2595
▁مور	-2596
▁ورق	-2597
▁ولو	-2598
▁کشا	-2599
▁کفر	-2600
▁گنج	-2601
▁بادۂ	-2602
▁بینا	-2603
▁تراش	-2604
▁حسین	-2605
▁دراز	-2606
▁دلیل	-2607
▁رنگی	-2608
▁رہنا	-2609
▁سبزہ	-2610
▁شامل	-2611
▁شرما	-2612
▁شریک	-2613
▁شکوۂ	-2614
▁شہرت	-2615
▁ضمیر	-2616
▁غنچۂ	-2617
▁قایل	-2618
▁قصور	-2619
▁لایی	-2620
▁لڑکا	-2621
▁مایل	-2622
▁مذہب	-2623
▁مسکر	-2624
▁مویے	-2625
▁نسبت	-2626
▁نمود	-2627
▁نواز	-2628
▁ویسی	-2629
▁پرور	-2630
▁پھرے	-2631
▁پھون	-2632
▁پیکر	-2633
▁چلتے	-2634
▁کامل	-2635
▁کھڑا	-2636
▁اعجاز	-2637
▁اندیش	-2638
▁بارہا	-2639
▁بنایے	-2640
▁بھاری	-2641
▁بیتاب	-2642
▁بیکسی	-2643
▁تدبیر	-2644
▁تکرار	-2645
▁تکلیف	-2646
▁دیجیے	-2647
▁ستارہ	-2648
▁شکستہ	-2649
▁لگایے	-2650
▁مہتاب	-2651
▁نوایے	-2652
▁ویراں	-2653
▁کھایی	-2654
▁گمانی	-2655
▁ہنستے	-2656
▁انقلاب	-2657
▁مسلماں	-2658
▁معاملہ	-2659
▁گریزاں	-2660
کل	-2661
ادر	-2662
بیح	-2663
دیک	-2664
روف	-2665
قین	-2666
وسی	-2667
یدا	-2668
▁اذ	-2669
▁بز	-2670
▁رز	-2671
▁رض	-2672
▁شگ	-2673
▁ٹل	-2674
▁چی	-2675
سانۂ	-2676
فاقت	-2677
ھوکر	-2678
▁ابت	-2679
▁الٹ	-2680
▁بحث	-2681
▁بود	-2682
▁تند	-2683
▁جیت	-2684
▁خرد	-2685
▁خلش	-2686
▁خیم	-2687
▁زدہ	-2688
▁زیب	-2689
▁سیم	-2690
▁طاق	-2691
▁طول	-2692
▁عرص	-2693
▁قرب	-2694
▁نین	-2695
▁وضع	-2696
▁پھن	-2697
▁چھٹ	-2698
▁کشم	-2699
▁اویں	-2700
▁بجلی	-2701
▁جدھر	-2702
▁حلقہ	-2703
▁خسرو	-2704
▁دانش	-2705
▁روٹھ	-2706
▁ریزہ	-2707
▁سوزن	-2708
▁سونا	-2709
▁شیدا	-2710
▁شیوۂ	-2711
▁ظلمت	-2712
▁فتنے	-2713
▁فرما	-2714
▁قایم	-2715
▁قطرۂ	-2716
▁لگتے	-2717
▁مرہم	-2718
▁نکلی	-2719
▁وارد	-2720
▁والو	-2721
▁وحشی	-2722
▁پھیل	-2723
▁گوشۂ	-2724
▁گیسو	-2725
▁اسرار	-2726
▁افلاک	-2727
▁بتایے	-2728
▁تسبیح	-2729
▁تسکین	-2730
▁تسکیں	-2731
▁تھوڑا	-2732
▁دوسرا	-2733
▁رفاقت	-2734
▁روبرو	-2735
▁سنبھا	-2736
▁طوفان	-2737
▁عنوان	-2738
▁فشانی	-2739
▁لگانا	-2740
▁مختصر	-2741
▁نزدیک	-2742
▁ٹھوکر	-2743
▁کھلتے	-2744
▁خوابوں	-2745
▁دکھایا	-2746
▁محبتوں	-2747
▁مستانہ	-2748
▁پریشان	-2749
▁کھلتیں	-2750
▁کھینچی	-2751
▁تماشایے	-2752
▁مہربانی	-2753
تہ	-2754
جب	-2755
عم	-2756
ڑھ	-2757
ہت	-2758
خاب	-2759
دوں	-2760
شتے	-2761
شنۂ	-2762
عاع	-2763
وند	-2764
کاں	-2765
▁شغ	-2766
▁طے	-2767
▁مم	-2768
▁چم	-2769
▁ڈو	-2770
▁کث	-2771
▁کج	-2772
ییاں	-2773
▁اڑی	-2774
▁تلے	-2775
▁جشن	-2776
▁جھگ	-2777
▁جھی	-2778
▁حصے	-2779
▁درپ	-2780
▁سنج	-2781
▁عزت	-2782
▁قطع	-2783
▁قہر	-2784
▁لہر	-2785
▁ناب	-2786
▁نبھ	-2787
▁نرم	-2788
▁نقص	-2789
▁نیک	-2790
▁پرت	-2791
▁پوش	-2792
▁پہر	-2793
▁گنگ	-2794
▁اشوب	-2795
▁اوپر	-2796
▁اچھے	-2797
▁بانہ	-2798
▁بتاو	-2799
▁بجھے	-2800
▁بخشا	-2801
▁برنگ	-2802
▁بچوں	-2803
▁بھرو	-2804
▁ثابت	-2805
▁جاوے	-2806
▁جلتا	-2807
▁جونؔ	-2808
▁جیسی	-2809
▁جیون	-2810
▁خوشا	-2811
▁دایم	-2812
▁دھرا	-2813
▁راہی	-2814
▁سینۂ	-2815
▁شعاع	-2816
▁طاعت	-2817
▁غارت	-2818
▁معاف	-2819
▁ناگہ	-2820
▁نکہت	-2821
▁پارہ	-2822
▁چلنے	-2823
▁کشتۂ	-2824
▁یہیں	-2825
▁اخبار	-2826
▁ارایی	-2827
▁انیسؔ	-2828
▁اٹھتی	-2829
▁اٹھیں	-2830
▁بدلتے	-2831
▁برسات	-2832
▁بیدار	-2833
▁تحریر	-2834
▁تمثال	-2835
▁دھیان	-2836
▁سنایی	-2837
▁ضرورت	-2838
▁عریاں	-2839
▁قدموں	-2840
▁مایوس	-2841
▁مراسم	-2842
▁مشہور	-2843
▁مصروف	-2844
▁مقصود	-2845
▁منظور	-2846
▁نیازی	-2847
▁ولولے	-2848
▁پھرتی	-2849
▁امتحان	-2850
▁انتخاب	-2851
▁ٹھکانے	-2852
▁چراغوں	-2853
▁اندھیرے	-2854
▁خاکساری	-2855
جت	-2856
نش	-2857
کن	-2858
ارۂ	-2859
اہن	-2860
بیں	-2861
جیؔ	-2862
داب	-2863
دود	-2864
ریف	-2865
سوب	-2866
سون	-2867
ندے	-2868
ویں	-2869
گوں	-2870
▁تذ	-2871
▁فض	-2872
▁وف	-2873
▁ہش	-2874
اریخ	-2875
ستاخ	-2876
یانہ	-2877
▁انس	-2878
▁اوں	-2879
▁باہ	-2880
▁جاہ	-2881
▁حدی	-2882
▁حرص	-2883
▁حید	-2884
▁رزق	-2885
▁سجا	-2886
▁قرض	-2887
▁لٹا	-2888
▁لچک	-2889
▁میے	-2890
▁نبض	-2891
▁نذر	-2892
▁نقد	-2893
▁کٹے	-2894
▁گور	-2895
▁اترا	-2896
▁اجڑے	-2897
▁بندی	-2898
▁بیان	-2899
▁جادۂ	-2900
▁جرات	-2901
▁جھلک	-2902
▁حاضر	-2903
▁حرام	-2904
▁خلاف	-2905
▁خواں	-2906
▁خودک	-2907
▁دانا	-2908
▁راست	-2909
▁رنجش	-2910
▁رویا	-2911
▁ساعت	-2912
▁سجدہ	-2913
▁سماں	-2914
▁سنور	-2915
▁شانہ	-2916
▁طایر	-2917
▁مارے	-2918
▁مرتے	-2919
▁ناخن	-2920
▁نجات	-2921
▁واقع	-2922
▁وبال	-2923
▁پڑیں	-2924
▁کاری	-2925
▁کافی	-2926
▁کثرت	-2927
▁کرنی	-2928
▁کنار	-2929
▁گونج	-2930
▁یقین	-2931
▁احساں	-2932
▁اداسی	-2933
▁اسباب	-2934
▁اسیری	-2935
▁اشکار	-2936
▁انگشت	-2937
▁اوقات	-2938
▁ایماں	-2939
▁بلندی	-2940
▁تقریر	-2941
▁جانوں	-2942
▁جھوٹا	-2943
▁خموشی	-2944
▁رکھتی	-2945
▁رکھوں	-2946
▁سویدا	-2947
▁فراغت	-2948
▁قافلے	-2949
▁منسوب	-2950
▁ناجیؔ	-2951
▁نادان	-2952
▁نیرنگ	-2953
▁پچھتا	-2954
▁چاہتے	-2955
▁چھاوں	-2956
▁چھوڑی	-2957
▁کشمکش	-2958
▁کنارہ	-2959
▁گزاری	-2960
▁امیدیں	-2961
▁اٹھایا	-2962
▁خانماں	-2963
▁سمجھیں	-2964
▁پیراہن	-2965
▁دیوانوں	-2966
جز	-2967
حق	-2968
حۂ	-2969
دن	-2970
زخ	-2971
عہ	-2972
مع	-2973
مے	-2974
یط	-2975
الت	-2976
اکش	-2977
سوں	-2978
صلے	-2979
فیؔ	-2980
لیخ	-2981
ماس	-2982
میا	-2983
چیں	-2984
▁بظ	-2985
▁خج	-2986
▁نع	-2987
اشاک	-2988
بتلا	-2989
وانی	-2990
ڑایی	-2991
▁ابد	-2992
▁اہو	-2993
▁بہم	-2994
▁تجر	-2995
▁جبر	-2996
▁خری	-2997
▁خطر	-2998
▁خیز	-2999
▁رفو	-3000
▁رلا	-3001
▁سری	-3002
▁سفی	-3003
▁سلو	-3004
▁سکو	-3005
▁شغل	-3006
▁عرق	-3007
▁مزے	-3008
▁مشر	-3009
▁مصح	-3010
▁مچل	-3011
▁میک	-3012
▁نوم	-3013
▁وام	-3014
▁پشت	-3015
▁پند	-3016
▁چھن	-3017
▁کاٹ	-3018
▁کشت	-3019
▁کنج	-3020
▁گرے	-3021
▁اداب	-3022
▁ارنی	-3023
▁استخ	-3024
▁بانٹ	-3025
▁بھرم	-3026
▁بہتے	-3027
▁تشنۂ	-3028
▁تقاض	-3029
▁تنگی	-3030
▁توقع	-3031
▁ثواب	-3032
▁جاود	-3033
▁جھان	-3034
▁حاجت	-3035
▁حلقے	-3036
▁حیدر	-3037
▁دانہ	-3038
▁زلیخ	-3039
▁زمزم	-3040
▁سپرد	-3041
▁شادی	-3042
▁شانے	-3043
▁شعلے	-3044
▁عرصۂ	-3045
▁عیسی	-3046
▁فروش	-3047
▁ماضی	-3048
▁مدعی	-3049
▁مہلت	-3050
▁ناام	-3051
▁ناوک	-3052
▁نوحہ	-3053
▁ٹھنڈ	-3054
▁پرتو	-3055
▁چشمۂ	-3056
▁ڈالا	-3057
▁ڈرتا	-3058
▁کلفت	-3059
▁گہرا	-3060
▁ہندو	-3061
▁یکتا	-3062
▁ابتدا	-3063
▁ارباب	-3064
▁برہنہ	-3065
▁بظاہر	-3066
▁بہاری	-3067
▁تاریخ	-3068
▁تعبیر	-3069
▁جولاں	-3070
▁خاشاک	-3071
▁خونیں	-3072
▁درویش	-3073
▁دیوان	-3074
▁رسایی	-3075
▁زبانی	-3076
▁زخموں	-3077
▁سامنا	-3078
▁سرشار	-3079
▁سرمای	-3080
▁سلیقہ	-3081
▁سوایے	-3082
▁سیاست	-3083
▁شہادت	-3084
▁صفایی	-3085
▁غمگیں	-3086
▁فردوس	-3087
▁لکھنا	-3088
▁مبتلا	-3089
▁محبوب	-3090
▁میداں	-3091
▁ناشاد	-3092
▁نکالے	-3093
▁چہروں	-3094
▁کانوں	-3095
▁کشاکش	-3096
▁کیفیت	-3097
▁گزرتا	-3098
▁گزرنے	-3099
▁گستاخ	-3100
▁افسانہ	-3101
▁افسانے	-3102
▁التفات	-3103
▁امتیاز	-3104
▁اٹھانے	-3105
▁بانہوں	-3106
▁بھروسا	-3107
▁بہاروں	-3108
▁بیگانے	-3109
▁جفاییں	-3110
▁جھونکا	-3111
▁دروازہ	-3112
▁دریایے	-3113
▁شرمندہ	-3114
▁لگاییں	-3115
▁پوچھیے	-3116
▁پیمانہ	-3117
▁چھپایے	-3118
▁گیسویے	-3119
▁ہواییں	-3120
▁انگڑایی	-3121
▁بیگانگی	-3122
▁دیواروں	-3123
اذ	-3124
خر	-3125
گل	-3126
ہے	-3127
اوت	-3128
بات	-3129
توں	-3130
خیز	-3131
راف	-3132
طنت	-3133
نیں	-3134
▁بق	-3135
▁حل	-3136
▁چب	-3137
▁چن	-3138
▁ہٹ	-3139
نداں	-3140
نہار	-3141
▁ابل	-3142
▁افر	-3143
▁اڑے	-3144
▁برے	-3145
▁بیت	-3146
▁تان	-3147
▁تخت	-3148
▁توں	-3149
▁جزا	-3150
▁جھپ	-3151
▁حیف	-3152
▁دفن	-3153
▁دھی	-3154
▁ذرے	-3155
▁ربا	-3156
▁روک	-3157
▁سلا	-3158
▁سلگ	-3159
▁سوگ	-3160
▁سڑک	-3161
▁شای	-3162
▁شرح	-3163
▁علی	-3164
▁غرق	-3165
▁غور	-3166
▁فرش	-3167
▁فقر	-3168
▁قدح	-3169
▁لبی	-3170
▁ماج	-3171
▁معر	-3172
▁معش	-3173
▁معص	-3174
▁ملو	-3175
▁نخل	-3176
▁نسخ	-3177
▁نیش	-3178
▁پرچ	-3179
▁ڈبو	-3180
▁کھٹ	-3181
▁ابلہ	-3182
▁اسان	-3183
▁اڑنے	-3184
▁بوند	-3185
▁بھلی	-3186
▁بھٹک	-3187
▁تھام	-3188
▁تیار	-3189
▁جتنی	-3190
▁جویی	-3191
▁حدیث	-3192
▁حریم	-3193
▁حواس	-3194
▁خیمے	-3195
▁دعوت	-3196
▁راکھ	-3197
▁رعنا	-3198
▁رہزن	-3199
▁سوتے	-3200
▁طواف	-3201
▁غالب	-3202
▁فتنۂ	-3203
▁فسوں	-3204
▁محیط	-3205
▁مردم	-3206
▁معاذ	-3207
▁موسی	-3208
▁ناتم	-3209
▁نباہ	-3210
▁نکتہ	-3211
▁پاگل	-3212
▁پنجۂ	-3213
▁پھرا	-3214
▁پہلی	-3215
▁چادر	-3216
▁چاہو	-3217
▁چلتا	-3218
▁چلیں	-3219
▁چونک	-3220
▁ڈوبا	-3221
▁کاٹے	-3222
▁کلیم	-3223
▁گلوں	-3224
▁گھون	-3225
▁یکسر	-3226
▁اترتا	-3227
▁ارایش	-3228
▁استاں	-3229
▁اشفتہ	-3230
▁الفاظ	-3231
▁اپنوں	-3232
▁بھولا	-3233
▁حیدرؔ	-3234
▁دنداں	-3235
▁راہوں	-3236
▁روداد	-3237
▁رکھیے	-3238
▁سلطنت	-3239
▁سنانے	-3240
▁سنایے	-3241
▁سوچوں	-3242
▁قافلہ	-3243
▁لفظوں	-3244
▁لمحوں	-3245
▁مرحبا	-3246
▁معمور	-3247
▁نکلیں	-3248
▁نگاہی	-3249
▁واقعہ	-3250
▁پاییں	-3251
▁پرستش	-3252
▁پرستی	-3253
▁چاہیں	-3254
▁چھایی	-3255
▁چھوڑے	-3256
▁باغباں	-3257
▁حسینوں	-3258
▁خرابات	-3259
▁خریدار	-3260
▁رقیبوں	-3261
▁زمینوں	-3262
▁سودایے	-3263
▁فرشتوں	-3264
▁فقیروں	-3265
▁مصحفیؔ	-3266
▁مہربان	-3267
▁واردات	-3268
▁ویرانہ	-3269
▁پشیماں	-3270
▁پہچانے	-3271
▁ڈھونڈا	-3272
▁کھینچا	-3273
▁اندھیوں	-3274
▁سمندروں	-3275
▁مسیحایی	-3276
▁اندھیروں	-3277
بۂ	-3278
خل	-3279
دل	-3280
رس	-3281
سۂ	-3282
طق	-3283
طل	-3284
فق	-3285
یف	-3286
ابا	-3287
اصی	-3288
ایق	-3289
بدہ	-3290
جھی	-3291
ردہ	-3292
شکر	-3293
صاف	-3294
صیر	-3295
فاق	-3296
ڑکے	-3297
ھری	-3298
ہیز	-3299
یرا	-3300
ینت	-3301
▁حم	-3302
▁رس	-3303
▁طن	-3304
▁عص	-3305
▁غز	-3306
▁فو	-3307
▁مغ	-3308
▁ٹی	-3309
داری	-3310
لانا	-3311
کاری	-3312
▁اصل	-3313
▁افق	-3314
▁امر	-3315
▁بہہ	-3316
▁تاک	-3317
▁خلد	-3318
▁ردا	-3319
▁رسا	-3320
▁روی	-3321
▁زنگ	-3322
▁سون	-3323
▁شدت	-3324
▁طوط	-3325
▁عرو	-3326
▁عین	-3327
▁فخر	-3328
▁فری	-3329
▁لپٹ	-3330
▁مکھ	-3331
▁ناف	-3332
▁واب	-3333
▁پاش	-3334
▁کاف	-3335
▁کرب	-3336
▁کشش	-3337
▁گہہ	-3338
▁اجاڑ	-3339
▁اماں	-3340
▁اچھل	-3341
▁اڑتی	-3342
▁اڑتے	-3343
▁اییے	-3344
▁بندۂ	-3345
▁بٹھا	-3346
▁بچپن	-3347
▁بیدل	-3348
▁تذکر	-3349
▁توبہ	-3350
▁توڑا	-3351
▁جاری	-3352
▁جامۂ	-3353
▁جھلم	-3354
▁جہنم	-3355
▁خستہ	-3356
▁خلوص	-3357
▁دوزخ	-3358
▁دکاں	-3359
▁دیگر	-3360
▁رشتے	-3361
▁روکے	-3362
▁رہبر	-3363
▁رہرو	-3364
▁رہوں	-3365
▁زوال	-3366
▁سایا	-3367
▁سراغ	-3368
▁شورش	-3369
▁شکوے	-3370
▁شگفت	-3371
▁صلیب	-3372
▁عاجز	-3373
▁عتاب	-3374
▁غنچے	-3375
▁فانی	-3376
▁فشاں	-3377
▁قلزم	-3378
▁لشکر	-3379
▁مانی	-3380
▁مجمع	-3381
▁مدام	-3382
▁مسرت	-3383
▁مطرب	-3384
▁مقدم	-3385
▁ملال	-3386
▁موجۂ	-3387
▁نغمۂ	-3388
▁نغمے	-3389
▁واقف	-3390
▁پگھل	-3391
▁پیہم	-3392
▁چرچا	-3393
▁چھلک	-3394
▁ڈالی	-3395
▁کاوش	-3396
▁کباب	-3397
▁کعبے	-3398
▁کھلو	-3399
▁کھڑک	-3400
▁گاہے	-3401
▁گریۂ	-3402
▁گسار	-3403
▁گمان	-3404
▁گہرے	-3405
▁ہلاک	-3406
▁ہنسا	-3407
▁ادایے	-3408
▁استیں	-3409
▁بتاتے	-3410
▁برایی	-3411
▁برہمن	-3412
▁بندوں	-3413
▁تاریک	-3414
▁تسخیر	-3415
▁توفیق	-3416
▁جاگتا	-3417
▁دستار	-3418
▁دسترس	-3419
▁دوستو	-3420
▁دھوکے	-3421
▁روییں	-3422
▁زلیخا	-3423
▁سرگرم	-3424
▁سلسلہ	-3425
▁سمجھو	-3426
▁سوختہ	-3427
▁سیلاب	-3428
▁سیماب	-3429
▁فایدہ	-3430
▁فسانے	-3431
▁لگانے	-3432
▁محابا	-3433
▁محسوس	-3434
▁معشوق	-3435
▁مہماں	-3436
▁نارسا	-3437
▁نظارۂ	-3438
▁نظروں	-3439
▁نوایی	-3440
▁پرہیز	-3441
▁پکارے	-3442
▁پھینک	-3443
▁پیاسے	-3444
▁چڑھتے	-3445
▁کرشمہ	-3446
▁کھونے	-3447
▁کھٹکا	-3448
▁گھروں	-3449
▁ہشیار	-3450
▁ازمانے	-3451
▁بستیوں	-3452
▁بلاییں	-3453
▁بھیگتا	-3454
▁بیابان	-3455
▁بیماری	-3456
▁خودکشی	-3457
▁ناگہاں	-3458
▁پہچانا	-3459
▁کتابوں	-3460
▁کھینچے	-3461
▁پارسایی	-3462
▁ڈھونڈھتا	-3463
شہ	-3464
طہ	-3465
قب	-3466
پس	-3467
گن	-3468
ھن	-3469
ہو	-3470
ازم	-3471
الع	-3472
الہ	-3473
ایب	-3474
بوں	-3475
تھی	-3476
ذور	-3477
راک	-3478
ستۂ	-3479
فاک	-3480
فیت	-3481
قوب	-3482
ماد	-3483
ومت	-3484
چوں	-3485
کنے	-3486
ہبا	-3487
▁اط	-3488
▁حب	-3489
▁خد	-3490
▁رے	-3491
▁سح	-3492
▁عظ	-3493
▁مخ	-3494
اصلے	-3495
رافت	-3496
زایے	-3497
مرود	-3498
یانی	-3499
▁ارے	-3500
▁الہ	-3501
▁اپس	-3502
▁باش	-3503
▁بسی	-3504
▁بشک	-3505
▁بلک	-3506
▁بوڑ	-3507
▁بھن	-3508
▁تاز	-3509
▁تام	-3510
▁تہہ	-3511
▁جال	-3512
▁جرا	-3513
▁دبا	-3514
▁دوپ	-3515
▁ذلت	-3516
▁رمز	-3517
▁روپ	-3518
▁رکے	-3519
▁زعم	-3520
▁ساق	-3521
▁صدم	-3522
▁طوق	-3523
▁عطا	-3524
▁فدا	-3525
▁قاب	-3526
▁مرض	-3527
▁ممن	-3528
▁میز	-3529
▁میل	-3530
▁نرا	-3531
▁وجد	-3532
▁وصف	-3533
▁وقف	-3534
▁ٹھی	-3535
▁پہا	-3536
▁چھل	-3537
▁کال	-3538
▁کدۂ	-3539
▁کنی	-3540
▁گھا	-3541
▁گھو	-3542
▁ہمہ	-3543
اندگی	-3544
انیاں	-3545
▁افاق	-3546
▁انچل	-3547
▁اینے	-3548
▁باطل	-3549
▁بخشش	-3550
▁بخشے	-3551
▁بزرگ	-3552
▁بنتی	-3553
▁بندے	-3554
▁بوسۂ	-3555
▁بچھا	-3556
▁بھیڑ	-3557
▁بہتا	-3558
▁بہشت	-3559
▁تپاک	-3560
▁جانو	-3561
▁جگنو	-3562
▁جیتا	-3563
▁خبری	-3564
▁خطاب	-3565
▁دستک	-3566
▁دکھے	-3567
▁دھول	-3568
▁دہلی	-3569
▁زینت	-3570
▁سبزۂ	-3571
▁سفاک	-3572
▁سلوک	-3573
▁شیشۂ	-3574
▁صہبا	-3575
▁طالع	-3576
▁عقدۂ	-3577
▁غمزہ	-3578
▁فلاں	-3579
▁لازم	-3580
▁لکھے	-3581
▁مسلم	-3582
▁مغاں	-3583
▁مقصد	-3584
▁مندر	-3585
▁مٹھی	-3586
▁مکیں	-3587
▁ندیم	-3588
▁نوید	-3589
▁نکھر	-3590
▁ٹوٹی	-3591
▁پتوں	-3592
▁پڑھا	-3593
▁پیری	-3594
▁پیشہ	-3595
▁چھان	-3596
▁کانچ	-3597
▁کاکل	-3598
▁کماں	-3599
▁کوثر	-3600
▁کھیت	-3601
▁گشتہ	-3602
▁گویی	-3603
▁اتشیں	-3604
▁ارماں	-3605
▁اشارہ	-3606
▁افشاں	-3607
▁التجا	-3608
▁الجھا	-3609
▁اکیلے	-3610
▁باندھ	-3611
▁بجایے	-3612
▁بغاوت	-3613
▁بنانے	-3614
▁بولتا	-3615
▁بیزار	-3616
▁جذبات	-3617
▁حکومت	-3618
▁خواری	-3619
▁داماں	-3620
▁درواز	-3621
▁درپیش	-3622
▁دلبری	-3623
▁ربایی	-3624
▁رشتوں	-3625
▁رضواں	-3626
▁رنداں	-3627
▁رکھنا	-3628
▁رہایی	-3629
▁زیارت	-3630
▁سرکار	-3631
▁سوچیں	-3632
▁شرابی	-3633
▁شرارت	-3634
▁شرافت	-3635
▁عافیت	-3636
▁فاصلہ	-3637
▁فاصلے	-3638
▁ماجرا	-3639
▁مانوس	-3640
▁محدود	-3641
▁مضموں	-3642
▁معاصی	-3643
▁معذور	-3644
▁مہمان	-3645
▁ناسزا	-3646
▁ناموس	-3647
▁ناچار	-3648
▁نمرود	-3649
▁پابند	-3650
▁پرانا	-3651
▁پرانے	-3652
▁پلکیں	-3653
▁پیاری	-3654
▁پیماں	-3655
▁کھوتی	-3656
▁کھویا	-3657
▁کہسار	-3658
▁کیمیا	-3659
▁گزرتے	-3660
▁ہنسنے	-3661
▁یاراں	-3662
▁یعقوب	-3663
▁اعتماد	-3664
▁اندیشہ	-3665
▁بستیاں	-3666
▁تمنایے	-3667
▁دنیایے	-3668
▁دکھایے	-3669
▁رعنایی	-3670
▁سانسوں	-3671
▁سناییں	-3672
▁فضاییں	-3673
▁منزلیں	-3674
▁ناتواں	-3675
▁نادانی	-3676
▁نازنیں	-3677
▁پیشانی	-3678
▁پیمانے	-3679
▁ڈھونڈے	-3680
▁گریبان	-3681
▁افسردگی	-3682
▁اٹھاییے	-3683
▁فرماییے	-3684
▁کھینچتا	-3685
تھ	-3686
زش	-3687
شد	-3688
قو	-3689
انت	-3690
تاد	-3691
دور	-3692
ریز	-3693
زیں	-3694
لسل	-3695
لیل	-3696
یات	-3697
یسا	-3698
▁سد	-3699
▁سط	-3700
▁شش	-3701
▁صو	-3702
▁لغ	-3703
▁مڑ	-3704
▁ند	-3705
▁چک	-3706
▁چہ	-3707
▁کڑ	-3708
▁یو	-3709
▁یگ	-3710
بارت	-3711
رایا	-3712
صورت	-3713
ھایا	-3714
▁اجڑ	-3715
▁اوج	-3716
▁باو	-3717
▁باک	-3718
▁برف	-3719
▁بگو	-3720
▁جھن	-3721
▁راگ	-3722
▁روگ	-3723
▁ریا	-3724
▁ریش	-3725
▁زہد	-3726
▁ساں	-3727
▁سلط	-3728
▁شفا	-3729
▁صفت	-3730
▁طنز	-3731
▁عرف	-3732
▁عزم	-3733
▁عند	-3734
▁فتح	-3735
▁فرض	-3736
▁فہم	-3737
▁قلب	-3738
▁قوت	-3739
▁لحد	-3740
▁لرز	-3741
▁لوح	-3742
▁لگن	-3743
▁مدد	-3744
▁مفل	-3745
▁مکت	-3746
▁ناپ	-3747
▁نزع	-3748
▁نشی	-3749
▁نمی	-3750
▁چڑھ	-3751
▁ڈھا	-3752
▁کجا	-3753
▁گلو	-3754
▁ہلا	-3755
▁ہما	-3756
▁ابگی	-3757
▁اثار	-3758
▁اخلا	-3759
▁استع	-3760
▁افزا	-3761
▁اوڑھ	-3762
▁اگاہ	-3763
▁اہیں	-3764
▁باسی	-3765
▁باطن	-3766
▁بدلی	-3767
▁بولا	-3768
▁بچیے	-3769
▁بھڑک	-3770
▁بھگو	-3771
▁بینی	-3772
▁تامل	-3773
▁تجھی	-3774
▁تربت	-3775
▁تعجب	-3776
▁تیرہ	-3777
▁ثبات	-3778
▁جاگے	-3779
▁جلتی	-3780
▁جلدی	-3781
▁حوصل	-3782
▁خاکی	-3783
▁خطرے	-3784
▁دریغ	-3785
▁دوام	-3786
▁راضی	-3787
▁رفیق	-3788
▁ریزۂ	-3789
▁ریشہ	-3790
▁سرشک	-3791
▁سننا	-3792
▁سننے	-3793
▁شناس	-3794
▁شکیب	-3795
▁صفات	-3796
▁صفحۂ	-3797
▁طریق	-3798
▁طوطی	-3799
▁عباد	-3800
▁عظمت	-3801
▁غموں	-3802
▁قابو	-3803
▁قالب	-3804
▁لاتا	-3805
▁لطیف	-3806
▁لہجے	-3807
▁مانے	-3808
▁مریم	-3809
▁مصور	-3810
▁ممات	-3811
▁مہکے	-3812
▁نادم	-3813
▁نقشہ	-3814
▁واپس	-3815
▁ویسا	-3816
▁پارۂ	-3817
▁پناہ	-3818
▁پڑتی	-3819
▁پڑتے	-3820
▁پھٹی	-3821
▁پہاڑ	-3822
▁پینے	-3823
▁چمکا	-3824
▁ڈالے	-3825
▁کانپ	-3826
▁کایی	-3827
▁کمرے	-3828
▁کوتا	-3829
▁کھود	-3830
▁گھوم	-3831
▁ہونٹ	-3832
▁ارادہ	-3833
▁اشارا	-3834
▁اندوہ	-3835
▁اوراق	-3836
▁بدلنے	-3837
▁بلایے	-3838
▁بچاتے	-3839
▁بھنور	-3840
▁بھولی	-3841
▁بھیجی	-3842
▁جاوید	-3843
▁جراحت	-3844
▁جلایے	-3845
▁جھگڑا	-3846
▁حوادث	-3847
▁حوصلے	-3848
▁حکایت	-3849
▁حیران	-3850
▁حیواں	-3851
▁خدایا	-3852
▁دامان	-3853
▁درباں	-3854
▁دھارا	-3855
▁راہرو	-3856
▁راہیں	-3857
▁رنجور	-3858
▁روانی	-3859
▁رکھنے	-3860
▁زلفیں	-3861
▁ساقیا	-3862
▁ستایش	-3863
▁سناتے	-3864
▁سہارے	-3865
▁شمعیں	-3866
▁شیفتہ	-3867
▁عبارت	-3868
▁عنواں	-3869
▁ماتھے	-3870
▁محروم	-3871
▁مسلسل	-3872
▁معانی	-3873
▁میدان	-3874
▁پرندے	-3875
▁پھونک	-3876
▁پیاسی	-3877
▁پیالہ	-3878
▁پیشتر	-3879
▁پیوند	-3880
▁چھوٹا	-3881
▁کشادہ	-3882
▁کھویے	-3883
▁گزرنا	-3884
▁گزریں	-3885
▁گلابی	-3886
▁اجزایے	-3887
▁ادھورا	-3888
▁ارزویے	-3889
▁بتاییں	-3890
▁بینایی	-3891
▁خیالوں	-3892
▁دشمنوں	-3893
▁دکھاتی	-3894
▁راستوں	-3895
▁سمجھنے	-3896
▁سیکڑوں	-3897
▁شرمسار	-3898
▁شوریدہ	-3899
▁محفلیں	-3900
▁مینایے	-3901
▁ناصبور	-3902
▁نمایاں	-3903
▁نومیدی	-3904
▁ویرانے	-3905
▁پوچھوں	-3906
▁کیونکہ	-3907
▁گناہوں	-3908
▁ہوشیار	-3909
▁استخواں	-3910
▁انگلیاں	-3911
▁تماشایی	-3912
▁خواہشوں	-3913
▁خوبصورت	-3914
▁دیواریں	-3915
▁گرفتاری	-3916
▁ڈھونڈھتے	-3917
حد	-3918
سہ	-3919
ضو	-3920
فع	-3921
مہ	-3922
کت	-3923
کو	-3924
ادۂ	-3925
تار	-3926
رصر	-3927
ریل	-3928
صار	-3929
لوب	-3930
لیں	-3931
میل	-3932
مین	-3933
وان	-3934
گیر	-3935
▁بع	-3936
▁زا	-3937
▁عم	-3938
▁فص	-3939
▁وے	-3940
▁پج	-3941
▁پے	-3942
بوری	-3943
دگاں	-3944
شایے	-3945
واری	-3946
گاری	-3947
▁اشت	-3948
▁امل	-3949
▁امن	-3950
▁بدر	-3951
▁بدم	-3952
▁بغل	-3953
▁بور	-3954
▁بکف	-3955
▁بیش	-3956
▁تعز	-3957
▁تنک	-3958
▁تین	-3959
▁جنم	-3960
▁جھج	-3961
▁جھر	-3962
▁خشت	-3963
▁خلل	-3964
▁دبے	-3965
▁دخل	-3966
▁رام	-3967
▁رست	-3968
▁رسن	-3969
▁سات	-3970
▁سمی	-3971
▁سپر	-3972
▁صحن	-3973
▁صدق	-3974
▁صدی	-3975
▁صند	-3976
▁فاش	-3977
▁فزا	-3978
▁قصر	-3979
▁قصۂ	-3980
▁لاگ	-3981
▁محل	-3982
▁مول	-3983
▁ناو	-3984
▁نیز	-3985
▁نیل	-3986
▁ووں	-3987
▁چاٹ	-3988
▁چلن	-3989
▁چوم	-3990
▁چھت	-3991
▁چیخ	-3992
▁کتر	-3993
▁کنع	-3994
▁کنو	-3995
▁کڑی	-3996
▁کیں	-3997
▁گال	-3998
اییاں	-3999
تھیلی	-4000
▁اتار	-4001
▁اذیت	-4002
▁ارسی	-4003
▁امیر	-4004
▁اونچ	-4005
▁بالا	-4006
▁بالش	-4007
▁باہم	-4008
▁بتلا	-4009
▁بجاں	-4010
▁بوسے	-4011
▁بھیس	-4012
▁تارے	-4013
▁ثانی	-4014
▁جھوم	-4015
▁حکمت	-4016
▁خامۂ	-4017
▁دادہ	-4018
▁دروں	-4019
▁دیجے	-4020
▁رانی	-4021
▁رومی	-4022
▁زاری	-4023
▁زخمی	-4024
▁سایل	-4025
▁سختی	-4026
▁سنوں	-4027
▁سونپ	-4028
▁سویا	-4029
▁سویی	-4030
▁سیرت	-4031
▁صرصر	-4032
▁طلبی	-4033
▁ظہور	-4034
▁عیاں	-4035
▁غزال	-4036
▁فرنگ	-4037
▁قبلہ	-4038
▁لانے	-4039
▁لہجہ	-4040
▁محمل	-4041
▁مشیت	-4042
▁مضام	-4043
▁مغرب	-4044
▁منکر	-4045
▁مکرر	-4046
▁مکمل	-4047
▁نسخہ	-4048
▁نہال	-4049
▁والی	-4050
▁ٹکرا	-4051
▁ٹھیک	-4052
▁پوری	-4053
▁پھوڑ	-4054
▁پیتے	-4055
▁چلمن	-4056
▁چڑھا	-4057
▁چھری	-4058
▁چھٹا	-4059
▁ڈھال	-4060
▁کردہ	-4061
▁کشاں	-4062
▁کلاہ	-4063
▁کہیو	-4064
▁گریز	-4065
▁ہلال	-4066
▁استاد	-4067
▁الجھے	-4068
▁الودہ	-4069
▁امادہ	-4070
▁امکاں	-4071
▁انصاف	-4072
▁انگلی	-4073
▁اٹھاو	-4074
▁بالیں	-4075
▁بولیں	-4076
▁بگڑتا	-4077
▁بھاگے	-4078
▁بہانہ	-4079
▁بینوں	-4080
▁تجربہ	-4081
▁تقریب	-4082
▁تمکین	-4083
▁تکمیل	-4084
▁جبریل	-4085
▁جلایا	-4086
▁جھوٹے	-4087
▁حادثہ	-4088
▁خانوں	-4089
▁خزانہ	-4090
▁خوانی	-4091
▁دربار	-4092
▁دریچے	-4093
▁دھرتی	-4094
▁زلفاں	-4095
▁سفینہ	-4096
▁سواری	-4097
▁سوییں	-4098
▁سکندر	-4099
▁سیاہی	-4100
▁سیکھا	-4101
▁شاخوں	-4102
▁شاداب	-4103
▁شرمند	-4104
▁شعلوں	-4105
▁عبادت	-4106
▁عربدہ	-4107
▁فسانۂ	-4108
▁فضاوں	-4109
▁قبروں	-4110
▁قلندر	-4111
▁لڑایی	-4112
▁لکھتا	-4113
▁لگایی	-4114
▁مانتا	-4115
▁مطمین	-4116
▁معصوم	-4117
▁مغرور	-4118
▁ممنون	-4119
▁موجزن	-4120
▁ناخدا	-4121
▁نشیمن	-4122
▁نکلنے	-4123
▁نہانی	-4124
▁ویران	-4125
▁پرچھا	-4126
▁پچھلے	-4127
▁پھیلا	-4128
▁پیروں	-4129
▁پیڑوں	-4130
▁چاہنے	-4131
▁چاہوں	-4132
▁چمکتا	-4133
▁چھاتی	-4134
▁چھونے	-4135
▁ڈالیں	-4136
▁کھانے	-4137
▁کھڑکی	-4138
▁گدایی	-4139
▁گلچیں	-4140
▁گھونٹ	-4141
▁اختلاف	-4142
▁اسمانی	-4143
▁اشیانہ	-4144
▁افسانۂ	-4145
▁افشانی	-4146
▁اٹھاتے	-4147
▁اٹھانا	-4148
▁اٹھایی	-4149
▁بکھرنے	-4150
▁بہاراں	-4151
▁حادثات	-4152
▁حیرانی	-4153
▁دلاییں	-4154
▁دکھاتا	-4155
▁دکھانے	-4156
▁دھڑکتا	-4157
▁سپردگی	-4158
▁شبستاں	-4159
▁عندلیب	-4160
▁فروزاں	-4161
▁قربتیں	-4162
▁مایوسی	-4163
▁منزلوں	-4164
▁ناتمام	-4165
▁ناکامی	-4166
▁پتھروں	-4167
▁کتابیں	-4168
▁ہتھیلی	-4169
▁ہنگامۂ	-4170
▁یادگار	-4171
▁تقاضایے	-4172
▁سمجھانے	-4173
▁سنبھالے	-4174
▁شادمانی	-4175
▁وارستگی	-4176
▁گھٹاییں	-4177
بد	-4178
ذا	-4179
قل	-4180
نس	-4181
وح	-4182
چی	-4183
اسی	-4184
اکت	-4185
اکم	-4186
اہل	-4187
حاں	-4188
ختن	-4189
خود	-4190
دید	-4191
زوں	-4192
فام	-4193
لیم	-4194
لیک	-4195
ناب	-4196
ناک	-4197
وہش	-4198
پاس	-4199
کوں	-4200
گیز	-4201
یاق	-4202
ینۂ	-4203
▁تخ	-4204
▁تف	-4205
▁خر	-4206
▁زح	-4207
▁غو	-4208
▁مچ	-4209
▁چو	-4210
▁چٹ	-4211
امات	-4212
جروح	-4213
دمند	-4214
لیکن	-4215
نایے	-4216
ڑایے	-4217
یازہ	-4218
▁انچ	-4219
▁اکس	-4220
▁باج	-4221
▁بدخ	-4222
▁بچہ	-4223
▁بچے	-4224
▁بیب	-4225
▁ترج	-4226
▁تھر	-4227
▁جاے	-4228
▁جلد	-4229
▁جہت	-4230
▁حذر	-4231
▁خاں	-4232
▁داں	-4233
▁دفع	-4234
▁دھن	-4235
▁روب	-4236
▁رکی	-4237
▁زود	-4238
▁سبق	-4239
▁سدھ	-4240
▁سرب	-4241
▁سرگ	-4242
▁سمٹ	-4243
▁شفق	-4244
▁طرۂ	-4245
▁عجم	-4246
▁غصے	-4247
▁فار	-4248
▁فان	-4249
▁فرز	-4250
▁فسر	-4251
▁قصے	-4252
▁قمر	-4253
▁لقب	-4254
▁محک	-4255
▁مدا	-4256
▁مدح	-4257
▁مصر	-4258
▁معج	-4259
▁موم	-4260
▁مٹے	-4261
▁مہی	-4262
▁ناق	-4263
▁نشو	-4264
▁نوک	-4265
▁نہا	-4266
▁نیت	-4267
▁وضو	-4268
▁چٹک	-4269
▁چیں	-4270
▁کود	-4271
▁ہرا	-4272
▁ہیچ	-4273
▁ادھی	-4274
▁امام	-4275
▁اگلے	-4276
▁ایما	-4277
▁بخشی	-4278
▁بخیہ	-4279
▁بدست	-4280
▁برسا	-4281
▁بگڑی	-4282
▁بیتے	-4283
▁بینش	-4284
▁تلخی	-4285
▁تھکن	-4286
▁تیور	-4287
▁جستہ	-4288
▁جلال	-4289
▁جلنے	-4290
▁حاکم	-4291
▁حایل	-4292
▁خراش	-4293
▁خلقت	-4294
▁دارا	-4295
▁درجہ	-4296
▁دھرم	-4297
▁دھنک	-4298
▁دہان	-4299
▁رایے	-4300
▁رکھو	-4301
▁رہین	-4302
▁ریزش	-4303
▁سازی	-4304
▁سانپ	-4305
▁سحری	-4306
▁سرخی	-4307
▁سروں	-4308
▁سرکش	-4309
▁سیلی	-4310
▁شعار	-4311
▁شیوہ	-4312
▁صدقے	-4313
▁صفحہ	-4314
▁صوفی	-4315
▁طاوس	-4316
▁طبیب	-4317
▁طرفہ	-4318
▁عارف	-4319
▁عروس	-4320
▁عقدہ	-4321
▁عناں	-4322
▁عنقا	-4323
▁عیار	-4324
▁فسون	-4325
▁فگار	-4326
▁قطرے	-4327
▁قمری	-4328
▁لایق	-4329
▁لغزش	-4330
▁لوہو	-4331
▁لیتی	-4332
▁مجسم	-4333
▁مرضی	-4334
▁مریض	-4335
▁مشرب	-4336
▁مطلق	-4337
▁ملیے	-4338
▁مندی	-4339
▁منیں	-4340
▁مولا	-4341
▁مومن	-4342
▁مٹنے	-4343
▁مہری	-4344
▁مہکی	-4345
▁ناحق	-4346
▁نازش	-4347
▁نامۂ	-4348
▁نشیب	-4349
▁نوبت	-4350
▁نگری	-4351
▁نیام	-4352
▁وحدت	-4353
▁وفاد	-4354
▁وفور	-4355
▁ٹھان	-4356
▁پانا	-4357
▁پردا	-4358
▁پنبہ	-4359
▁پھین	-4360
▁پہلا	-4361
▁چپکے	-4362
▁چھوٹ	-4363
▁کمان	-4364
▁کمند	-4365
▁کوچہ	-4366
▁کٹتی	-4367
▁کٹھن	-4368
▁کھٹک	-4369
▁گرتے	-4370
▁گروں	-4371
▁گواہ	-4372
▁گوشے	-4373
▁ہونی	-4374
▁اتنوں	-4375
▁احرام	-4376
▁ادراک	-4377
▁افسون	-4378
▁انگیز	-4379
▁اوارۂ	-4380
▁اچھال	-4381
▁اگاہی	-4382
▁ایسوں	-4383
▁بانکی	-4384
▁بجھتے	-4385
▁بوریا	-4386
▁بچھڑے	-4387
▁بڑھتا	-4388
▁بڑھتے	-4389
▁تقصیر	-4390
▁تلافی	-4391
▁تماشہ	-4392
▁تمکیں	-4393
▁جلاتے	-4394
▁جمعیت	-4395
▁جواہر	-4396
▁خدایے	-4397
▁خرابے	-4398
▁دوسری	-4399
▁دوپہر	-4400
▁دہایی	-4401
▁دہلیز	-4402
▁زنہار	-4403
▁سانچے	-4404
▁سجانے	-4405
▁سراسر	-4406
▁سریجن	-4407
▁سنسان	-4408
▁سنوار	-4409
▁سیدھی	-4410
▁شرطیں	-4411
▁شہروں	-4412
▁طفلاں	-4413
▁فریبی	-4414
▁فسانا	-4415
▁لاییں	-4416
▁لکھتے	-4417
▁لگاتے	-4418
▁لگایا	-4419
▁مجروح	-4420
▁مرحلہ	-4421
▁مسافت	-4422
▁مضطرب	-4423
▁مقتول	-4424
▁ناروا	-4425
▁نامرا	-4426
▁نزاکت	-4427
▁نظارے	-4428
▁نکالا	-4429
▁نکوہش	-4430
▁نگراں	-4431
▁نہایت	-4432
▁ولیکن	-4433
▁ٹھنڈی	-4434
▁پرانی	-4435
▁پندار	-4436
▁پھرنے	-4437
▁پھنسا	-4438
▁پہروں	-4439
▁ڈوبنے	-4440
▁کردار	-4441
▁کرشمے	-4442
▁کلامی	-4443
▁کلیسا	-4444
▁کنارے	-4445
▁کھایے	-4446
▁کھلتی	-4447
▁کھلیں	-4448
▁کھولے	-4449
▁گرانی	-4450
▁گزارے	-4451
▁گلفام	-4452
▁یاران	-4453
▁ابھرتا	-4454
▁ابھرنے	-4455
▁اجالوں	-4456
▁استوار	-4457
▁اشتیاق	-4458
▁افشایے	-4459
▁التماس	-4460
▁بھلانے	-4461
▁بھولیں	-4462
▁بیگانۂ	-4463
▁تاریکی	-4464
▁جاوداں	-4465
▁حجابوں	-4466
▁خمیازہ	-4467
▁خواہاں	-4468
▁خوشیوں	-4469
▁دردمند	-4470
▁دروازے	-4471
▁رازداں	-4472
▁رسوایے	-4473
▁رنگینی	-4474
▁سودایی	-4475
▁صحرایے	-4476
▁صداییں	-4477
▁صورتیں	-4478
▁ماہتاب	-4479
▁ناامید	-4480
▁نشینوں	-4481
▁نصیبوں	-4482
▁وسعتیں	-4483
▁ٹکرایے	-4484
▁پہاڑوں	-4485
▁چنگاری	-4486
▁چھوڑیں	-4487
▁چھپانا	-4488
▁ڈھونڈھ	-4489
▁کرامات	-4490
▁کھولتے	-4491
▁گستاخی	-4492
▁گلابوں	-4493
▁استعارہ	-4494
▁اندھیرا	-4495
▁اندھیری	-4496
▁اٹھاییں	-4497
▁خودداری	-4498
▁دکھاییں	-4499
▁مسکرانے	-4500
▁ناتوانی	-4501
▁ویرانوں	-4502
▁ڈھونڈتا	-4503
▁ڈھونڈیں	-4504
▁گھبرایے	-4505
اۂ	-4506
رض	-4507
رۂ	-4508
سپ	-4509
شا	-4510
عۂ	-4511
لع	-4512
مد	-4513
مٹ	-4514
ڑو	-4515
کز	-4516
افظ	-4517
انع	-4518
تون	-4519
سای	-4520
شاہ	-4521
عام	-4522
غات	-4523
فال	-4524
فوظ	-4525
قبت	-4526
قوف	-4527
قیر	-4528
لاط	-4529
مار	-4530
ودہ	-4531
وشی	-4532
ولی	-4533
ومی	-4534
ٹکے	-4535
چسپ	-4536
ڑکا	-4537
کتے	-4538
گاف	-4539
ہمی	-4540
ہوں	-4541
یزہ	-4542
یلی	-4543
ینہ	-4544
▁اں	-4545
▁زل	-4546
▁عد	-4547
▁مز	-4548
▁نڈ	-4549
▁وش	-4550
▁ڈس	-4551
ارات	-4552
بادا	-4553
شاہی	-4554
فشاں	-4555
لاتا	-4556
ندوں	-4557
نگوں	-4558
وایے	-4559
کنار	-4560
ھایی	-4561
یدھر	-4562
یمال	-4563
▁ارز	-4564
▁اسا	-4565
▁الف	-4566
▁اپر	-4567
▁اگل	-4568
▁باس	-4569
▁برد	-4570
▁بسم	-4571
▁بسے	-4572
▁بچن	-4573
▁تال	-4574
▁جتا	-4575
▁جزو	-4576
▁جمی	-4577
▁جگم	-4578
▁خلا	-4579
▁دبی	-4580
▁رخت	-4581
▁رہز	-4582
▁زنی	-4583
▁زہے	-4584
▁سہہ	-4585
▁سیپ	-4586
▁شگو	-4587
▁شہز	-4588
▁شہہ	-4589
▁صدف	-4590
▁صدہ	-4591
▁صور	-4592
▁غری	-4593
▁فات	-4594
▁فلس	-4595
▁قصد	-4596
▁لوک	-4597
▁ملت	-4598
▁منع	-4599
▁نخچ	-4600
▁ندا	-4601
▁نگل	-4602
▁ٹان	-4603
▁ٹیڑ	-4604
▁پتے	-4605
▁پرے	-4606
▁پھل	-4607
▁پیو	-4608
▁چوک	-4609
▁چپے	-4610
▁کاج	-4611
▁کرد	-4612
▁کہن	-4613
▁گلد	-4614
▁گود	-4615
▁ہرن	-4616
ایتیں	-4617
مانوں	-4618
▁ابجد	-4619
▁اختر	-4620
▁اخرش	-4621
▁اخیر	-4622
▁استغ	-4623
▁استی	-4624
▁اصلی	-4625
▁اصول	-4626
▁اندھ	-4627
▁انہی	-4628
▁ایذا	-4629
▁ایین	-4630
▁برسر	-4631
▁بسان	-4632
▁بسیں	-4633
▁بلکہ	-4634
▁بناو	-4635
▁بندھ	-4636
▁بھلے	-4637
▁بھیک	-4638
▁بیکر	-4639
▁تنکا	-4640
▁تڑپا	-4641
▁تییں	-4642
▁جایا	-4643
▁جبین	-4644
▁جھمی	-4645
▁جھکی	-4646
▁حافظ	-4647
▁حزیں	-4648
▁حصار	-4649
▁خارا	-4650
▁خالق	-4651
▁خویے	-4652
▁درخت	-4653
▁درہم	-4654
▁دکان	-4655
▁دینی	-4656
▁رووں	-4657
▁رکتے	-4658
▁زادے	-4659
▁زخود	-4660
▁ستاں	-4661
▁سرمے	-4662
▁سطوت	-4663
▁سناں	-4664
▁سنیں	-4665
▁سوار	-4666
▁سوزش	-4667
▁سوکھ	-4668
▁سپنا	-4669
▁سہما	-4670
▁سیاح	-4671
▁سیکھ	-4672
▁شامت	-4673
▁شعور	-4674
▁صندل	-4675
▁عالی	-4676
▁عقبی	-4677
▁عقید	-4678
▁فارغ	-4679
▁فراغ	-4680
▁فضول	-4681
▁قبلۂ	-4682
▁لالے	-4683
▁لاوے	-4684
▁لمبی	-4685
▁لوٹا	-4686
▁لڑکی	-4687
▁لکھو	-4688
▁مجاز	-4689
▁محتا	-4690
▁مرقع	-4691
▁مرکز	-4692
▁مشور	-4693
▁مطلع	-4694
▁منصب	-4695
▁منطق	-4696
▁مکتب	-4697
▁نامی	-4698
▁نامے	-4699
▁نظری	-4700
▁نوجو	-4701
▁نورد	-4702
▁نوشی	-4703
▁نگاۂ	-4704
▁نیکی	-4705
▁واجب	-4706
▁ٹپکا	-4707
▁پراف	-4708
▁پرزے	-4709
▁چارۂ	-4710
▁چتون	-4711
▁چلیے	-4712
▁چھپے	-4713
▁ڈالو	-4714
▁ڈھلے	-4715
▁کارن	-4716
▁کاسۂ	-4717
▁کدوں	-4718
▁کریم	-4719
▁کشوں	-4720
▁کمیں	-4721
▁کھنڈ	-4722
▁کھڑی	-4723
▁گایے	-4724
▁گنبد	-4725
▁گنتی	-4726
▁گوار	-4727
▁گھبر	-4728
▁ہاری	-4729
▁ہارے	-4730
▁یاری	-4731
▁اترتی	-4732
▁اخلاص	-4733
▁ارادے	-4734
▁ارزاں	-4735
▁ازاری	-4736
▁ازردہ	-4737
▁اسانی	-4738
▁اطفال	-4739
▁الماس	-4740
▁انجان	-4741
▁انعام	-4742
▁انہوں	-4743
▁اچھوں	-4744
▁اکرام	-4745
▁اکسیر	-4746
▁ایدھر	-4747
▁بجھتی	-4748
▁بردار	-4749
▁برہمی	-4750
▁بسانا	-4751
▁بناتے	-4752
▁بنیاد	-4753
▁بوجھل	-4754
▁بوڑھی	-4755
▁بھرتے	-4756
▁بھیگے	-4757
▁بہانۂ	-4758
▁بہایے	-4759
▁بیکار	-4760
▁تاخیر	-4761
▁تاراج	-4762
▁تذکرۂ	-4763
▁تعریف	-4764
▁تولیں	-4765
▁تھرتھ	-4766
▁جاویں	-4767
▁جنازہ	-4768
▁جنازے	-4769
▁جگانے	-4770
▁جھرمٹ	-4771
▁حوریں	-4772
▁حوصلۂ	-4773
▁خرامی	-4774
▁خیالی	-4775
▁داغوں	-4776
▁درماں	-4777
▁دشنام	-4778
▁دلچسپ	-4779
▁دلگیر	-4780
▁دنبال	-4781
▁دوانے	-4782
▁دھڑکن	-4783
▁دھیرے	-4784
▁دھیمے	-4785
▁رومیؔ	-4786
▁سانحہ	-4787
▁سلگتے	-4788
▁سلیقے	-4789
▁سمجھی	-4790
▁سوزاں	-4791
▁سوغات	-4792
▁سوچتی	-4793
▁سیدھا	-4794
▁شاخیں	-4795
▁صداقت	-4796
▁صداوں	-4797
▁عدالت	-4798
▁عرفاں	-4799
▁عیاری	-4800
▁فانوس	-4801
▁قاروں	-4802
▁قبایے	-4803
▁لبریز	-4804
▁لرزاں	-4805
▁لچکتی	-4806
▁ماتھا	-4807
▁مانیں	-4808
▁مبادا	-4809
▁مجازی	-4810
▁محفوظ	-4811
▁مدتیں	-4812
▁مشکیں	-4813
▁معتبر	-4814
▁معترض	-4815
▁معیار	-4816
▁مقدور	-4817
▁منداں	-4818
▁موقوف	-4819
▁مٹایا	-4820
▁میکدے	-4821
▁ندامت	-4822
▁نشانہ	-4823
▁نقصان	-4824
▁نوازی	-4825
▁نڈھال	-4826
▁وفایے	-4827
▁ٹپکتا	-4828
▁ٹھنڈا	-4829
▁پجاری	-4830
▁پرورش	-4831
▁پرکار	-4832
▁پڑھتے	-4833
▁پیالے	-4834
▁چالاک	-4835
▁چمکتی	-4836
▁چکیدن	-4837
▁چھوٹے	-4838
▁کانٹے	-4839
▁کربلا	-4840
▁کنعاں	-4841
▁کوسوں	-4842
▁کھلنے	-4843
▁کھولا	-4844
▁گرداب	-4845
▁اترایے	-4846
▁احتراز	-4847
▁احتیاج	-4848
▁اسیران	-4849
▁اشنایے	-4850
▁بازویے	-4851
▁باوجود	-4852
▁بجلیاں	-4853
▁بجھانے	-4854
▁بچھڑنے	-4855
▁بھاگیں	-4856
▁بھلایی	-4857
▁بھلایے	-4858
▁بیٹھیں	-4859
▁خبردار	-4860
▁دریچوں	-4861
▁دیوانا	-4862
▁زانویے	-4863
▁سانسیں	-4864
▁سرمایہ	-4865
▁سمجھوں	-4866
▁سنوارے	-4867
▁شایستہ	-4868
▁شکستوں	-4869
▁عریانی	-4870
▁غریبوں	-4871
▁فریادی	-4872
▁قربانی	-4873
▁مجبوری	-4874
▁مردانہ	-4875
▁معمورۂ	-4876
▁نبھانے	-4877
▁نیستاں	-4878
▁وابستہ	-4879
▁وحشتیں	-4880
▁ٹھکانہ	-4881
▁پانیوں	-4882
▁پایمال	-4883
▁پوشیدہ	-4884
▁پوچھنے	-4885
▁پوچھیں	-4886
▁پہنایی	-4887
▁پہچانی	-4888
▁پیمانۂ	-4889
▁چھالوں	-4890
▁کوتاہی	-4891
▁کھنچتی	-4892
▁گرمیاں	-4893
▁گہرایی	-4894
▁گیسووں	-4895
▁ہمکنار	-4896
▁انسانوں	-4897
▁انکھیاں	-4898
▁حقیقتیں	-4899
▁خوابیدہ	-4900
▁خواہشیں	-4901
▁زنجیریں	-4902
▁قیامتیں	-4903
▁ناامیدی	-4904
▁نارسایی	-4905
▁پرافشاں	-4906
▁پہچانتا	-4907
▁واماندگی	-4908
اخ	-4909
اض	-4910
اظ	-4911
بن	-4912
ثت	-4913
خو	-4914
ذف	-4915
زۂ	-4916
طۂ	-4917
مۂ	-4918
گس	-4919
امن	-4920
بیت	-4921
جاں	-4922
جرت	-4923
جھل	-4924
ذیر	-4925
روش	-4926
زلت	-4927
ساب	-4928
سوا	-4929
شتی	-4930
عاد	-4931
عون	-4932
فیل	-4933
قوت	-4934
قیق	-4935
لاد	-4936
لام	-4937
نچل	-4938
وام	-4939
وزی	-4940
وسہ	-4941
ولت	-4942
ونی	-4943
ویش	-4944
کان	-4945
کتی	-4946
ھار	-4947
ھوں	-4948
ھیر	-4949
ہام	-4950
ہری	-4951
ہقہ	-4952
یسر	-4953
یور	-4954
▁بم	-4955
▁دس	-4956
▁رد	-4957
▁زک	-4958
▁زہ	-4959
▁شل	-4960
▁ظن	-4961
▁مب	-4962
▁ٹہ	-4963
اراض	-4964
اشنی	-4965
اماں	-4966
بروں	-4967
جایی	-4968
خواب	-4969
راثت	-4970
صلوں	-4971
عتوں	-4972
علان	-4973
فعال	-4974
ناعت	-4975
ندری	-4976
کھڑی	-4977
یریں	-4978
▁افز	-4979
▁اوس	-4980
▁اٹک	-4981
▁ایر	-4982
▁بدا	-4983
▁بدی	-4984
▁بنو	-4985
▁بچی	-4986
▁بگا	-4987
▁بیس	-4988
▁بیض	-4989
▁بیل	-4990
▁تخم	-4991
▁تھم	-4992
▁جھا	-4993
▁حبس	-4994
▁حسد	-4995
▁حوض	-4996
▁خذف	-4997
▁دہق	-4998
▁رخی	-4999
▁رمض	-5000
▁رکا	-5001
▁زال	-5002
▁سبو	-5003
▁سرے	-5004
▁سہا	-5005
▁شمس	-5006
▁شکم	-5007
▁شہن	-5008
▁صحت	-5009
▁صہب	-5010
▁ضرب	-5011
▁ضرر	-5012
▁طعن	-5013
▁طنا	-5014
▁ظاہ	-5015
▁عصا	-5016
▁عطر	-5017
▁فال	-5018
▁فگن	-5019
▁قری	-5020
▁قفا	-5021
▁قفل	-5022
▁قلق	-5023
▁قول	-5024
▁قوم	-5025
▁لقا	-5026
▁لمس	-5027
▁مخم	-5028
▁مدف	-5029
▁مرث	-5030
▁مشغ	-5031
▁میٹ	-5032
▁نتی	-5033
▁نطق	-5034
▁نعش	-5035
▁نمو	-5036
▁نوچ	-5037
▁وری	-5038
▁وسی	-5039
▁ٹال	-5040
▁پور	-5041
▁پکڑ	-5042
▁پہل	-5043
▁پہن	-5044
▁پیٹ	-5045
▁ڈھب	-5046
▁کچا	-5047
▁گاۂ	-5048
▁گیت	-5049
▁ہات	-5050
الہوس	-5051
نگایی	-5052
▁ابلے	-5053
▁اتری	-5054
▁اترے	-5055
▁اسرا	-5056
▁افتا	-5057
▁افشر	-5058
▁افگن	-5059
▁اہنگ	-5060
▁اہوں	-5061
▁ایات	-5062
▁بابا	-5063
▁بانی	-5064
▁باور	-5065
▁بخیل	-5066
▁بدلہ	-5067
▁برات	-5068
▁بریں	-5069
▁بقدر	-5070
▁بقول	-5071
▁بھال	-5072
▁بھاگ	-5073
▁بھیج	-5074
▁بیتی	-5075
▁بیجا	-5076
▁تارہ	-5077
▁توام	-5078
▁توسن	-5079
▁توڑے	-5080
▁تکتا	-5081
▁تکیہ	-5082
▁جاگی	-5083
▁جلوت	-5084
▁جوشش	-5085
▁جویے	-5086
▁جھمک	-5087
▁جییں	-5088
▁حجاز	-5089
▁حفاظ	-5090
▁حیلہ	-5091
▁خرقہ	-5092
▁خروش	-5093
▁دستی	-5094
▁دشنہ	-5095
▁دعوا	-5096
▁دوتا	-5097
▁دوڑے	-5098
▁دکھی	-5099
▁ذلیل	-5100
▁رتوں	-5101
▁رخاں	-5102
▁رموز	-5103
▁رنگت	-5104
▁رگیں	-5105
▁رہیے	-5106
▁زبوں	-5107
▁زحمت	-5108
▁زماں	-5109
▁زمرد	-5110
▁زہرہ	-5111
▁سبحہ	-5112
▁سجدے	-5113
▁سستی	-5114
▁سندر	-5115
▁سواد	-5116
▁سوتی	-5117
▁سپاس	-5118
▁شاہی	-5119
▁شکنی	-5120
▁شگوف	-5121
▁صافی	-5122
▁صدہا	-5123
▁صریر	-5124
▁ضامن	-5125
▁طراز	-5126
▁طعنہ	-5127
▁عذار	-5128
▁عزلت	-5129
▁عنبر	-5130
▁غمزۂ	-5131
▁فاتح	-5132
▁فہمی	-5133
▁قطار	-5134
▁قہقہ	-5135
▁قیاس	-5136
▁لاتی	-5137
▁لاتے	-5138
▁لالۂ	-5139
▁لحاظ	-5140
▁لطمۂ	-5141
▁لوٹے	-5142
▁لکھی	-5143
▁لگنے	-5144
▁مجرم	-5145
▁محکم	-5146
▁مدار	-5147
▁مذاق	-5148
▁مرشد	-5149
▁مروں	-5150
▁مشرق	-5151
▁ملاو	-5152
▁ملول	-5153
▁مونس	-5154
▁مٹتا	-5155
▁مٹنا	-5156
▁میلے	-5157
▁میوہ	-5158
▁نابہ	-5159
▁ناقص	-5160
▁نبھا	-5161
▁نظام	-5162
▁نکلو	-5163
▁نیچے	-5164
▁واری	-5165
▁ٹپکے	-5166
▁پانو	-5167
▁پانے	-5168
▁پتلا	-5169
▁پتنگ	-5170
▁پختہ	-5171
▁پذیر	-5172
▁پروں	-5173
▁پڑیے	-5174
▁پھوٹ	-5175
▁پہرے	-5176
▁چنچل	-5177
▁چھوا	-5178
▁چھڑک	-5179
▁چہرۂ	-5180
▁ڈوبے	-5181
▁ڈھلی	-5182
▁کاجل	-5183
▁کاہے	-5184
▁کراں	-5185
▁کشاد	-5186
▁کشور	-5187
▁گوتم	-5188
▁گوشہ	-5189
▁گھنے	-5190
▁ہجرت	-5191
▁ہرزہ	-5192
▁ہلکا	-5193
▁ہیرے	-5194
▁ابشار	-5195
▁اجارہ	-5196
▁اجالے	-5197
▁ارشاد	-5198
▁اسلام	-5199
▁اصرار	-5200
▁اعلان	-5201
▁الجھی	-5202
▁امانت	-5203
▁امکان	-5204
▁اوتار	-5205
▁اوجھل	-5206
▁اولیں	-5207
▁اونچا	-5208
▁اڑایی	-5209
▁اڑایے	-5210
▁اہنگی	-5211
▁بازاں	-5212
▁باہمی	-5213
▁بتیاں	-5214
▁بدلتی	-5215
▁بدلنا	-5216
▁بدولت	-5217
▁برستی	-5218
▁برکھا	-5219
▁بنایی	-5220
▁بولوں	-5221
▁بچانے	-5222
▁بکھری	-5223
▁بھالے	-5224
▁بھڑکے	-5225
▁بھیجے	-5226
▁بھیگی	-5227
▁بیباک	-5228
▁تازگی	-5229
▁تجربے	-5230
▁تذکرہ	-5231
▁تربیت	-5232
▁ترستا	-5233
▁تشویش	-5234
▁تعلیم	-5235
▁تیاری	-5236
▁جاگتے	-5237
▁جتانے	-5238
▁جلانا	-5239
▁جلانے	-5240
▁جمہور	-5241
▁جگایے	-5242
▁جھوٹی	-5243
▁حجابی	-5244
▁حنایی	-5245
▁حیایی	-5246
▁خبروں	-5247
▁خستگی	-5248
▁داروں	-5249
▁درازی	-5250
▁درپیے	-5251
▁دعاوں	-5252
▁دوسرے	-5253
▁رلایا	-5254
▁رندان	-5255
▁رویاں	-5256
▁رکھیں	-5257
▁زدگاں	-5258
▁زنبور	-5259
▁زندان	-5260
▁زنگار	-5261
▁سامری	-5262
▁ستاتا	-5263
▁ستاتی	-5264
▁ستایے	-5265
▁سجایا	-5266
▁سرایے	-5267
▁سلاسل	-5268
▁سلسلے	-5269
▁سمیٹے	-5270
▁سناتی	-5271
▁سناٹے	-5272
▁سوختن	-5273
▁سوچنا	-5274
▁سوگند	-5275
▁سینوں	-5276
▁شاہوں	-5277
▁شاہیں	-5278
▁شایاں	-5279
▁شتابی	-5280
▁طریقے	-5281
▁ظلمات	-5282
▁عصیاں	-5283
▁غمازی	-5284
▁فراہم	-5285
▁فصلیں	-5286
▁فولاد	-5287
▁قناعت	-5288
▁لوٹیں	-5289
▁لکھیں	-5290
▁لگاوٹ	-5291
▁لہروں	-5292
▁مارتے	-5293
▁مارنے	-5294
▁ماسوا	-5295
▁ماندہ	-5296
▁مانگا	-5297
▁مانیے	-5298
▁مدارا	-5299
▁مداوا	-5300
▁مرجاں	-5301
▁مردمک	-5302
▁مزاجی	-5303
▁مسکیں	-5304
▁مضمون	-5305
▁معرکہ	-5306
▁مقدمے	-5307
▁مہکتا	-5308
▁مہکتی	-5309
▁میعاد	-5310
▁ناراض	-5311
▁نازاں	-5312
▁ناسور	-5313
▁نالاں	-5314
▁نالوں	-5315
▁ناچیز	-5316
▁نقصاں	-5317
▁نمازی	-5318
▁نمایش	-5319
▁نمناک	-5320
▁نوخیز	-5321
▁نکلنا	-5322
▁نیشتر	-5323
▁وراثت	-5324
▁ٹوٹیں	-5325
▁پرداز	-5326
▁پوشاک	-5327
▁پچھلی	-5328
▁پھنسے	-5329
▁پھیلے	-5330
▁پہنچی	-5331
▁پیکان	-5332
▁چاشنی	-5333
▁چونکا	-5334
▁چھالے	-5335
▁چھوٹی	-5336
▁چھپتی	-5337
▁چھیڑا	-5338
▁ڈوبتا	-5339
▁ڈوبتے	-5340
▁کلیجہ	-5341
▁کھاتے	-5342
▁کھنچے	-5343
▁کھوتا	-5344
▁کھیلا	-5345
▁گدازی	-5346
▁گرداں	-5347
▁گزرتی	-5348
▁گنگنا	-5349
▁گیہوں	-5350
▁ہارنے	-5351
▁یادیں	-5352
▁یاقوت	-5353
▁ابرویے	-5354
▁ابھرتی	-5355
▁ابھریں	-5356
▁اختلاط	-5357
▁ارزانی	-5358
▁اشارات	-5359
▁اصولوں	-5360
▁اعتراف	-5361
▁الاماں	-5362
▁اندازہ	-5363
▁اندازۂ	-5364
▁اندھیر	-5365
▁اندیشۂ	-5366
▁انسانی	-5367
▁انفعال	-5368
▁بادبان	-5369
▁بارشیں	-5370
▁بچھڑتے	-5371
▁بچھڑنا	-5372
▁بکھرتا	-5373
▁بھروسہ	-5374
▁بیداری	-5375
▁بیٹھنا	-5376
▁جانباز	-5377
▁جھلملا	-5378
▁جھنکار	-5379
▁جھونکے	-5380
▁حسرتوں	-5381
▁حسرتیں	-5382
▁خداوند	-5383
▁خواروں	-5384
▁خیالات	-5385
▁دبستاں	-5386
▁درمیان	-5387
▁دلیلیں	-5388
▁دنبالہ	-5389
▁دوستاں	-5390
▁دھڑکنے	-5391
▁دیرینہ	-5392
▁رفتگاں	-5393
▁رنجشیں	-5394
▁زیبایی	-5395
▁زینہار	-5396
▁سرمایۂ	-5397
▁سکھایا	-5398
▁شرمایے	-5399
▁شوخیاں	-5400
▁عزیزاں	-5401
▁فرماتے	-5402
▁قاتلوں	-5403
▁قباییں	-5404
▁مختاری	-5405
▁مردماں	-5406
▁موسموں	-5407
▁نامراد	-5408
▁ناکردہ	-5409
▁ناگوار	-5410
▁نیندوں	-5411
▁پابندی	-5412
▁پاسباں	-5413
▁پاکیزہ	-5414
▁پرستاں	-5415
▁پروانے	-5416
▁پنکھڑی	-5417
▁پوچھنا	-5418
▁پچھتاو	-5419
▁پھینکا	-5420
▁چھپایا	-5421
▁کاروان	-5422
▁کمخواب	-5423
▁کھاییں	-5424
▁کھنچتا	-5425
▁کھولیے	-5426
▁گھٹاوں	-5427
▁ہرجایی	-5428
▁ابگینوں	-5429
▁امیدوار	-5430
▁بلندیوں	-5431
▁بوالہوس	-5432
▁بہلاییں	-5433
▁رہنماوں	-5434
▁سرگرانی	-5435
▁شرمندگی	-5436
▁شناسایی	-5437
▁عاشقانہ	-5438
▁ٹھوکریں	-5439
▁پاسبانی	-5440
▁پہچانتے	-5441
▁کہانیاں	-5442
▁دکھلاییں	-5443
▁سنبھالوں	-5444
تن	-5445
خن	-5446
رر	-5447
رق	-5448
صد	-5449
ظی	-5450
نٹ	-5451
چو	-5452
ھم	-5453
ادے	-5454
اضی	-5455
افت	-5456
الف	-5457
امد	-5458
باز	-5459
برد	-5460
بوت	-5461
بیب	-5462
جار	-5463
جیو	-5464
دال	-5465
دوم	-5466
دیم	-5467
راج	-5468
راق	-5469
رور	-5470
سبز	-5471
سمہ	-5472
سین	-5473
شقہ	-5474
صیل	-5475
ضوع	-5476
قام	-5477
لوع	-5478
لید	-5479
نعت	-5480
نون	-5481
نین	-5482
وبت	-5483
وبی	-5484
چند	-5485
کیم	-5486
گاہ	-5487
گری	-5488
گزر	-5489
ھرا	-5490
ھرو	-5491
ھلی	-5492
ییل	-5493
▁خص	-5494
▁ذہ	-5495
▁رف	-5496
▁شد	-5497
▁غص	-5498
▁فٹ	-5499
▁مظ	-5500
▁نث	-5501
▁کد	-5502
▁کپ	-5503
احول	-5504
انکہ	-5505
بہار	-5506
تمام	-5507
تیاں	-5508
حتیں	-5509
خواہ	-5510
دیعت	-5511
زلوں	-5512
شتگی	-5513
شگاف	-5514
ظیفہ	-5515
فتگی	-5516
فراز	-5517
فرقہ	-5518
فہوم	-5519
قبال	-5520
ولھے	-5521
کسزم	-5522
کنان	-5523
یازۂ	-5524
یزگی	-5525
▁ابی	-5526
▁اذن	-5527
▁الا	-5528
▁الح	-5529
▁اکھ	-5530
▁اگا	-5531
▁این	-5532
▁باپ	-5533
▁برت	-5534
▁بصد	-5535
▁بصر	-5536
▁بنج	-5537
▁بٹھ	-5538
▁بہک	-5539
▁بیر	-5540
▁ترس	-5541
▁تھل	-5542
▁ثنا	-5543
▁جما	-5544
▁جوت	-5545
▁جھل	-5546
▁جھم	-5547
▁جیا	-5548
▁حاس	-5549
▁حشم	-5550
▁حلا	-5551
▁خطۂ	-5552
▁خفت	-5553
▁داب	-5554
▁دال	-5555
▁درخ	-5556
▁دوڑ	-5557
▁ذری	-5558
▁ران	-5559
▁رسی	-5560
▁رہن	-5561
▁سخی	-5562
▁سرہ	-5563
▁سپہ	-5564
▁سچا	-5565
▁شال	-5566
▁شرع	-5567
▁شیط	-5568
▁صلا	-5569
▁صلہ	-5570
▁صلے	-5571
▁صوت	-5572
▁ضعی	-5573
▁عدل	-5574
▁عصر	-5575
▁عضو	-5576
▁غسل	-5577
▁غیب	-5578
▁فاح	-5579
▁فرط	-5580
▁لاف	-5581
▁لاو	-5582
▁للہ	-5583
▁لٹک	-5584
▁لڑی	-5585
▁متن	-5586
▁مدر	-5587
▁مغب	-5588
▁مفر	-5589
▁مچا	-5590
▁میہ	-5591
▁نصی	-5592
▁نوش	-5593
▁نچو	-5594
▁نکھ	-5595
▁نیں	-5596
▁ٹکر	-5597
▁پاد	-5598
▁پام	-5599
▁پاں	-5600
▁پرخ	-5601
▁پست	-5602
▁چبھ	-5603
▁چست	-5604
▁چوں	-5605
▁چکر	-5606
▁چیر	-5607
▁ڈول	-5608
▁کاو	-5609
▁کبک	-5610
▁کشف	-5611
▁کمب	-5612
▁کنا	-5613
▁کہک	-5614
▁کیش	-5615
▁گرج	-5616
▁ہوے	-5617
▁ہٹا	-5618
اتھوں	-5619
ساروں	-5620
نچکاں	-5621
نگھرو	-5622
ڑھیاں	-5623
گاروں	-5624
▁ابلۂ	-5625
▁اجزا	-5626
▁اردو	-5627
▁ازرد	-5628
▁اسما	-5629
▁افعی	-5630
▁الست	-5631
▁الود	-5632
▁الٹا	-5633
▁امرو	-5634
▁امیز	-5635
▁اگلی	-5636
▁بجتے	-5637
▁بختی	-5638
▁بخود	-5639
▁بزدل	-5640
▁بستہ	-5641
▁بشکل	-5642
▁بشکن	-5643
▁بصیر	-5644
▁بنام	-5645
▁بننے	-5646
▁بنیں	-5647
▁بگڑے	-5648
▁بھجن	-5649
▁بھوک	-5650
▁بہتی	-5651
▁بیضۂ	-5652
▁تابی	-5653
▁تجمل	-5654
▁تحیر	-5655
▁تخیل	-5656
▁ترقی	-5657
▁تسمہ	-5658
▁تقوی	-5659
▁تمیز	-5660
▁تنکے	-5661
▁تواں	-5662
▁تولا	-5663
▁توہم	-5664
▁تکان	-5665
▁تکلم	-5666
▁تیزی	-5667
▁ثبوت	-5668
▁جذبے	-5669
▁جرعہ	-5670
▁جواز	-5671
▁جوبن	-5672
▁جویا	-5673
▁جیتی	-5674
▁حبیب	-5675
▁حدود	-5676
▁حرار	-5677
▁حریص	-5678
▁حکیم	-5679
▁خجلت	-5680
▁خراج	-5681
▁خشکی	-5682
▁خفتہ	-5683
▁دارو	-5684
▁دانۂ	-5685
▁دانی	-5686
▁داور	-5687
▁درست	-5688
▁درشن	-5689
▁درنگ	-5690
▁دلہن	-5691
▁دواں	-5692
▁دودھ	-5693
▁دویی	-5694
▁دھمک	-5695
▁دھوم	-5696
▁دہرا	-5697
▁دہشت	-5698
▁ذروں	-5699
▁ربطی	-5700
▁رتبہ	-5701
▁رخنہ	-5702
▁رستا	-5703
▁روتی	-5704
▁روکش	-5705
▁رگوں	-5706
▁رہنم	-5707
▁ریشم	-5708
▁زدوں	-5709
▁زمان	-5710
▁زہرۂ	-5711
▁ستوں	-5712
▁سجدۂ	-5713
▁سدھر	-5714
▁سرحد	-5715
▁سرشت	-5716
▁سفید	-5717
▁سمرق	-5718
▁سنبل	-5719
▁سنیے	-5720
▁سوتا	-5721
▁سونی	-5722
▁سپند	-5723
▁سپنے	-5724
▁سہتے	-5725
▁سہنے	-5726
▁سیما	-5727
▁شربت	-5728
▁شرقی	-5729
▁شریف	-5730
▁شوکت	-5731
▁شہلا	-5732
▁شیعہ	-5733
▁صانع	-5734
▁صنعت	-5735
▁طاری	-5736
▁طلوع	-5737
▁طہور	-5738
▁عروج	-5739
▁عشوہ	-5740
▁علما	-5741
▁غایب	-5742
▁غربی	-5743
▁غنیم	-5744
▁فرسا	-5745
▁قاضی	-5746
▁قراں	-5747
▁قشقہ	-5748
▁قماش	-5749
▁قیام	-5750
▁لاشہ	-5751
▁لاوں	-5752
▁لبھا	-5753
▁لحظہ	-5754
▁لوگو	-5755
▁لڑنے	-5756
▁لگاو	-5757
▁لہرا	-5758
▁لیجے	-5759
▁لیوے	-5760
▁مالک	-5761
▁ماہی	-5762
▁مبہم	-5763
▁متصل	-5764
▁محمد	-5765
▁مدفن	-5766
▁مدھم	-5767
▁مردن	-5768
▁مرید	-5769
▁مشاط	-5770
▁معاش	-5771
▁معین	-5772
▁مفلس	-5773
▁مقرر	-5774
▁ملاح	-5775
▁ملزم	-5776
▁منبر	-5777
▁منشا	-5778
▁منصف	-5779
▁منعم	-5780
▁موند	-5781
▁موہن	-5782
▁مہیا	-5783
▁مہیب	-5784
▁میسر	-5785
▁میلہ	-5786
▁مینہ	-5787
▁نادر	-5788
▁نازل	-5789
▁نامح	-5790
▁ناپا	-5791
▁نبرد	-5792
▁نسخۂ	-5793
▁نعمت	-5794
▁واشد	-5795
▁پاتی	-5796
▁پاوے	-5797
▁پتلے	-5798
▁پربت	-5799
▁پرچم	-5800
▁پستی	-5801
▁پنبۂ	-5802
▁پورے	-5803
▁پڑوں	-5804
▁پھسل	-5805
▁پھڑک	-5806
▁پیلے	-5807
▁پیما	-5808
▁چھاپ	-5809
▁چھٹک	-5810
▁چھڑا	-5811
▁چھید	-5812
▁چہرا	-5813
▁چینی	-5814
▁ڈھان	-5815
▁کاسہ	-5816
▁کالج	-5817
▁کاند	-5818
▁کرید	-5819
▁کریے	-5820
▁کوشی	-5821
▁کھوج	-5822
▁کہلا	-5823
▁کیسۂ	-5824
▁گاہی	-5825
▁گلخن	-5826
▁گنگا	-5827
▁گنگن	-5828
▁گھات	-5829
▁گھاس	-5830
▁گھسے	-5831
▁گھلے	-5832
▁گھڑے	-5833
▁ہنسے	-5834
▁ہووں	-5835
▁یکسو	-5836
اییدار	-5837
▁ابلوں	-5838
▁اشجار	-5839
▁افریں	-5840
▁الجھن	-5841
▁امادۂ	-5842
▁انگور	-5843
▁اڑانے	-5844
▁اہویے	-5845
▁ایراں	-5846
▁باریک	-5847
▁بازوں	-5848
▁بالوں	-5849
▁بالکل	-5850
▁بتاتا	-5851
▁بتایا	-5852
▁بجھنے	-5853
▁بدلتا	-5854
▁بدمست	-5855
▁برویے	-5856
▁بسایا	-5857
▁بلاتے	-5858
▁بلاوں	-5859
▁بوڑھے	-5860
▁بچھڑا	-5861
▁بڑھتی	-5862
▁بکھرے	-5863
▁بگولے	-5864
▁بھڑکا	-5865
▁بہانا	-5866
▁بہلتا	-5867
▁بیانی	-5868
▁بیٹھی	-5869
▁تباہی	-5870
▁تجاہل	-5871
▁تجدید	-5872
▁تحسین	-5873
▁تراشا	-5874
▁تعزیت	-5875
▁تعزیر	-5876
▁تفرقہ	-5877
▁تقاضے	-5878
▁تقلید	-5879
▁تلووں	-5880
▁توڑتا	-5881
▁تپیدن	-5882
▁تڑپتا	-5883
▁تڑپنا	-5884
▁تھوڑے	-5885
▁جاگنے	-5886
▁جفاوں	-5887
▁جنہوں	-5888
▁جگمگا	-5889
▁جھٹکے	-5890
▁جھڑتے	-5891
▁جھکوں	-5892
▁جھیلے	-5893
▁جیتنے	-5894
▁حاجات	-5895
▁حافظے	-5896
▁حضوری	-5897
▁خزانے	-5898
▁خوبان	-5899
▁خیریت	-5900
▁داموں	-5901
▁درمان	-5902
▁دریچہ	-5903
▁دستور	-5904
▁دفعتا	-5905
▁دلایی	-5906
▁دوانا	-5907
▁دہقاں	-5908
▁دیوتا	-5909
▁ذہانت	-5910
▁رازیؔ	-5911
▁ردایے	-5912
▁رستوں	-5913
▁رضایے	-5914
▁رقابت	-5915
▁رلانا	-5916
▁رندوں	-5917
▁رنگوں	-5918
▁روانہ	-5919
▁روٹھا	-5920
▁رویوں	-5921
▁رکھیو	-5922
▁رہگزر	-5923
▁ریحاں	-5924
▁زہراب	-5925
▁سرسبز	-5926
▁سروری	-5927
▁سفینے	-5928
▁سلسلۂ	-5929
▁سلطاں	-5930
▁سمایی	-5931
▁سناوں	-5932
▁سوراخ	-5933
▁سوچتے	-5934
▁سویرے	-5935
▁سہانا	-5936
▁سہانے	-5937
▁سیراب	-5938
▁سیمیں	-5939
▁شرارہ	-5940
▁شمایل	-5941
▁شمعوں	-5942
▁شناسی	-5943
▁شکاری	-5944
▁شکستن	-5945
▁شکلیں	-5946
▁شگفتن	-5947
▁شگفتہ	-5948
▁شگوفے	-5949
▁شیراز	-5950
▁صدیاں	-5951
▁طریقت	-5952
▁طعنوں	-5953
▁طفلان	-5954
▁ظاہرا	-5955
▁عارضی	-5956
▁عاقبت	-5957
▁عزیزو	-5958
▁عطایے	-5959
▁عقوبت	-5960
▁عمارت	-5961
▁عماری	-5962
▁عیسوی	-5963
▁غالبا	-5964
▁غربال	-5965
▁غزلیں	-5966
▁غلامی	-5967
▁فاختہ	-5968
▁فرعون	-5969
▁فرنگی	-5970
▁فسردہ	-5971
▁فقیری	-5972
▁فیصلے	-5973
▁قہقہہ	-5974
▁لڑکوں	-5975
▁ماحول	-5976
▁ماریں	-5977
▁محراب	-5978
▁مخالف	-5979
▁مخمور	-5980
▁مرثیہ	-5981
▁مردان	-5982
▁مسرور	-5983
▁معجزے	-5984
▁معدوم	-5985
▁معرکے	-5986
▁مفلسی	-5987
▁مفہوم	-5988
▁مناتا	-5989
▁مناسب	-5990
▁منتشر	-5991
▁منصور	-5992
▁موجوں	-5993
▁موزوں	-5994
▁موضوع	-5995
▁مٹاتے	-5996
▁مکرنے	-5997
▁نارنج	-5998
▁نازکی	-5999
▁ناچتے	-6000
▁نتیجہ	-6001
▁نخچیر	-6002
▁نرالے	-6003
▁نظمیں	-6004
▁نمایی	-6005
▁نوازش	-6006
▁نومید	-6007
▁نکلتا	-6008
▁نیناں	-6009
▁ودیعت	-6010
▁وظیفہ	-6011
▁ٹانکے	-6012
▁ٹوٹنے	-6013
▁ٹھکرا	-6014
▁پانیر	-6015
▁پرایا	-6016
▁پرایے	-6017
▁پرندہ	-6018
▁پریاں	-6019
▁پلایا	-6020
▁پلایے	-6021
▁پلٹنا	-6022
▁پنجاب	-6023
▁پکارو	-6024
▁پھولی	-6025
▁پیارا	-6026
▁پیامی	-6027
▁پیشوا	-6028
▁پیچاں	-6029
▁پیکار	-6030
▁پیکاں	-6031
▁چاروں	-6032
▁چرایا	-6033
▁چشموں	-6034
▁چمکتے	-6035
▁چولھے	-6036
▁چڑھنے	-6037
▁چڑیوں	-6038
▁چھانی	-6039
▁چھلکا	-6040
▁چھنتی	-6041
▁چھیڑے	-6042
▁ڈرایا	-6043
▁ڈھلنے	-6044
▁کارگر	-6045
▁کانٹا	-6046
▁کدورت	-6047
▁کردنی	-6048
▁کلیوں	-6049
▁کوندے	-6050
▁کونین	-6051
▁کھانا	-6052
▁کھنڈر	-6053
▁کھولی	-6054
▁گاروں	-6055
▁گدایے	-6056
▁گرفتہ	-6057
▁گزارا	-6058
▁گفتنی	-6059
▁گلگوں	-6060
▁گواہی	-6061
▁گھٹتے	-6062
▁گیتوں	-6063
▁ہرچند	-6064
▁ہمدمو	-6065
▁ہمسای	-6066
▁ہموار	-6067
▁ہنستا	-6068
▁ہنستی	-6069
▁ہنسنا	-6070
▁یگانہ	-6071
▁ابگینہ	-6072
▁اداییں	-6073
▁ارمغاں	-6074
▁استغنا	-6075
▁الجھتے	-6076
▁الجھنا	-6077
▁الجھنے	-6078
▁امیروں	-6079
▁انتظام	-6080
▁انتقام	-6081
▁اندازے	-6082
▁انگبیں	-6083
▁اٹھاتا	-6084
▁اڑاییں	-6085
▁اہتمام	-6086
▁بادباں	-6087
▁بازووں	-6088
▁باندھے	-6089
▁بجھانا	-6090
▁بجھاوں	-6091
▁بجھایے	-6092
▁برہانی	-6093
▁بزرگوں	-6094
▁بکھرنا	-6095
▁بھولنا	-6096
▁بیٹھنے	-6097
▁بیکراں	-6098
▁جانانہ	-6099
▁جنگلوں	-6100
▁جھمیلے	-6101
▁خاکسار	-6102
▁خراماں	-6103
▁خمیازۂ	-6104
▁خوشامد	-6105
▁دامنوں	-6106
▁دانستہ	-6107
▁دشواری	-6108
▁دعوایے	-6109
▁دلبروں	-6110
▁دورایے	-6111
▁دھندلا	-6112
▁دھندلے	-6113
▁دیکھتی	-6114
▁دیکھیو	-6115
▁راہنما	-6116
▁رستخیز	-6117
▁رندانہ	-6118
▁رونقیں	-6119
▁رہروان	-6120
▁زلزلوں	-6121
▁سازشیں	-6122
▁سامانی	-6123
▁ساکنان	-6124
▁سربستہ	-6125
▁سرفراز	-6126
▁سرنگوں	-6127
▁سلطانی	-6128
▁سلیمان	-6129
▁سلیماں	-6130
▁سمجھتی	-6131
▁سمجھوت	-6132
▁سنوارا	-6133
▁سوگندھ	-6134
▁سکھاتا	-6135
▁سکھایے	-6136
▁شاہوار	-6137
▁شعاعوں	-6138
▁شکستگی	-6139
▁شگفتگی	-6140
▁شہزادۂ	-6141
▁شہیداں	-6142
▁شیرازہ	-6143
▁عاشقوں	-6144
▁عقیدوں	-6145
▁غلاموں	-6146
▁فاصلوں	-6147
▁قربتوں	-6148
▁مانگیں	-6149
▁محبتیں	-6150
▁محفلوں	-6151
▁مشکلیں	-6152
▁مضامین	-6153
▁مضامیں	-6154
▁مناجات	-6155
▁مناییں	-6156
▁نمکداں	-6157
▁نوبہار	-6158
▁نورانی	-6159
▁نگہباں	-6160
▁نیلگوں	-6161
▁واپسیں	-6162
▁ٹھہرتی	-6163
▁ٹھہریں	-6164
▁پاتھوں	-6165
▁پاسبان	-6166
▁پرفشاں	-6167
▁پروایی	-6168
▁پیمایی	-6169
▁چراغان	-6170
▁چھلکتے	-6171
▁چھڑکیں	-6172
▁کروٹیں	-6173
▁کھلونا	-6174
▁کھولیں	-6175
▁کیجییے	-6176
▁کیونکے	-6177
▁گالیاں	-6178
▁گلدستۂ	-6179
▁گنجایش	-6180
▁گویایی	-6181
▁گھومتے	-6182
▁احتیاطا	-6183
▁اداسیوں	-6184
▁اداکاری	-6185
▁ارزوییں	-6186
▁استقبال	-6187
▁انسانیت	-6188
▁اوارگان	-6189
▁ترجمانی	-6190
▁حالانکہ	-6191
▁خونچکاں	-6192
▁درویشوں	-6193
▁دوشیزگی	-6194
▁سمجھاتا	-6195
▁سمجھاتے	-6196
▁سمجھایے	-6197
▁سنبھالا	-6198
▁سیڑھیاں	-6199
▁شکایتیں	-6200
▁طبیعتوں	-6201
▁عداوتیں	-6202
▁غایبانہ	-6203
▁مارکسزم	-6204
▁مجبوروں	-6205
▁محرمانہ	-6206
▁مسکرایے	-6207
▁میدانوں	-6208
▁ناتمامی	-6209
▁ناگہانی	-6210
▁نشانیاں	-6211
▁نیازانہ	-6212
▁وفاداری	-6213
▁پروانوں	-6214
▁پھنسایا	-6215
▁کھینچوں	-6216
▁گھنگھرو	-6217
▁اختلافوں	-6218
▁بربادیوں	-6219
▁جھلملانے	-6220
▁سنبھالتا	-6221
▁مایوسیوں	-6222
▁پرچھاییں	-6223
▁پچھتاییے	-6224
▁ہندوستاں	-6225
▁مہربانیاں	-6226
▁ناپاییدار	-6227
تر	-6228
حی	-6229
حے	-6230
رک	-6231
زد	-6232
شگ	-6233
ضد	-6234
طع	-6235
طم	-6236
قد	-6237
قر	-6238
لٹ	-6239
پی	-6240
چر	-6241
چۂ	-6242
اتم	-6243
ارش	-6244
اشا	-6245
اعت	-6246
اغب	-6247
افی	-6248
اہٹ	-6249
ایف	-6250
بوس	-6251
بون	-6252
تاو	-6253
جاج	-6254
جرہ	-6255
جوب	-6256
جور	-6257
جوں	-6258
حلۂ	-6259
خبر	-6260
درش	-6261
دمت	-6262
راع	-6263
راہ	-6264
روب	-6265
ریح	-6266
ریہ	-6267
زاز	-6268
زاع	-6269
ستر	-6270
سمۂ	-6271
شتم	-6272
شتن	-6273
شین	-6274
صول	-6275
عظہ	-6276
غنی	-6277
فتا	-6278
فلی	-6279
لان	-6280
لکی	-6281
مال	-6282
ملا	-6283
میت	-6284
نبے	-6285
نود	-6286
نچھ	-6287
ونا	-6288
ونت	-6289
پنے	-6290
چھی	-6291
کام	-6292
کری	-6293
کنا	-6294
کنت	-6295
کھی	-6296
گرد	-6297
ھلا	-6298
ہیر	-6299
ابق	-6300
ختر	-6301
زول	-6302
موس	-6303
موش	-6304
نمی	-6305
وتر	-6306
ورپ	-6307
یدے	-6308
ینی	-6309
یکل	-6310
▁اث	-6311
▁بط	-6312
▁تت	-6313
▁جڑ	-6314
▁حظ	-6315
▁شق	-6316
▁صل	-6317
▁صم	-6318
▁صی	-6319
▁طپ	-6320
▁نت	-6321
▁وک	-6322
▁گد	-6323
▁ہد	-6324
ابلہ	-6325
افات	-6326
الیف	-6327
الیہ	-6328
بارہ	-6329
بوکا	-6330
بیلے	-6331
جھلا	-6332
خانے	-6333
ختگی	-6334
دیار	-6335
راحی	-6336
راوت	-6337
زولی	-6338
سوسی	-6339
سوسے	-6340
طربو	-6341
عاقب	-6342
غماض	-6343
غموم	-6344
قوتی	-6345
لاتی	-6346
لایی	-6347
ناہی	-6348
ندھی	-6349
ندھے	-6350
نشاہ	-6351
نیدن	-6352
ودھو	-6353
ڑیاں	-6354
ڑیوں	-6355
کایک	-6356
گاہی	-6357
ھیرا	-6358
ہایے	-6359
یبار	-6360
یتیں	-6361
یدگی	-6362
یران	-6363
یرین	-6364
یلیں	-6365
یکھا	-6366
▁ارض	-6367
▁الب	-6368
▁الک	-6369
▁امڈ	-6370
▁اوڑ	-6371
▁اہم	-6372
▁بخل	-6373
▁برج	-6374
▁بضد	-6375
▁بعض	-6376
▁بلے	-6377
▁بٹا	-6378
▁بین	-6379
▁بیں	-6380
▁تتل	-6381
▁جلی	-6382
▁حسب	-6383
▁حوا	-6384
▁خجل	-6385
▁خیل	-6386
▁دما	-6387
▁دمن	-6388
▁دول	-6389
▁دوک	-6390
▁دکن	-6391
▁دہم	-6392
▁دہی	-6393
▁دیس	-6394
▁ذرۂ	-6395
▁راب	-6396
▁راج	-6397
▁رخش	-6398
▁ردی	-6399
یلت	-6400
یوب	-6401
افلو	-6402
نوان	-6403
وبین	-6404
یادت	-6405
یلوں	-6406
▁حزن	-6407
▁ختن	-6408
▁ریگ	-6409
▁زنخ	-6410
▁سطح	-6411
▁سطر	-6412
▁سمن	-6413
▁سچی	-6414
▁سہے	-6415
▁شبہ	-6416
▁شست	-6417
▁شہد	-6418
▁صاح	-6419
▁طشت	-6420
▁عفو	-6421
▁عقد	-6422
▁عور	-6423
▁غار	-6424
▁غصہ	-6425
▁غول	-6426
▁فوج	-6427
▁قند	-6428
▁لاج	-6429
▁لاہ	-6430
▁لغت	-6431
▁لنڈ	-6432
▁لیت	-6433
▁ماس	-6434
▁مجذ	-6435
▁مرم	-6436
▁مصط	-6437
▁معب	-6438
▁منج	-6439
▁مکا	-6440
▁مگس	-6441
▁میت	-6442
▁نزک	-6443
▁نسل	-6444
▁نفع	-6445
▁نمط	-6446
▁نکو	-6447
▁نیہ	-6448
▁واد	-6449
▁واے	-6450
▁ٹکا	-6451
▁ٹہل	-6452
▁پاپ	-6453
▁پرد	-6454
▁پلے	-6455
▁پوج	-6456
▁پٹک	-6457
▁پھا	-6458
▁پھٹ	-6459
▁چرب	-6460
▁چوب	-6461
▁چپک	-6462
▁چھڑ	-6463
▁ڈرے	-6464
▁ڈٹا	-6465
▁کبر	-6466
▁کسب	-6467
▁کسر	-6468
▁کشو	-6469
▁کما	-6470
▁کمز	-6471
▁کوک	-6472
▁کٹی	-6473
▁کچی	-6474
▁کڑا	-6475
▁گسل	-6476
▁گھل	-6477
▁ہری	-6478
▁ہفت	-6479
▁ہول	-6480
▁ہچک	-6481
انگیز	-6482
جھایے	-6483
رابری	-6484
لٹیکل	-6485
میایی	-6486
نوایے	-6487
ورتوں	-6488
▁اجڑا	-6489
▁اجڑی	-6490
▁ادرش	-6491
▁اذاں	-6492
▁اسیا	-6493
▁اسیب	-6494
▁اعدا	-6495
▁اعضا	-6496
▁الٹے	-6497
▁امان	-6498
▁امرا	-6499
▁امرت	-6500
▁امنگ	-6501
▁اولی	-6502
▁اٹکا	-6503
▁اچٹے	-6504
▁اڑان	-6505
▁اڑتا	-6506
▁اگتی	-6507
▁اگلا	-6508
▁ایاغ	-6509
▁ایفا	-6510
▁اینۂ	-6511
▁اییو	-6512
▁بابت	-6513
▁باجا	-6514
▁بانس	-6515
▁بجتی	-6516
▁بجھی	-6517
▁بجیں	-6518
▁بخار	-6519
▁بخیر	-6520
▁بخیۂ	-6521
▁بدعت	-6522
▁بردہ	-6523
▁برگد	-6524
▁بستن	-6525
▁بستے	-6526
▁بنوں	-6527
▁بوتل	-6528
▁بوتے	-6529
▁بوٹے	-6530
▁بچنا	-6531
▁بچنے	-6532
▁بچیں	-6533
▁بڑوں	-6534
▁بڑھی	-6535
▁بکار	-6536
▁بھور	-6537
▁بہنے	-6538
▁بہکے	-6539
▁بیچا	-6540
▁تالے	-6541
▁تتار	-6542
▁تتلی	-6543
▁تحمل	-6544
▁ترنگ	-6545
▁تغیر	-6546
▁تلسی	-6547
▁تپتے	-6548
▁تکتی	-6549
▁تکتے	-6550
▁تھمی	-6551
▁تھمے	-6552
▁جاڑے	-6553
▁جاہل	-6554
▁جلنا	-6555
▁جوان	-6556
▁جوڑا	-6557
▁جگری	-6558
▁جھجک	-6559
▁جھلس	-6560
▁جھٹک	-6561
▁جھیل	-6562
▁حاسد	-6563
▁حامی	-6564
▁حجرہ	-6565
▁حدیں	-6566
▁حقیر	-6567
▁خاتم	-6568
▁خانق	-6569
▁خایف	-6570
▁خدمت	-6571
▁خدنگ	-6572
▁خزان	-6573
▁خطرۂ	-6574
▁خطیب	-6575
▁خوان	-6576
▁خودب	-6577
▁خیام	-6578
▁خیمۂ	-6579
▁دبیز	-6580
▁دختر	-6581
▁دلاں	-6582
▁دلتے	-6583
▁دماں	-6584
▁دہاں	-6585
▁راجا	-6586
▁راغب	-6587
▁راہے	-6588
▁رباب	-6589
▁رحیل	-6590
▁رسول	-6591
▁رسوم	-6592
▁رعشہ	-6593
▁رفتۂ	-6594
▁رندی	-6595
▁رنگا	-6596
▁روزی	-6597
▁روٹی	-6598
▁روکا	-6599
▁رویی	-6600
▁رکاب	-6601
▁رکتا	-6602
▁رکتی	-6603
▁رکنا	-6604
▁رکوں	-6605
▁ریزی	-6606
▁رینگ	-6607
▁زبون	-6608
▁زشتی	-6609
▁زیان	-6610
▁زیبا	-6611
▁ساحر	-6612
▁سازش	-6613
▁سایی	-6614
▁سبحۂ	-6615
▁سبیل	-6616
▁ستار	-6617
▁ستون	-6618
▁سجود	-6619
▁سحاب	-6620
▁سرمۂ	-6621
▁سرود	-6622
▁سستے	-6623
▁سماج	-6624
▁سماع	-6625
▁سواے	-6626
▁سولی	-6627
▁سونے	-6628
▁سوچے	-6629
▁سہاگ	-6630
▁سہنا	-6631
▁سینچ	-6632
▁شتاب	-6633
▁شنود	-6634
▁شہدا	-6635
▁شہسو	-6636
▁شیون	-6637
▁صدمۂ	-6638
▁صدمے	-6639
▁صرفہ	-6640
▁ضعیف	-6641
▁طرار	-6642
▁طفلی	-6643
▁طناز	-6644
▁طیور	-6645
▁ظریف	-6646
▁عادی	-6647
▁عرصہ	-6648
▁عشوۂ	-6649
▁عطار	-6650
▁غروب	-6651
▁غلتی	-6652
▁غلطی	-6653
▁غماز	-6654
▁غمزے	-6655
▁غوطہ	-6656
▁فساں	-6657
▁قران	-6658
▁قمار	-6659
▁قومی	-6660
▁قیصر	-6661
▁لالچ	-6662
▁لانا	-6663
▁لمحۂ	-6664
▁لٹتا	-6665
▁لپٹے	-6666
▁لڑکھ	-6667
▁لہلہ	-6668
▁لیجو	-6669
▁مانو	-6670
▁مایۂ	-6671
▁مجال	-6672
▁مجکو	-6673
▁مسند	-6674
▁مشاہ	-6675
▁مشعل	-6676
▁ممتا	-6677
▁منور	-6678
▁مورت	-6679
▁موقع	-6680
▁مولو	-6681
▁مونگ	-6682
▁موڑا	-6683
▁مہوس	-6684
▁مہوش	-6685
▁میکش	-6686
▁ناچو	-6687
▁نجوم	-6688
▁نزاع	-6689
▁نزول	-6690
▁نعرۂ	-6691
▁نقطہ	-6692
▁نقوش	-6693
▁نگہی	-6694
▁نگیں	-6695
▁نیزے	-6696
▁نیچی	-6697
▁واحد	-6698
▁وارث	-6699
▁وسمۂ	-6700
▁وقفہ	-6701
▁ٹلنے	-6702
▁ٹکڑا	-6703
▁پالے	-6704
▁پتلی	-6705
▁پلٹی	-6706
▁پوجا	-6707
▁پورا	-6708
▁پڑنا	-6709
▁پڑھے	-6710
▁پکڑی	-6711
▁پھان	-6712
▁پہرا	-6713
▁پہنی	-6714
▁پیتا	-6715
▁پیتم	-6716
▁پینا	-6717
▁پیچے	-6718
▁چاول	-6719
▁چبھو	-6720
▁چبھے	-6721
▁چندے	-6722
▁چوری	-6723
▁چوسی	-6724
▁چکاں	-6725
▁چکیں	-6726
▁چھٹے	-6727
▁چیرے	-6728
▁ڈوبی	-6729
▁ڈھلا	-6730
▁کالی	-6731
▁کامی	-6732
▁کاٹا	-6733
▁کسری	-6734
▁کشود	-6735
▁کلیو	-6736
▁کمتر	-6737
▁کناں	-6738
▁کنول	-6739
▁کنوے	-6740
▁کوتہ	-6741
▁کومل	-6742
▁کپڑے	-6743
▁کڑوی	-6744
▁کھوے	-6745
▁کہوے	-6746
▁گرتی	-6747
▁گزین	-6748
▁گونہ	-6749
▁گھاٹ	-6750
▁گھرے	-6751
▁گھلا	-6752
▁گیاہ	-6753
▁گیتی	-6754
▁ہلتے	-6755
▁ہلچل	-6756
▁ہمدر	-6757
▁یورپ	-6758
ماردار	-6759
ودھویں	-6760
▁ابرام	-6761
▁اتاری	-6762
▁اترتے	-6763
▁اتریں	-6764
▁اثبات	-6765
▁احکام	-6766
▁اخلاق	-6767
▁ادایی	-6768
▁ادبوں	-6769
▁ازادہ	-6770
▁اسایش	-6771
▁استان	-6772
▁استین	-6773
▁اشوبی	-6774
▁اضارا	-6775
▁اطاعت	-6776
▁اغماض	-6777
▁افرنگ	-6778
▁افروز	-6779
▁افسوں	-6780
▁افکار	-6781
▁اقوام	-6782
▁الحاں	-6783
▁الوطن	-6784
▁الہوس	-6785
▁انبار	-6786
▁اوفتا	-6787
▁اونچے	-6788
▁اوہام	-6789
▁اٹھنے	-6790
▁اٹھوں	-6791
▁اڑاتا	-6792
▁اہمیت	-6793
▁باخبر	-6794
▁بادیہ	-6795
▁بارات	-6796
▁بارور	-6797
▁باساز	-6798
▁بانجھ	-6799
▁بانکے	-6800
▁بتلاو	-6801
▁بجھتا	-6802
▁بختوں	-6803
▁برایے	-6804
▁برتاو	-6805
▁برستے	-6806
▁برفاب	-6807
▁برملا	-6808
▁بسایے	-6809
▁بصیرت	-6810
▁بلانے	-6811
▁بنانا	-6812
▁بندھے	-6813
▁بچاوں	-6814
▁بچایے	-6815
▁بڑھنا	-6816
▁بگاڑو	-6817
▁بگولہ	-6818
▁بھالی	-6819
▁بھاگا	-6820
▁بھایی	-6821
▁بھرنے	-6822
▁بھروں	-6823
▁بھینٹ	-6824
▁بہایا	-6825
▁بہلتے	-6826
▁بیدلؔ	-6827
▁بیرون	-6828
▁بیسوا	-6829
▁بیچنے	-6830
▁تالیف	-6831
▁تحاشا	-6832
▁تحقیر	-6833
▁ترازو	-6834
▁تعاقب	-6835
▁تعداد	-6836
▁تفصیل	-6837
▁تلاطم	-6838
▁تماشے	-6839
▁تمامی	-6840
▁تمکنت	-6841
▁تمہید	-6842
▁توانی	-6843
▁توقیر	-6844
▁تونبے	-6845
▁توڑتے	-6846
▁تھمتا	-6847
▁جلووں	-6848
▁جنونی	-6849
▁جولان	-6850
▁جگاتے	-6851
▁جھجکے	-6852
▁جھپکی	-6853
▁جھکتی	-6854
▁جھکنے	-6855
▁جھکیں	-6856
▁جھیلا	-6857
▁حفاظت	-6858
▁حلاوت	-6859
▁حمایت	-6860
▁خجالت	-6861
▁خداوں	-6862
▁خلاوں	-6863
▁خمیدہ	-6864
▁خنداں	-6865
▁خوابی	-6866
▁خواہی	-6867
▁خوردہ	-6868
▁خیرات	-6869
▁دانست	-6870
▁دانوں	-6871
▁دریدہ	-6872
▁دلاسے	-6873
▁دلایے	-6874
▁دماغی	-6875
▁دکھاو	-6876
▁دکھتا	-6877
▁دھوتا	-6878
▁دھوکہ	-6879
▁دھویے	-6880
▁راگنی	-6881
▁راہزن	-6882
▁رتیاں	-6883
▁رسیلی	-6884
▁رفتگی	-6885
▁رفوگر	-6886
▁رلانے	-6887
▁رنگین	-6888
▁روزوں	-6889
▁روٹھی	-6890
▁روکنا	-6891
▁رہزنی	-6892
▁ریتوں	-6893
▁ریکھا	-6894
▁زاروں	-6895
▁زرخیز	-6896
▁زمزمۂ	-6897
▁ساختہ	-6898
▁سبھوں	-6899
▁ستانا	-6900
▁ستایا	-6901
▁سرایی	-6902
▁سربسر	-6903
▁سرسوں	-6904
▁سفارش	-6905
▁سفیدی	-6906
▁سلجھا	-6907
▁سمایے	-6908
▁سنایا	-6909
▁سنسار	-6910
▁سونپا	-6911
▁سوکھے	-6912
▁سویاں	-6913
▁سڑکوں	-6914
▁سیانی	-6915
▁سیدھے	-6916
▁سیکھی	-6917
▁شاہاں	-6918
▁شایان	-6919
▁شبانہ	-6920
▁شعاری	-6921
▁شعبدہ	-6922
▁شعروں	-6923
▁شماری	-6924
▁شنیدن	-6925
▁شکریہ	-6926
▁شیروں	-6927
▁شیطان	-6928
▁صباحت	-6929
▁صراحی	-6930
▁طاقتی	-6931
▁طراوت	-6932
▁طپیدن	-6933
▁عدویے	-6934
▁عرفان	-6935
▁عمروں	-6936
▁عناصر	-6937
▁عیادت	-6938
▁غافلو	-6939
▁غالیہ	-6940
▁فایدے	-6941
▁فدایی	-6942
▁فدایے	-6943
▁فرشتہ	-6944
▁فرشتے	-6945
▁فضیلت	-6946
▁فلسفہ	-6947
▁قبیلے	-6948
▁لبادہ	-6949
▁لبادے	-6950
▁لباسی	-6951
▁لوٹتی	-6952
▁لوٹنے	-6953
▁لٹانا	-6954
▁لڑکپن	-6955
▁لکھنے	-6956
▁لگاتی	-6957
▁لہکنا	-6958
▁ماروں	-6959
▁مافات	-6960
▁مانتے	-6961
▁محتاج	-6962
▁محجوب	-6963
▁محرمی	-6964
▁محویت	-6965
▁مختار	-6966
▁مدرسے	-6967
▁مرحلۂ	-6968
▁مرحوم	-6969
▁مستقل	-6970
▁مسنون	-6971
▁مشورہ	-6972
▁مصاحب	-6973
▁مصایب	-6974
▁مطابق	-6975
▁مطربو	-6976
▁معتوب	-6977
▁معجزہ	-6978
▁معدود	-6979
▁معراج	-6980
▁مغموم	-6981
▁مقدمہ	-6982
▁ملایا	-6983
▁ملایک	-6984
▁ملایے	-6985
▁ملبوس	-6986
▁منانا	-6987
▁منانے	-6988
▁مندوں	-6989
▁مندیل	-6990
▁منصفی	-6991
▁موجیں	-6992
▁موعظہ	-6993
▁مکتوب	-6994
▁مہجور	-6995
▁مہریں	-6996
▁مہکیں	-6997
▁میراث	-6998
▁میزان	-6999
▁ناصحا	-7000
▁ناصحو	-7001
▁نامہر	-7002
▁ناگنی	-7003
▁نسیاں	-7004
▁نغموں	-7005
▁نوردی	-7006
▁نکھار	-7007
▁نیزوں	-7008
▁نیستی	-7009
▁واسطہ	-7010
▁واللہ	-7011
▁وسوسے	-7012
▁وعدوں	-7013
▁ٹوٹتے	-7014
▁ٹپکتی	-7015
▁ٹھانی	-7016
▁ٹیڑھا	-7017
▁ٹیڑھے	-7018
▁پارسا	-7019
▁پاروں	-7020
▁پامال	-7021
▁پاییے	-7022
▁پتھرا	-7023
▁پتیاں	-7024
▁پختگی	-7025
▁پردوں	-7026
▁پروری	-7027
▁پرونے	-7028
▁پرویز	-7029
▁پرویے	-7030
▁پنکھا	-7031
▁پونچھ	-7032
▁پڑھیے	-7033
▁پکارا	-7034
▁پھروں	-7035
▁پھولو	-7036
▁پھیلی	-7037
▁پھیکی	-7038
▁پہاڑی	-7039
▁پہیلی	-7040
▁چارگی	-7041
▁چاہتی	-7042
▁چرانے	-7043
▁چلےپا	-7044
▁چمکیں	-7045
▁چڑھتا	-7046
▁چھوڑو	-7047
▁چھپاو	-7048
▁چھپتا	-7049
▁چھپتے	-7050
▁چھپیں	-7051
▁چیزوں	-7052
▁ڈبوتا	-7053
▁ڈبویا	-7054
▁ڈوبنا	-7055
▁ڈھانی	-7056
▁ڈھلتی	-7057
▁ڈھلتے	-7058
▁کافری	-7059
▁کاموں	-7060
▁کبوتر	-7061
▁کرامت	-7062
▁کرشما	-7063
▁کشتوں	-7064
▁کلیجا	-7065
▁کمبخت	-7066
▁کوتاہ	-7067
▁کوچوں	-7068
▁کوہکن	-7069
▁کٹایی	-7070
▁کھاتا	-7071
▁کھایا	-7072
▁کھلنا	-7073
▁کھولو	-7074
▁کھویی	-7075
▁کیاری	-7076
▁کیموس	-7077
▁گاییں	-7078
▁گرانے	-7079
▁گریاں	-7080
▁گزراں	-7081
▁گلیاں	-7082
▁گناہی	-7083
▁گونجی	-7084
▁گھستا	-7085
▁ہزاری	-7086
▁ہلاہل	-7087
▁ہیولی	-7088
▁یکایک	-7089
▁یکساں	-7090
▁اترایا	-7091
▁احتساب	-7092
▁اختراع	-7093
▁ارادوں	-7094
▁ازمایی	-7095
▁ازمایے	-7096
▁استانے	-7097
▁اشاروں	-7098
▁اعتدال	-7099
▁افشردن	-7100
▁الدیار	-7101
▁الفراق	-7102
▁الوداع	-7103
▁امیدوں	-7104
▁اندوزی	-7105
▁اندیشے	-7106
▁انگارا	-7107
▁اڑانوں	-7108
▁باریاب	-7109
▁بازاری	-7110
▁بانٹتے	-7111
▁بانٹنے	-7112
▁بدخشاں	-7113
▁برابری	-7114
▁براتیں	-7115
▁بعنوان	-7116
▁بٹھانے	-7117
▁بچھایے	-7118
▁بچھونا	-7119
▁بڑھاتے	-7120
▁بڑھانے	-7121
▁بھاگتے	-7122
▁بھبوکا	-7123
▁بھلانا	-7124
▁بھلایا	-7125
▁بھگوان	-7126
▁بھیگتی	-7127
▁بہلایی	-7128
▁بیباکی	-7129
▁بیڑیاں	-7130
▁تاجوری	-7131
▁تاراجی	-7132
▁تتلیاں	-7133
▁ترجماں	-7134
▁تسلیاں	-7135
▁تعلقات	-7136
▁توہمات	-7137
▁تھوکتا	-7138
▁تھوکنے	-7139
▁جاسوسی	-7140
▁جانشین	-7141
▁جبرییل	-7142
▁جلاییں	-7143
▁جوہروں	-7144
▁جویبار	-7145
▁جھانجھ	-7146
▁جھانکے	-7147
▁جھومتی	-7148
▁جھکانا	-7149
▁جھگڑتے	-7150
▁جھگڑوں	-7151
▁حادثوں	-7152
▁حریفاں	-7153
▁خاکستر	-7154
▁خودبیں	-7155
▁دانایی	-7156
▁دانتوں	-7157
▁داوانی	-7158
▁درخشاں	-7159
▁درندوں	-7160
▁دشمناں	-7161
▁دلستاں	-7162
▁دوبارہ	-7163
▁دوربیں	-7164
▁دوشالے	-7165
▁دکانوں	-7166
▁دکھانا	-7167
▁دکھاوں	-7168
▁دھوییں	-7169
▁دھڑکتے	-7170
▁دیوانۂ	-7171
▁راحتیں	-7172
▁رلاییں	-7173
▁رمضانی	-7174
▁رنجیدہ	-7175
▁روباہی	-7176
▁رہزنوں	-7177
▁زندانی	-7178
▁سدھارے	-7179
▁سرابوں	-7180
▁سوالات	-7181
▁سورجوں	-7182
▁سوندھی	-7183
▁سکندری	-7184
▁سکھایی	-7185
▁سیپیاں	-7186
▁شادماں	-7187
▁شاہانا	-7188
▁شرماتا	-7189
▁شرمندۂ	-7190
▁شعاعیں	-7191
▁شورشیں	-7192
▁شکرانہ	-7193
▁شیرازۂ	-7194
▁شیفتہؔ	-7195
▁صحبتیں	-7196
▁صہبایے	-7197
▁طوفانی	-7198
▁طولانی	-7199
▁عاشقاں	-7200
▁عذاراں	-7201
▁عزیزوں	-7202
▁عظمتیں	-7203
▁عورتوں	-7204
▁غافلوں	-7205
▁غریباں	-7206
▁غفلتوں	-7207
▁فراموش	-7208
▁فرمانا	-7209
▁فرمایی	-7210
▁فسردگی	-7211
▁قراروں	-7212
▁لبھایا	-7213
▁لٹاییں	-7214
▁لڑکیوں	-7215
▁لکیریں	-7216
▁لہرایے	-7217
▁مانگتا	-7218
▁محبوبی	-7219
▁مستغنی	-7220
▁مسجدیں	-7221
▁مسرتیں	-7222
▁مسکاہٹ	-7223
▁معزولی	-7224
▁معصومی	-7225
▁مغبچوں	-7226
▁مقابلہ	-7227
▁مندروں	-7228
▁موشگاف	-7229
▁مکافات	-7230
▁مکانوں	-7231
▁مکینوں	-7232
▁میزباں	-7233
▁ناخوشی	-7234
▁نازشیں	-7235
▁ناصحوں	-7236
▁نبھاتا	-7237
▁نبھایا	-7238
▁نفرتوں	-7239
▁نوجواں	-7240
▁نکوبین	-7241
▁نکیرین	-7242
▁نگاراں	-7243
▁نگرانی	-7244
▁نگہبان	-7245
▁نیرنگی	-7246
▁نیشکری	-7247
▁واماند	-7248
▁وفادار	-7249
▁ٹکرانا	-7250
▁پرستار	-7251
▁پرکاری	-7252
▁پشیمان	-7253
▁پنہانی	-7254
▁پھیلتا	-7255
▁پھیلتے	-7256
▁پیالوں	-7257
▁پیغارہ	-7258
▁پیچیدہ	-7259
▁چٹانوں	-7260
▁چھڑایا	-7261
▁چھڑایے	-7262
▁چھیڑوں	-7263
▁چھیڑیں	-7264
▁کاشانے	-7265
▁کلفتیں	-7266
▁کنیزیں	-7267
▁کڑھایا	-7268
▁کھاییے	-7269
▁کھلونے	-7270
▁کھودنے	-7271
▁کہکشاں	-7272
▁گردشیں	-7273
▁گزاراں	-7274
▁گزارنا	-7275
▁گنجینۂ	-7276
▁گنوایا	-7277
▁گنوایی	-7278
▁گونجتے	-7279
▁ہراساں	-7280
▁ہشیاری	-7281
▁ہمسایہ	-7282
▁ہنسایا	-7283
▁ہنگامے	-7284
▁ہچکیاں	-7285
▁یاقوتی	-7286
▁یکتایی	-7287
▁یگانوں	-7288
▁اداسیاں	-7289
▁استواری	-7290
▁استینوں	-7291
▁اسرافیل	-7292
▁اسمانوں	-7293
▁انتہایے	-7294
▁اندھیاں	-7295
▁انگلیوں	-7296
▁اوردگاں	-7297
▁بازاروں	-7298
▁بدخشانی	-7299
▁برساتوں	-7300
▁تعبیریں	-7301
▁تھرتھرا	-7302
▁جاودانی	-7303
▁جمہوریت	-7304
▁جھانکتا	-7305
▁جھنجھلا	-7306
▁جھونکوں	-7307
▁خودکامی	-7308
▁خوشبویے	-7309
▁درماندہ	-7310
▁دروازوں	-7311
▁دوکانوں	-7312
▁دکھلاوے	-7313
▁دھڑکنوں	-7314
▁راہروان	-7315
▁رفاقتوں	-7316
▁روبکاری	-7317
▁سحرگاہی	-7318
▁سرگشتگی	-7319
▁سلیمانی	-7320
▁سماعتوں	-7321
▁سمجھایا	-7322
▁سنبھلتے	-7323
▁شاہنشاہ	-7324
▁شایستگی	-7325
▁شکیبایی	-7326
▁شہنشاہی	-7327
▁فراوانی	-7328
▁فرماویں	-7329
▁قصوروار	-7330
▁لنڈھایی	-7331
▁لکھوایے	-7332
▁مسلمانی	-7333
▁مسکراتا	-7334
▁مسکرانا	-7335
▁مسیحایے	-7336
▁مومیایی	-7337
▁مہنگایی	-7338
▁نوازشیں	-7339
▁نگاہیاں	-7340
▁وابستگی	-7341
▁پشیمانی	-7342
▁پولٹیکل	-7343
▁پیمانوں	-7344
▁چمنستان	-7345
▁چودھویں	-7346
▁ڈھونڈنے	-7347
▁ڈھونڈوں	-7348
▁کھڑکیاں	-7349
▁کھینچنے	-7350
▁کھینچیے	-7351
▁گنگناوں	-7352
▁گھبرانا	-7353
▁گھبرایا	-7354
▁ہمنوایے	-7355
▁ہوشیاری	-7356
▁احتیاطوں	-7357
▁افزاییاں	-7358
▁افسردگاں	-7359
▁بھڑکاییں	-7360
▁بیتابیاں	-7361
▁تنہاییوں	-7362
▁تیماردار	-7363
▁دردانگیز	-7364
▁درماندگی	-7365
▁دیوانگاں	-7366
▁سرشاریاں	-7367
▁سمجھوتوں	-7368
▁سنبھالیں	-7369
▁ناکامیوں	-7370
▁ڈھونڈھتی	-7371
▁ڈھونڈھنے	-7372
▁گہراییاں	-7373
▁تھرتھرایے	-7374
▁مصروفیتیں	-7375
▁پرچھاییاں	-7376
عب	-7377
مگ	-7378
پٹ	-7379
اجن	-7380
ادم	-7381
اضع	-7382
اطب	-7383
انک	-7384
بتہ	-7385
برک	-7386
جاب	-7387
خند	-7388
زاد	-7389
زشت	-7390
سلے	-7391
صتی	-7392
فعل	-7393
قاد	-7394
قمے	-7395
لوص	-7396
وتی	-7397
ویذ	-7398
پیی	-7399
ریم	-7400
طری	-7401
چاو	-7402
گدا	-7403
گمگ	-7404
گنی	-7405
گین	-7406
ھرے	-7407
▁فغ	-7408
ادار	-7409
ادتا	-7410
ارنگ	-7411
الوں	-7412
الیؔ	-7413
امتی	-7414
ایقہ	-7415
بورہ	-7416
تزاز	-7417
تناب	-7418
جھیے	-7419
دوری	-7420
رکات	-7421
رینش	-7422
شگال	-7423
غتنم	-7424
قابل	-7425
لویؔ	-7426
لیات	-7427
مایے	-7428
ندتے	-7429
ندگی	-7430
ندھا	-7431
ندھن	-7432
نکتے	-7433
ویلا	-7434
چھلی	-7435
ہروں	-7436
یانے	-7437
یراؔ	-7438
یشتن	-7439
▁ابن	-7440
▁اجا	-7441
▁اذر	-7442
▁اصط	-7443
▁افع	-7444
▁امی	-7445
▁انم	-7446
▁انی	-7447
▁اکٹ	-7448
▁برپ	-7449
▁بٹو	-7450
▁بکھ	-7451
▁تحف	-7452
▁تدر	-7453
▁تفس	-7454
▁جبہ	-7455
▁جرس	-7456
▁جھٹ	-7457
▁حمد	-7458
▁خزف	-7459
▁خطہ	-7460
▁دبد	-7461
▁دقت	-7462
▁دمب	-7463
▁دوب	-7464
▁دوز	-7465
▁دیش	-7466
▁ذمہ	-7467
▁روم	-7468
▁ریخ	-7469
▁زرہ	-7470
▁زلز	-7471
▁سرک	-7472
▁سست	-7473
▁سلک	-7474
▁سوو	-7475
▁شغف	-7476
▁شمۂ	-7477
▁صعب	-7478
▁صلح	-7479
▁صوف	-7480
▁ضیا	-7481
▁طمع	-7482
▁فاق	-7483
▁فقی	-7484
▁فوت	-7485
▁فیا	-7486
▁قبل	-7487
▁قوی	-7488
▁محن	-7489
▁مرع	-7490
▁مڑا	-7491
▁مگو	-7492
▁نپٹ	-7493
▁نکش	-7494
▁وعظ	-7495
▁ٹپک	-7496
▁پاڑ	-7497
▁پای	-7498
▁پجن	-7499
اع	-7500
حض	-7501
غے	-7502
ڈی	-7503
ؔحض	-7504
اغر	-7505
رال	-7506
طنی	-7507
غبت	-7508
فسر	-7509
لگی	-7510
نگر	-7511
پار	-7512
یدۂ	-7513
اہوں	-7514
زاوں	-7515
سرال	-7516
فاتی	-7517
فادہ	-7518
وپار	-7519
ہودہ	-7520
▁ؔحض	-7521
▁ابش	-7522
▁اہن	-7523
▁بپا	-7524
▁تجس	-7525
▁دمک	-7526
▁سمے	-7527
▁نفی	-7528
▁پدر	-7529
▁چرو	-7530
▁چنا	-7531
▁ڈرو	-7532
▁ڈور	-7533
▁کات	-7534
▁کلہ	-7535
▁کوا	-7536
▁کچے	-7537
▁گتھ	-7538
▁گلن	-7539
▁گلۂ	-7540
▁گچھ	-7541
▁ہاو	-7542
▁ہدف	-7543
▁ہرے	-7544
▁ہست	-7545
▁ہلے	-7546
▁یتی	-7547
▁یوم	-7548
برویی	-7549
نگونی	-7550
ورایے	-7551
وسیوں	-7552
پتیاں	-7553
گسستہ	-7554
یسویں	-7555
▁اتفا	-7556
▁اردی	-7557
▁استہ	-7558
▁اسپن	-7559
▁افتخ	-7560
▁انگے	-7561
▁اودا	-7562
▁اپری	-7563
▁اکتا	-7564
▁اینٹ	-7565
▁بانگ	-7566
▁بجول	-7567
▁بحال	-7568
▁برجا	-7569
▁برحق	-7570
▁بردا	-7571
▁برزخ	-7572
▁برشک	-7573
▁بساو	-7574
▁بعید	-7575
▁بندش	-7576
▁بورا	-7577
▁بونے	-7578
▁بوٹا	-7579
▁بھاو	-7580
▁بہرح	-7581
▁بیتا	-7582
▁بیدا	-7583
▁بیرا	-7584
▁بیکس	-7585
▁تالو	-7586
▁تاکہ	-7587
▁تاکے	-7588
▁تایب	-7589
▁تبرک	-7590
▁تجسس	-7591
▁تحفہ	-7592
▁تحفۂ	-7593
▁تخفی	-7594
▁تدرو	-7595
▁تصوف	-7596
▁تفتہ	-7597
▁تفتی	-7598
▁تندی	-7599
بح	-7600
تع	-7601
طے	-7602
یق	-7603
ریت	-7604
قتا	-7605
موں	-7606
▁بش	-7607
▁طغ	-7608
وروں	-7609
▁اپن	-7610
▁جوڑ	-7611
▁ذبح	-7612
▁فام	-7613
▁فیک	-7614
▁لام	-7615
▁محم	-7616
▁منو	-7617
▁نہر	-7618
▁ڈبا	-7619
▁ڈیر	-7620
▁گرو	-7621
نکارا	-7622
▁بٹاو	-7623
▁بہرا	-7624
▁تمتع	-7625
▁تمہی	-7626
▁تنتی	-7627
▁تھکے	-7628
▁جبھی	-7629
▁جزیر	-7630
▁جلوں	-7631
▁جوشؔ	-7632
▁جویں	-7633
▁جگمگ	-7634
▁جھاڑ	-7635
▁جھین	-7636
▁حصول	-7637
▁حمزہ	-7638
▁حیلے	-7639
▁خطبۂ	-7640
▁خلیل	-7641
▁خورس	-7642
▁خووں	-7643
▁خیزی	-7644
▁داخل	-7645
▁دادۂ	-7646
▁دران	-7647
▁دردی	-7648
▁دشنۂ	-7649
▁دشنے	-7650
▁دعوے	-7651
▁دلال	-7652
▁دلفر	-7653
▁دوار	-7654
▁دورے	-7655
▁دھبے	-7656
▁دھجی	-7657
▁ذاتی	-7658
▁رازی	-7659
▁ردیف	-7660
▁رسیا	-7661
▁رشکی	-7662
▁رغبت	-7663
▁رواج	-7664
▁رچاو	-7665
▁ریشۂ	-7666
▁ریشے	-7667
▁ریلا	-7668
▁زیور	-7669
▁سالک	-7670
▁ساکت	-7671
▁سبزے	-7672
▁سران	-7673
▁سفال	-7674
▁سمند	-7675
▁سمیٹ	-7676
▁سوجھ	-7677
▁سپاہ	-7678
▁سپیت	-7679
▁سکھی	-7680
▁سکیے	-7681
▁سہوں	-7682
▁شبیہ	-7683
▁شمیم	-7684
▁شگاف	-7685
▁شہپر	-7686
▁صدمہ	-7687
▁صفحے	-7688
▁صفیر	-7689
▁صیقل	-7690
▁طعنۂ	-7691
▁طلعت	-7692
▁عاری	-7693
▁عدیم	-7694
▁عقیق	-7695
▁علیؔ	-7696
▁عوام	-7697
▁غازہ	-7698
▁غیبت	-7699
وص	-7700
راط	-7701
سکا	-7702
نڈی	-7703
نہی	-7704
▁قح	-7705
ارگی	-7706
اندے	-7707
باری	-7708
زمیں	-7709
غمبر	-7710
قاتی	-7711
موری	-7712
وصیت	-7713
گروں	-7714
▁بیق	-7715
▁ترح	-7716
▁رتج	-7717
▁شدہ	-7718
▁قحط	-7719
▁مذک	-7720
▁ورو	-7721
▁چنے	-7722
▁کجی	-7723
ھارنا	-7724
▁الات	-7725
▁ترحم	-7726
▁تھوک	-7727
▁دونا	-7728
▁دونی	-7729
▁رتیں	-7730
▁زایل	-7731
▁زحال	-7732
▁ساجن	-7733
▁سجتے	-7734
▁طعام	-7735
▁غیور	-7736
▁فاحش	-7737
▁فرحت	-7738
▁فرقے	-7739
▁فروز	-7740
▁فروع	-7741
▁فرید	-7742
▁فزوں	-7743
▁فساد	-7744
▁فشار	-7745
▁فصاد	-7746
▁فضلا	-7747
▁فغان	-7748
▁فقیہ	-7749
▁فوقی	-7750
▁قادر	-7751
▁قانع	-7752
▁قدسی	-7753
▁قدیم	-7754
▁قسام	-7755
▁قیدی	-7756
▁لاحق	-7757
▁لاشے	-7758
▁لاغر	-7759
▁لرزے	-7760
▁لقمے	-7761
▁لٹتے	-7762
▁لٹنے	-7763
▁لپٹا	-7764
▁لپکا	-7765
▁لڑتی	-7766
▁لڑکے	-7767
▁لڑیے	-7768
▁لکیر	-7769
▁لیوا	-7770
▁مالی	-7771
▁ماوں	-7772
▁ماہر	-7773
▁مایک	-7774
▁مباد	-7775
▁مبیں	-7776
▁محلے	-7777
▁محور	-7778
▁مخزن	-7779
▁مرتی	-7780
▁مرجھ	-7781
▁مسلط	-7782
▁مسلک	-7783
▁مسکن	-7784
▁مشفق	-7785
▁مشقت	-7786
▁مضطر	-7787
▁مظہر	-7788
▁معما	-7789
▁معمہ	-7790
▁معمے	-7791
▁مقطع	-7792
▁ملوک	-7793
▁منجم	-7794
▁مٹیں	-7795
▁مہمل	-7796
▁میان	-7797
▁ناشک	-7798
▁ناطہ	-7799
بھ	-7800
مو	-7801
ارف	-7802
ایۂ	-7803
تیا	-7804
حات	-7805
رین	-7806
قار	-7807
قوں	-7808
لوا	-7809
ناں	-7810
وںؔ	-7811
▁جذ	-7812
▁لت	-7813
▁وز	-7814
▁یم	-7815
موعۂ	-7816
وتنی	-7817
▁الس	-7818
▁بہے	-7819
▁تول	-7820
▁خرچ	-7821
▁دیپ	-7822
▁رای	-7823
▁سرچ	-7824
▁صدر	-7825
▁نان	-7826
▁نزہ	-7827
▁نشر	-7828
▁کاگ	-7829
▁کوش	-7830
▁ہوک	-7831
▁التہ	-7832
▁بخدا	-7833
▁بہری	-7834
▁بہمن	-7835
▁بیلی	-7836
▁تھما	-7837
▁جاگہ	-7838
▁جذبہ	-7839
▁جھپک	-7840
▁حقوق	-7841
▁رلوا	-7842
▁سمٹا	-7843
▁سینا	-7844
▁شیرہ	-7845
▁فقرا	-7846
▁لوبھ	-7847
▁مٹیا	-7848
▁میلی	-7849
▁ناعا	-7850
▁ناپے	-7851
▁ناگن	-7852
▁نایا	-7853
▁نایے	-7854
▁نبود	-7855
▁نتھر	-7856
▁نزہت	-7857
▁نصاب	-7858
▁نقاش	-7859
▁نقطۂ	-7860
▁ننگے	-7861
▁نورس	-7862
▁نوشت	-7863
▁نچوڑ	-7864
▁نکات	-7865
▁نہنگ	-7866
▁نیچا	-7867
▁ورزش	-7868
▁ورطۂ	-7869
▁وسیع	-7870
▁وعدا	-7871
▁ٹالے	-7872
▁ٹلتی	-7873
▁ٹلتے	-7874
▁ٹوپی	-7875
▁ٹوکا	-7876
▁ٹوکے	-7877
▁ٹھیس	-7878
▁ٹہنی	-7879
▁ٹیچر	-7880
▁پارے	-7881
▁پسپا	-7882
▁پوست	-7883
▁پوشش	-7884
▁پھاڑ	-7885
▁پھرو	-7886
▁پھلا	-7887
▁پھڑا	-7888
▁پہنا	-7889
▁پیتل	-7890
▁پیسا	-7891
▁پییں	-7892
▁چرکے	-7893
▁چناب	-7894
▁چنتے	-7895
▁چندر	-7896
▁چنگا	-7897
▁چونچ	-7898
▁چڑھے	-7899
بس	-7900
دد	-7901
اکب	-7902
شمے	-7903
فتۂ	-7904
لات	-7905
ناس	-7906
ییس	-7907
▁عل	-7908
▁قے	-7909
▁نن	-7910
▁یخ	-7911
اللہ	-7912
اہاں	-7913
باتی	-7914
مروز	-7915
ییوں	-7916
▁الر	-7917
▁تات	-7918
▁جہل	-7919
▁خوا	-7920
▁دفی	-7921
▁دھج	-7922
▁سہج	-7923
▁طرہ	-7924
▁عاص	-7925
▁لیس	-7926
▁موا	-7927
▁موں	-7928
اریاں	-7929
▁اترو	-7930
▁ادھا	-7931
▁اینا	-7932
▁بسوے	-7933
▁بنجر	-7934
▁تردد	-7935
▁تعین	-7936
▁توان	-7937
▁رییس	-7938
▁شامی	-7939
▁شانا	-7940
▁ظرفی	-7941
▁عقدے	-7942
▁فرات	-7943
▁مایہ	-7944
▁مہرہ	-7945
▁چگوں	-7946
▁چھال	-7947
▁چھپی	-7948
▁چیتا	-7949
▁ڈرتی	-7950
▁ڈرنے	-7951
▁ڈگمگ	-7952
▁ڈیرا	-7953
▁کاتب	-7954
▁کارہ	-7955
▁کاشف	-7956
▁کالر	-7957
▁کتبے	-7958
▁کراہ	-7959
▁کردۂ	-7960
▁کرشہ	-7961
▁کروۂ	-7962
▁کرکے	-7963
▁کساد	-7964
▁کشتن	-7965
▁کفیل	-7966
▁کلاں	-7967
▁کلمہ	-7968
▁کوری	-7969
▁کوشک	-7970
▁کوند	-7971
▁کوکو	-7972
▁کویل	-7973
▁کپاس	-7974
▁کھری	-7975
▁کھوٹ	-7976
▁کہرہ	-7977
▁کہنی	-7978
▁کیسہ	-7979
▁گاری	-7980
▁گانے	-7981
▁گتھی	-7982
▁گرتا	-7983
▁گرنی	-7984
▁گریں	-7985
▁گریے	-7986
▁گزند	-7987
▁گلتا	-7988
▁گنیے	-7989
▁گودڑ	-7990
▁گوشت	-7991
▁گولی	-7992
▁گھرا	-7993
▁گھٹن	-7994
▁گھڑا	-7995
▁گھیر	-7996
▁گہاں	-7997
▁گہری	-7998
▁گیلی	-7999
سرت	-8000
عین	-8001
▁ذل	-8002
اییؔ	-8003
لکتے	-8004
کارا	-8005
▁ارت	-8006
▁اوک	-8007
▁ایز	-8008
▁بدگ	-8009
▁دسم	-8010
▁زمی	-8011
▁عاج	-8012
▁لای	-8013
▁معق	-8014
▁مکن	-8015
▁نسب	-8016
▁کھپ	-8017
▁گول	-8018
▁گوٹ	-8019
▁اشفت	-8020
▁اوتے	-8021
▁بالی	-8022
▁بدری	-8023
▁بوچھ	-8024
▁بویی	-8025
▁خداو	-8026
▁سنیا	-8027
▁سیتا	-8028
▁شیلف	-8029
▁عسرت	-8030
▁عشوے	-8031
▁علیہ	-8032
▁عیوب	-8033
▁قرعۂ	-8034
▁لیلا	-8035
▁مردہ	-8036
▁منتر	-8037
▁نااش	-8038
▁ناوں	-8039
▁نرمی	-8040
▁وارے	-8041
▁پارا	-8042
▁پیوں	-8043
▁چاکی	-8044
▁چہار	-8045
▁کنکر	-8046
▁گاتی	-8047
▁گروہ	-8048
▁گھول	-8049
▁ہالے	-8050
▁ہراس	-8051
▁ہشتم	-8052
▁ہلکی	-8053
▁ہودہ	-8054
▁ہٹتی	-8055
▁ہٹنے	-8056
▁یادش	-8057
▁یمنی	-8058
ساییگی	-8059
▁ؔحضرت	-8060
▁ابروں	-8061
▁ابلتے	-8062
▁ابلنا	-8063
▁ابلیس	-8064
▁ابھری	-8065
▁ابہام	-8066
▁اتارا	-8067
▁اتارے	-8068
▁اجابت	-8069
▁اجاڑا	-8070
▁احزاں	-8071
▁ادمیت	-8072
▁ادھیڑ	-8073
▁ارادت	-8074
▁اساری	-8075
▁اسماع	-8076
▁اشارت	-8077
▁اشامی	-8078
▁اصنام	-8079
▁اعمال	-8080
▁اغوشی	-8081
▁افعال	-8082
▁اقلیم	-8083
▁البتہ	-8084
▁البحر	-8085
▁الموت	-8086
▁الودۂ	-8087
▁امتزا	-8088
▁امروز	-8089
▁امیری	-8090
▁انمول	-8091
▁انوار	-8092
▁انچیں	-8093
▁انگار	-8094
▁اوصاف	-8095
▁اپاسی	-8096
▁اچانک	-8097
▁اکٹھا	-8098
▁اگاتا	-8099
منڈ	-8100
مکا	-8101
نوس	-8102
ھیل	-8103
▁رچ	-8104
اشیں	-8105
بازی	-8106
جران	-8107
دابی	-8108
طروں	-8109
نوشت	-8110
یابی	-8111
▁اشا	-8112
▁بکا	-8113
▁تیش	-8114
▁شیب	-8115
▁فصد	-8116
▁یمن	-8117
اندان	-8118
مکایا	-8119
▁ادبی	-8120
▁بندا	-8121
▁تیشہ	-8122
▁جادے	-8123
▁حدوں	-8124
▁ساون	-8125
▁سرزد	-8126
▁سناو	-8127
▁ضدوں	-8128
▁فقری	-8129
▁لااب	-8130
▁مرمر	-8131
▁معطر	-8132
▁ملاپ	-8133
▁نخوت	-8134
▁پڑنے	-8135
▁چشمک	-8136
▁چشمے	-8137
▁چلوں	-8138
▁چڑیا	-8139
▁ڈھیل	-8140
▁کتاں	-8141
▁کوبی	-8142
▁کھچے	-8143
▁گانا	-8144
▁ابادی	-8145
▁ارادۂ	-8146
▁اگلتی	-8147
▁اگلتے	-8148
▁ایزاد	-8149
▁ایندہ	-8150
▁ایوان	-8151
▁باتاں	-8152
▁باختہ	-8153
▁باران	-8154
▁بانبی	-8155
▁بانہہ	-8156
▁بتایی	-8157
▁بخشیں	-8158
▁بدایت	-8159
▁بددور	-8160
▁بدناں	-8161
▁برتنا	-8162
▁برتوں	-8163
▁برستا	-8164
▁برسنے	-8165
▁برقعہ	-8166
▁برپنج	-8167
▁بریدہ	-8168
▁بسیرے	-8169
▁بقایے	-8170
▁بندوب	-8171
▁بندھا	-8172
▁بولتے	-8173
▁بچپنے	-8174
▁بڑھاو	-8175
▁بکھیر	-8176
▁بگولا	-8177
▁بھولو	-8178
▁بھوکے	-8179
▁بھویں	-8180
▁بھٹکے	-8181
▁بھیجا	-8182
▁بہادر	-8183
▁بہایی	-8184
▁بہزاد	-8185
▁بہشتی	-8186
▁بیتیں	-8187
▁بیجوں	-8188
▁بیروں	-8189
▁بیلچے	-8190
▁بیچتا	-8191
▁تاباں	-8192
▁تاتار	-8193
▁تانگے	-8194
▁تبریز	-8195
▁تحریک	-8196
▁تخفیف	-8197
▁تذلیل	-8198
▁تراشے	-8199
باش	-8200
روت	-8201
شکن	-8202
لبۂ	-8203
نگا	-8204
کمی	-8205
یبا	-8206
دگار	-8207
سکار	-8208
وارہ	-8209
▁بہی	-8210
▁جلن	-8211
▁جگت	-8212
▁جھڑ	-8213
▁ماب	-8214
▁نون	-8215
▁پال	-8216
▁کشک	-8217
▁گمر	-8218
سایٹی	-8219
▁ادنی	-8220
▁اکاش	-8221
▁بتان	-8222
▁برسے	-8223
▁بودا	-8224
▁تلتا	-8225
▁ثروت	-8226
▁جلسے	-8227
▁جوگی	-8228
▁حسود	-8229
▁خاکہ	-8230
▁درود	-8231
▁روزے	-8232
▁ساعد	-8233
▁مرغا	-8234
▁منگا	-8235
▁مواف	-8236
▁موٹا	-8237
▁پرکھ	-8238
▁کاسے	-8239
▁کشان	-8240
▁کلبۂ	-8241
▁گاتے	-8242
▁گران	-8243
▁ابتری	-8244
▁ایتیں	-8245
▁بادام	-8246
▁بتانا	-8247
▁بدلیں	-8248
▁بچارا	-8249
▁بھرتی	-8250
▁ترانے	-8251
▁تشریح	-8252
▁تشہیر	-8253
▁تعارف	-8254
▁تعویذ	-8255
▁تفتیش	-8256
▁تفسیر	-8257
▁تقسیم	-8258
▁تلقین	-8259
▁تمثیل	-8260
▁تواضع	-8261
▁توتیا	-8262
▁تپیدہ	-8263
▁تڑپتے	-8264
▁تڑپنے	-8265
▁تکریم	-8266
▁تیوری	-8267
▁ثباتی	-8268
▁جاسوس	-8269
▁جاموں	-8270
▁جاننے	-8271
▁جانور	-8272
▁جاوگے	-8273
▁جذبوں	-8274
▁جفایے	-8275
▁جلاتی	-8276
▁جلالی	-8277
▁جلانی	-8278
▁جمانے	-8279
▁جمشید	-8280
▁جنسوں	-8281
▁جواری	-8282
▁جوالہ	-8283
▁جوہری	-8284
▁جھانک	-8285
▁جھلنے	-8286
▁جھولے	-8287
▁جھٹلا	-8288
▁جھکیے	-8289
▁حجازی	-8290
▁حرارت	-8291
▁حقایق	-8292
▁حمایل	-8293
▁حواسی	-8294
▁حوالے	-8295
▁حویلی	-8296
▁حیوان	-8297
▁خاطری	-8298
▁خبریں	-8299
وٹو	-8300
بونی	-8301
خانۂ	-8302
ندار	-8303
گیری	-8304
▁بٹے	-8305
▁زنو	-8306
▁سجی	-8307
▁شرب	-8308
▁شرف	-8309
▁عرب	-8310
▁قرط	-8311
▁ورد	-8312
▁گشت	-8313
▁ہٹی	-8314
▁یاب	-8315
▁انجن	-8316
▁بچتی	-8317
▁جامے	-8318
▁جمنا	-8319
▁جنتر	-8320
▁حرمت	-8321
▁خامی	-8322
▁خطاں	-8323
▁خوگر	-8324
▁خویی	-8325
▁دوڑا	-8326
▁دھان	-8327
▁دیبا	-8328
▁سروش	-8329
▁سلتے	-8330
▁سلجھ	-8331
▁سپید	-8332
▁شدید	-8333
▁شریر	-8334
▁ضدیں	-8335
▁طیار	-8336
▁غرقۂ	-8337
▁فوٹو	-8338
▁مسوں	-8339
▁نیلے	-8340
▁پیرا	-8341
▁ڈریں	-8342
▁ہارا	-8343
▁اسودہ	-8344
▁امیدی	-8345
▁اوسان	-8346
▁بتاتی	-8347
▁بسیار	-8348
▁بلایا	-8349
▁بچارے	-8350
▁تراوش	-8351
▁ترستی	-8352
▁جاداد	-8353
▁خاروں	-8354
▁خجستہ	-8355
▁خرابو	-8356
▁خزاوں	-8357
▁خطاوں	-8358
▁خماری	-8359
▁خمیدن	-8360
▁خوراک	-8361
▁خوردن	-8362
▁خوشتر	-8363
▁خوناب	-8364
▁خیانت	-8365
▁دالان	-8366
▁دبایے	-8367
▁دبدبۂ	-8368
▁درونہ	-8369
▁دریغا	-8370
▁دسمبر	-8371
▁دفینہ	-8372
▁دلاتے	-8373
▁دلایا	-8374
▁دمادم	-8375
▁دمبدم	-8376
▁دوران	-8377
▁دوشیں	-8378
▁دوڑتے	-8379
▁دوہری	-8380
▁دویدن	-8381
▁دکھتی	-8382
▁دھانی	-8383
▁دھڑکے	-8384
▁دہناں	-8385
▁دیجیو	-8386
▁دیویں	-8387
▁ذلتیں	-8388
▁رابطہ	-8389
▁راستا	-8390
▁رتجگا	-8391
▁رحمان	-8392
▁رخنوں	-8393
▁رسمیں	-8394
▁رعونت	-8395
▁رلایے	-8396
▁رمضاں	-8397
▁روایت	-8398
▁روحوں	-8399
ظلم	-8400
▁دغ	-8401
ونما	-8402
▁سقر	-8403
▁صاد	-8404
▁صلۂ	-8405
▁نعل	-8406
▁پسر	-8407
جھواں	-8408
▁ارنہ	-8409
▁اودے	-8410
▁بالے	-8411
▁بخیے	-8412
▁ترکش	-8413
▁توکل	-8414
▁تہوں	-8415
▁تہیں	-8416
▁دلجو	-8417
▁رویہ	-8418
▁رکیے	-8419
▁زیاد	-8420
▁سمٹے	-8421
▁شاطر	-8422
▁شانۂ	-8423
▁ششدر	-8424
▁شہود	-8425
▁طویل	-8426
▁عقاب	-8427
▁قافل	-8428
▁لپٹی	-8429
▁لیٹے	-8430
▁مصری	-8431
▁منظم	-8432
▁پلنگ	-8433
▁چھدے	-8434
▁چیرا	-8435
▁کاشی	-8436
▁کترا	-8437
▁کنشت	-8438
▁کینہ	-8439
▁یہود	-8440
مانیاں	-8441
▁اوازے	-8442
▁اینوں	-8443
▁بادشہ	-8444
▁بوجھا	-8445
▁تحقیق	-8446
▁ترکیب	-8447
▁جزیرے	-8448
▁حقیقی	-8449
▁داراب	-8450
▁رنگتے	-8451
▁روندی	-8452
▁رونقی	-8453
▁روٹھے	-8454
▁روییے	-8455
▁رگڑتے	-8456
▁ریاضی	-8457
▁ریایی	-8458
▁ریختے	-8459
▁ریزوں	-8460
▁زادوں	-8461
▁زبونی	-8462
▁زدگان	-8463
▁زلزلہ	-8464
▁زمزمہ	-8465
▁ساحرؔ	-8466
▁سادات	-8467
▁سادھے	-8468
▁سازوں	-8469
▁ستارۂ	-8470
▁ستانے	-8471
▁ستایی	-8472
▁ستمگر	-8473
▁سجاوں	-8474
▁سجایی	-8475
▁سجایے	-8476
▁سخاوت	-8477
▁سرخاب	-8478
▁سرشتہ	-8479
▁سسرال	-8480
▁سلامی	-8481
▁سماتے	-8482
▁سمانا	-8483
▁سناتا	-8484
▁سنگار	-8485
▁سنگیت	-8486
▁سنگیں	-8487
▁سونپی	-8488
▁سوکھی	-8489
▁سویرا	-8490
▁سپاری	-8491
▁سپنوں	-8492
▁سچایی	-8493
▁شاموں	-8494
▁شانوں	-8495
▁شاگرد	-8496
▁شبنمی	-8497
▁شرابہ	-8498
▁شعلگی	-8499
▁ناول	-8500
▁چٹان	-8501
▁کوزہ	-8502
▁شقایق	-8503
▁شمشاد	-8504
▁شکیبا	-8505
▁صبحیں	-8506
▁صبروں	-8507
▁صحافت	-8508
▁صحافی	-8509
▁صدمات	-8510
▁ضمیری	-8511
▁طایرک	-8512
▁طبعوں	-8513
▁طلبوں	-8514
▁عاجزی	-8515
▁عادتا	-8516
▁عصراں	-8517
▁عطارؔ	-8518
▁عطاوں	-8519
▁عقیدہ	-8520
▁عقیدے	-8521
▁علامت	-8522
▁علویؔ	-8523
▁غریبی	-8524
▁غزلوں	-8525
▁فاحشہ	-8526
▁فتراک	-8527
▁فرزند	-8528
▁فرشتۂ	-8529
▁فرصتی	-8530
▁فرمان	-8531
▁فرماں	-8532
▁فضایے	-8533
▁فلسفی	-8534
▁فنایے	-8535
▁فوقیت	-8536
▁فیاضی	-8537
▁فیضان	-8538
▁فیکوں	-8539
▁قاشیں	-8540
▁قافیے	-8541
▁قامتی	-8542
▁قصیدہ	-8543
▁قطروں	-8544
▁قفایے	-8545
▁قندیل	-8546
▁قومیں	-8547
▁لاشیں	-8548
▁لاہور	-8549
▁لاییے	-8550
▁لذتوں	-8551
▁لذتیں	-8552
▁لرزتا	-8553
▁لرزتی	-8554
▁لرزنے	-8555
▁لغزشت	-8556
▁لٹانے	-8557
▁لڑانا	-8558
▁لڑایے	-8559
▁لگاتا	-8560
▁لگاوں	-8561
▁لگتیں	-8562
▁لہریں	-8563
▁لیالی	-8564
▁ماریے	-8565
▁مانوں	-8566
▁مایکے	-8567
▁مجذوب	-8568
▁محبوس	-8569
▁محتاط	-8570
▁محترم	-8571
▁محمود	-8572
▁محکوم	-8573
▁مخاطب	-8574
▁مذکور	-8575
▁مرحلے	-8576
▁مرعوب	-8577
▁مرغان	-8578
▁مرغوب	-8579
▁مساوی	-8580
▁مسایل	-8581
▁مستاں	-8582
▁مستحق	-8583
▁مستعد	-8584
▁مسجود	-8585
▁مسیحی	-8586
▁مشتری	-8587
▁مشتمل	-8588
▁مشغلہ	-8589
▁مشغلے	-8590
▁مصطبہ	-8591
▁مصلوب	-8592
▁مصوری	-8593
▁مضمحل	-8594
▁مطلوب	-8595
▁مظلوم	-8596
▁معتقد	-8597
▁معقول	-8598
▁معمار	-8599
▁مغانہ	-8600
▁مغتنم	-8601
▁مغفرت	-8602
▁مغلوب	-8603
▁مقبول	-8604
▁ملانا	-8605
▁ملتیں	-8606
▁ملکیت	-8607
▁ممتاز	-8608
▁مناظر	-8609
▁منایا	-8610
▁منتہی	-8611
▁منفعل	-8612
▁مورچے	-8613
▁مولوی	-8614
▁مومنؔ	-8615
▁مٹانے	-8616
▁مٹایے	-8617
▁مچلتی	-8618
▁مچلنا	-8619
▁مچھلی	-8620
▁مکرمی	-8621
▁مہاجن	-8622
▁مہروش	-8623
▁مہکتے	-8624
▁مہینہ	-8625
▁میرزا	-8626
▁میلوں	-8627
▁میٹھی	-8628
▁میٹھے	-8629
▁میکدہ	-8630
▁میگوں	-8631
▁ناصیہ	-8632
▁نامور	-8633
▁نایاب	-8634
▁نثاری	-8635
▁ندادہ	-8636
▁ندیوں	-8637
▁نرالی	-8638
▁نسرین	-8639
▁نشانا	-8640
▁نصیبی	-8641
▁نصیحت	-8642
▁نفسوں	-8643
▁نقارے	-8644
▁نوشتۂ	-8645
▁نچوڑی	-8646
▁نکالی	-8647
▁نکلوں	-8648
▁نہادہ	-8649
▁نہایے	-8650
▁واہمہ	-8651
▁وحشتؔ	-8652
▁وفاوں	-8653
▁وقتوں	-8654
▁ولولہ	-8655
▁وکالت	-8656
▁ٹالتا	-8657
▁ٹوٹتی	-8658
▁ٹوٹکے	-8659
▁ٹپکنے	-8660
▁ٹپکیں	-8661
▁ٹھہرو	-8662
▁پایان	-8663
▁پتنگے	-8664
▁پجاتی	-8665
▁پرتوے	-8666
▁پردیس	-8667
▁پرشکن	-8668
▁پریدہ	-8669
▁پلانا	-8670
▁پلٹتے	-8671
▁پوجتا	-8672
▁پڑھوں	-8673
▁پڑھیں	-8674
▁پکڑنے	-8675
▁پگھلا	-8676
▁پگھلی	-8677
▁پھریں	-8678
▁پھلنا	-8679
▁پھولا	-8680
▁پھوڑا	-8681
▁پھڑکے	-8682
▁پھیرا	-8683
▁پھیرو	-8684
▁پھیری	-8685
▁پھیکا	-8686
▁پیشگی	-8687
▁پیمبر	-8688
▁پیٹنے	-8689
▁پیٹوں	-8690
▁پیچاک	-8691
▁پیچھا	-8692
▁چالوں	-8693
▁چالیں	-8694
▁چبھتا	-8695
▁چرایی	-8696
▁چمپیی	-8697
▁چمکنے	-8698
▁چواتے	-8699
▁چونکے	-8700
▁چوٹٹے	-8701
▁چوٹیں	-8702
▁چوکنا	-8703
▁چٹکتا	-8704
▁چٹکنا	-8705
▁چکایا	-8706
▁چھانٹ	-8707
▁چھاچھ	-8708
▁چھایا	-8709
▁چھتیں	-8710
▁چھلتے	-8711
▁چھلکے	-8712
▁چھونا	-8713
▁چھٹنے	-8714
▁چھٹکے	-8715
▁چھڑتے	-8716
▁چھڑکے	-8717
▁چھینے	-8718
▁چھیڑی	-8719
▁چیختا	-8720
▁چیزیں	-8721
▁چیناں	-8722
▁ڈالنا	-8723
▁ڈالوں	-8724
▁ڈبایا	-8725
▁ڈراتا	-8726
▁ڈھاتا	-8727
▁ڈھالا	-8728
▁کاغذی	-8729
▁کافور	-8730
▁کاٹنے	-8731
▁کاٹوں	-8732
▁کاٹیں	-8733
▁کبیدہ	-8734
▁کترتا	-8735
▁کرایی	-8736
▁کرچیں	-8737
▁کسیلی	-8738
▁کشادن	-8739
▁کشایی	-8740
▁کشتنی	-8741
▁کشمیر	-8742
▁کشکول	-8743
▁کشیدہ	-8744
▁کلاہی	-8745
▁کلکتے	-8746
▁کنارا	-8747
▁کناری	-8748
▁کنایہ	-8749
▁کواکب	-8750
▁کوباں	-8751
▁کوستے	-8752
▁کوکبۂ	-8753
▁کٹاری	-8754
▁کٹہرے	-8755
▁کھاتی	-8756
▁کھسکا	-8757
▁کھونا	-8758
▁کھیلے	-8759
▁کھیون	-8760
▁کہرام	-8761
▁کہویں	-8762
▁کینوس	-8763
▁گاہیں	-8764
▁گبروں	-8765
▁گداوں	-8766
▁گدگدا	-8767
▁گردان	-8768
▁گرمیی	-8769
▁گزارش	-8770
▁گزارو	-8771
▁گزشتہ	-8772
▁گساری	-8773
▁گلنار	-8774
▁گمراہ	-8775
▁گمنام	-8776
▁گنجفہ	-8777
▁گوشوں	-8778
▁گوناں	-8779
▁گونگی	-8780
▁گویاں	-8781
▁گویوں	-8782
▁گھاٹا	-8783
▁گھستے	-8784
▁گھمنڈ	-8785
▁گھٹتا	-8786
▁گھٹتی	-8787
▁گھیرا	-8788
▁ہارنا	-8789
▁ہلایا	-8790
▁ہمالہ	-8791
▁ہمدمی	-8792
▁ہندوی	-8793
▁یونہی	-8794
▁یکبار	-8795
▁اتفاقی	-8796
▁اجتناب	-8797
▁اجنبیت	-8798
▁احتجاج	-8799
▁احترام	-8800
▁اختصار	-8801
▁ارزووں	-8802
▁ازردگی	-8803
▁ازمانا	-8804
▁ازمودہ	-8805
▁استہزا	-8806
▁اسپنسر	-8807
▁اشفتگی	-8808
▁اشناوں	-8809
▁اشکارا	-8810
▁اعتقاد	-8811
▁افتادہ	-8812
▁افتخار	-8813
▁افرینش	-8814
▁افشردۂ	-8815
▁التہاب	-8816
▁الساتا	-8817
▁الکتاب	-8818
▁امتداد	-8819
▁امتزاج	-8820
▁انتساب	-8821
▁انجامی	-8822
▁انکھاں	-8823
▁انکھیا	-8824
▁اوازوں	-8825
▁اوندھے	-8826
▁اٹھاتی	-8827
▁اٹھاوں	-8828
▁اپریشن	-8829
▁اپنایا	-8830
▁اچھالے	-8831
▁اکھڑتے	-8832
▁اہتزاز	-8833
▁ایمایے	-8834
▁ایندھن	-8835
▁بادشاہ	-8836
▁بادلوں	-8837
▁بازیاں	-8838
▁بازیچۂ	-8839
▁باغبان	-8840
▁بالیاں	-8841
▁بالیدن	-8842
▁بانٹتا	-8843
▁بجلیوں	-8844
▁بجولاں	-8845
▁بجھاتی	-8846
▁بجھایی	-8847
▁بخششیں	-8848
▁بخشیدن	-8849
▁برداشت	-8850
▁برسایی	-8851
▁برشکال	-8852
▁برشگال	-8853
▁برقرار	-8854
▁برہنگی	-8855
▁بساطیں	-8856
▁بشکستہ	-8857
▁بلبلیں	-8858
▁بلکتیں	-8859
▁بناییں	-8860
▁بنجارہ	-8861
▁بٹوارے	-8862
▁بٹھایی	-8863
▁بچاییں	-8864
▁بچھڑوں	-8865
▁بڑھانا	-8866
▁بھلاتا	-8867
▁بھٹکنے	-8868
▁بھگونے	-8869
▁بھیڑیں	-8870
▁بھیگنے	-8871
▁بہاریں	-8872
▁بہانوں	-8873
▁بہرحال	-8874
▁بہلانا	-8875
▁بہلایے	-8876
▁بیبیاں	-8877
▁بیدایے	-8878
▁بیقرار	-8879
▁بیوپار	-8880
▁بیٹھتا	-8881
▁بیٹھیے	-8882
▁بیچارہ	-8883
▁بیکاری	-8884
▁بیہودہ	-8885
▁تابانی	-8886
▁تابدار	-8887
▁تاجران	-8888
▁تجلیات	-8889
▁تراشنا	-8890
▁تلخیاں	-8891
▁تمنایی	-8892
▁تنخواہ	-8893
▁تکلفات	-8894
▁تھوکوں	-8895
▁تہمتیں	-8896
▁تیلیاں	-8897
▁تیموری	-8898
▁جبینوں	-8899
▁جذباتی	-8900
▁جراتیں	-8901
▁جرمانہ	-8902
▁جولیاں	-8903
▁جویایے	-8904
▁جگاییں	-8905
▁جگردار	-8906
▁جھانکا	-8907
▁جھمکتا	-8908
▁جھمکیے	-8909
▁جھمیلا	-8910
▁جھپکتے	-8911
▁جھپکنے	-8912
▁جھپکیں	-8913
▁جھکایے	-8914
▁جھیلوں	-8915
▁جھینپا	-8916
▁حدیثوں	-8917
▁حقیقتا	-8918
▁حوصلگی	-8919
▁خاندان	-8920
▁خانقاہ	-8921
▁خداداد	-8922
▁خزانوں	-8923
▁خصوصیت	-8924
▁خطاوار	-8925
▁خطاییں	-8926
▁خلوتوں	-8927
▁خمستان	-8928
▁خوارگی	-8929
▁خودبین	-8930
▁خورسند	-8931
▁خویشتن	-8932
▁خیاباں	-8933
▁داریاں	-8934
▁داناوں	-8935
▁درانتی	-8936
▁درختوں	-8937
▁دردیاں	-8938
▁درفشاں	-8939
▁درویشی	-8940
▁دستکیں	-8941
▁دلفروز	-8942
▁دلیلوں	-8943
▁دوبارا	-8944
▁دوڑایے	-8945
▁دکھاتے	-8946
▁دکھاوے	-8947
▁دگرگوں	-8948
▁دھندلک	-8949
▁دھڑکوں	-8950
▁دہراتے	-8951
▁دہرانے	-8952
▁دہرایی	-8953
▁دیاروں	-8954
▁دیوانی	-8955
▁دیگراں	-8956
▁راکھوں	-8957
▁رایگاں	-8958
▁رخشندہ	-8959
▁رسمیات	-8960
▁رفتگان	-8961
▁رفیقوں	-8962
▁رقیباں	-8963
▁روادار	-8964
▁روایات	-8965
▁روندتے	-8966
▁روٹھیں	-8967
▁رینگتا	-8968
▁زاہدوں	-8969
▁زمانوں	-8970
▁زنجیری	-8971
▁زنخداں	-8972
▁ساعتیں	-8973
▁سختیاں	-8974
▁سدھرنا	-8975
▁سرخیاں	-8976
▁سرداری	-8977
▁سرزمیں	-8978
▁سرنوشت	-8979
▁سروکار	-8980
▁سرچشمے	-8981
▁سرکشوں	-8982
▁سرگراں	-8983
▁سرگشتہ	-8984
▁سرہانا	-8985
▁سرہانے	-8986
▁سزاوار	-8987
▁سزاییں	-8988
▁سفیران	-8989
▁سلامتی	-8990
▁سلگاتے	-8991
▁سمجھیو	-8992
▁سمجھیے	-8993
▁سمرقند	-8994
▁سنوایی	-8995
▁سنورتا	-8996
▁سنورتی	-8997
▁سنورتے	-8998
▁سنورنے	-8999
▁سنگسار	-9000
▁سوالوں	-9001
▁سوگوار	-9002
▁سیپیوں	-9003
▁شادابی	-9004
▁شایستۂ	-9005
▁شرابوں	-9006
▁شرابیں	-9007
▁شرربار	-9008
▁شوالوں	-9009
▁شوہروں	-9010
▁شکرخند	-9011
▁شہریار	-9012
▁شہنایی	-9013
▁شہنشاہ	-9014
▁شہیدان	-9015
▁شہیدوں	-9016
▁شیدایی	-9017
▁شیرینی	-9018
▁صاحبان	-9019
▁صفاہاں	-9020
▁صلیبیں	-9021
▁صوفیوں	-9022
▁صیادوش	-9023
▁طغیانی	-9024
▁طلسموں	-9025
▁طنابیں	-9026
▁طنبورہ	-9027
▁طوطیوں	-9028
▁عاجزاں	-9029
▁عادتوں	-9030
▁عذابوں	-9031
▁عرشیوں	-9032
▁عشرتوں	-9033
▁عنبریں	-9034
▁غربتیں	-9035
▁غزالاں	-9036
▁غزالیؔ	-9037
▁غفلتیں	-9038
▁غلتیدۂ	-9039
▁غلطیاں	-9040
▁فراواں	-9041
▁فرسایی	-9042
▁فرماتا	-9043
▁فرمایش	-9044
▁فروتنی	-9045
▁فریدون	-9046
▁فصیلیں	-9047
▁فگاروں	-9048
▁قدسیوں	-9049
▁قرینوں	-9050
▁قلندری	-9051
▁قیدیوں	-9052
▁قیمتوں	-9053
▁لباسوں	-9054
▁لبھایے	-9055
▁لڑکیاں	-9056
▁لکیروں	-9057
▁لہراتا	-9058
▁مانگتی	-9059
▁مانگتے	-9060
▁مانگنے	-9061
▁متقابل	-9062
▁مثالوں	-9063
▁مثالیہ	-9064
▁مجروحؔ	-9065
▁مجموعۂ	-9066
▁محبوبہ	-9067
▁محرکات	-9068
▁مرادیں	-9069
▁مردانے	-9070
▁مروتیں	-9071
▁مزدوری	-9072
▁مستجاب	-9073
▁مستعار	-9074
▁مستیوں	-9075
▁مسجدوں	-9076
▁مسلمان	-9077
▁مسیلوں	-9078
▁مشاطگی	-9079
▁مشاہدہ	-9080
▁مشوروں	-9081
▁مشکلوں	-9082
▁مشینوں	-9083
▁مضایقہ	-9084
▁معاملے	-9085
▁معبدوں	-9086
▁ممنوںؔ	-9087
▁منجملہ	-9088
▁منعماں	-9089
▁منگایی	-9090
▁میہماں	-9091
▁نااشنا	-9092
▁ناتوان	-9093
▁نادیدہ	-9094
▁ناصحان	-9095
▁نامحرم	-9096
▁نایافت	-9097
▁نباہنا	-9098
▁نثاروں	-9099
▁نصابوں	-9100
▁نظارگی	-9101
▁نظیروں	-9102
▁نمسکار	-9103
▁نورستہ	-9104
▁نکالنے	-9105
▁نکھرتی	-9106
▁نکہتوں	-9107
▁نیمروز	-9108
▁نیندیں	-9109
▁وابستۂ	-9110
▁وادیاں	-9111
▁واردان	-9112
▁وارستہ	-9113
▁واویلا	-9114
▁وحشتوں	-9115
▁وسیلوں	-9116
▁وضعیوں	-9117
▁ویرانۂ	-9118
▁ٹھہرنا	-9119
▁ٹھہرنے	-9120
▁پابستہ	-9121
▁پادشاہ	-9122
▁پاکباز	-9123
▁پرخلوص	-9124
▁پرستوں	-9125
▁پرندوں	-9126
▁پروردۂ	-9127
▁پناہیں	-9128
▁پکارتی	-9129
▁پکارتے	-9130
▁پکارنے	-9131
▁پگھلتا	-9132
▁پگھلتے	-9133
▁پھاندے	-9134
▁پھانسی	-9135
▁پھونکا	-9136
▁پھونکے	-9137
▁پھوڑنا	-9138
▁پھیریں	-9139
▁پھینکے	-9140
▁پہلواں	-9141
▁پہنایا	-9142
▁پہنایے	-9143
▁پہنچتے	-9144
▁پہنچنا	-9145
▁پہنچیں	-9146
▁پیاموں	-9147
▁پیدایش	-9148
▁پیدایی	-9149
▁پیرایی	-9150
▁پیغمبر	-9151
▁پیکروں	-9152
▁چاہتیں	-9153
▁چاہییں	-9154
▁چھتیاں	-9155
▁چھوٹیں	-9156
▁چھوڑتے	-9157
▁چھوڑوں	-9158
▁چھپاتے	-9159
▁چھینٹا	-9160
▁چھیڑتی	-9161
▁چھیڑنے	-9162
▁ڈھانپا	-9163
▁ڈھاییے	-9164
▁ڈھونڈو	-9165
▁کارگاہ	-9166
▁کاشانہ	-9167
▁کافروں	-9168
▁کافوری	-9169
▁کالجحر	-9170
▁کامیاں	-9171
▁کاندھے	-9172
▁کانپتا	-9173
▁کبیراؔ	-9174
▁کترنیں	-9175
▁کراہنے	-9176
▁کریدتے	-9177
▁کلاہیں	-9178
▁کلفتوں	-9179
▁کمانوں	-9180
▁کمانیں	-9181
▁کمزوری	-9182
▁کنایات	-9183
▁کنعانی	-9184
▁کنوییں	-9185
▁کھتیاں	-9186
▁کھلایے	-9187
▁کھنکتے	-9188
▁کھولتی	-9189
▁کھٹکتا	-9190
▁کھیتوں	-9191
▁کھیلتی	-9192
▁کھیلنا	-9193
▁کھیلنے	-9194
▁کہلاتا	-9195
▁کہلانا	-9196
▁کہلاوے	-9197
▁گداختہ	-9198
▁گردیدن	-9199
▁گرمایش	-9200
▁گزارنے	-9201
▁گلستان	-9202
▁گنوانا	-9203
▁گواہوں	-9204
▁گونجتی	-9205
▁گھبراو	-9206
▁گھرانے	-9207
▁گھٹاتا	-9208
▁گہربار	-9209
▁ہجرتیں	-9210
▁ہمدردی	-9211
▁ہنکارا	-9212
▁یتیموں	-9213
▁یکسویی	-9214
▁ابشاروں	-9215
▁ابھارنا	-9216
▁اتروایی	-9217
▁اداییاں	-9218
▁اراییاں	-9219
▁ازردگاں	-9220
▁استخارہ	-9221
▁استخوان	-9222
▁استعارے	-9223
▁استفادہ	-9224
▁اسداللہ	-9225
▁اسماعیل	-9226
▁اسیریوں	-9227
▁اشفتگاں	-9228
▁افتادگی	-9229
▁افسانوں	-9230
▁افگاروں	-9231
▁التفاتی	-9232
▁امانتیں	-9233
▁انتظاری	-9234
▁انجمنیں	-9235
▁انجھواں	-9236
▁اوفتادۂ	-9237
▁اکیسویں	-9238
▁بالشتوں	-9239
▁باندھتا	-9240
▁برساتیں	-9241
▁بندوبست	-9242
▁بڑھاییں	-9243
▁بکھرایے	-9244
▁بھلاییں	-9245
▁بھپتیاں	-9246
▁بیسواوں	-9247
▁بیگانوں	-9248
▁تابندگی	-9249
▁تازیانہ	-9250
▁تدبیریں	-9251
▁تصویروں	-9252
▁تقدیریں	-9253
▁تلواریں	-9254
▁تنگنایے	-9255
▁توانایی	-9256
▁جاودانہ	-9257
▁جاگیریں	-9258
▁جداییاں	-9259
▁جھانجھر	-9260
▁حرارتیں	-9261
▁حکایتیں	-9262
▁حکومتوں	-9263
▁خبرداری	-9264
▁خداوندی	-9265
▁خموشیوں	-9266
▁خوبرویی	-9267
▁خوشبووں	-9268
▁خوشبویی	-9269
▁دادخواہ	-9270
▁درباروں	-9271
▁دستگیری	-9272
▁دوستانہ	-9273
▁دکھاییو	-9274
▁دکھلانا	-9275
▁دکھلانے	-9276
▁دکھلایی	-9277
▁دھمکایا	-9278
▁دھندھلی	-9279
▁رخساروں	-9280
▁رنگارنگ	-9281
▁رومانوں	-9282
▁رہنمایی	-9283
▁ریکھاوں	-9284
▁زلیخایی	-9285
▁زمیندار	-9286
▁سامانوں	-9287
▁سرفرازی	-9288
▁سرمایوں	-9289
▁سرنگونی	-9290
▁سفارشوں	-9291
▁سمجھانا	-9292
▁سمجھوتے	-9293
▁سمرقندی	-9294
▁سنبھالو	-9295
▁سنبھالی	-9296
▁سنبھلتا	-9297
▁سنبھلتی	-9298
▁سنبھلنا	-9299
▁سنبھلنے	-9300
▁سنوارنے	-9301
▁سوسایٹی	-9302
▁سکھلایی	-9303
▁شاہبازی	-9304
▁شرافتوں	-9305
▁شمشیریں	-9306
▁شوریدگی	-9307
▁صہباییؔ	-9308
▁طوفانوں	-9309
▁عنایتیں	-9310
▁فاتحانہ	-9311
▁فرزانگی	-9312
▁فرماییں	-9313
▁لاابالی	-9314
▁لگاوٹیں	-9315
▁ماجرایے	-9316
▁ماورایے	-9317
▁محتسبوں	-9318
▁مداوایے	-9319
▁مددگاری	-9320
▁مرجھایے	-9321
▁مسافروں	-9322
▁مسکراتی	-9323
▁مسکراتے	-9324
▁مسکراوں	-9325
▁معاملات	-9326
▁معصومیت	-9327
▁ملاقاتی	-9328
▁منواییے	-9329
▁ناشکیبا	-9330
▁ناصبوری	-9331
▁ناعاقبت	-9332
▁نامحکمی	-9333
▁نخچیروں	-9334
▁نشوونما	-9335
▁نواییاں	-9336
▁نوجوانی	-9337
▁نگہبانی	-9338
▁واگسستہ	-9339
▁ٹھوکروں	-9340
▁ٹھہراوے	-9341
▁ٹھہرایا	-9342
▁پابستگی	-9343
▁پادشاہی	-9344
▁پذیرایی	-9345
▁پرستاری	-9346
▁پڑوسیوں	-9347
▁پھنکارا	-9348
▁پھونکیں	-9349
▁پہنچانا	-9350
▁پہنچایں	-9351
▁پیمبروں	-9352
▁چرواہوں	-9353
▁چمکاییں	-9354
▁چکانیاں	-9355
▁چھٹکارا	-9356
▁چھٹکایے	-9357
▁ڈگمگایے	-9358
▁کارخانے	-9359
▁کاروانی	-9360
▁کاشانوں	-9361
▁کامیابی	-9362
▁کاندھوں	-9363
▁کرداروں	-9364
▁کھنڈرات	-9365
▁کھنڈروں	-9366
▁کھینچتی	-9367
▁کھینچتے	-9368
▁کیفیتیں	-9369
▁گداگروں	-9370
▁گریبانی	-9371
▁گنگناتی	-9372
▁گھبراتا	-9373
▁گھونسلے	-9374
▁یادگاری	-9375
▁اندھیاری	-9376
▁انکھڑیوں	-9377
▁بیباکیاں	-9378
▁تنہاییاں	-9379
▁جھلملاتی	-9380
▁رنگینیاں	-9381
▁سامانیوں	-9382
▁سمجھاییں	-9383
▁سمجھاییے	-9384
▁سنبلستاں	-9385
▁شبنمستاں	-9386
▁شہسواروں	-9387
▁لڑکھڑایے	-9388
▁مجبوریاں	-9389
▁مختاریوں	-9390
▁نامہربان	-9391
▁نزدیکیوں	-9392
▁ویرانیاں	-9393
▁پرواییوں	-9394
▁پروردگار	-9395
▁پرہیزگار	-9396
▁پچھتاییں	-9397
▁چنگاریاں	-9398
▁ڈھونڈییے	-9399
▁کوہساروں	-9400
▁گریبانوں	-9401
▁گھبراویں	-9402
▁ہمساییگی	-9403
▁ہندوستان	-9404
▁ہوشیاروں	-9405
▁تماشاییوں	-9406
▁خراباتیان	-9407
▁واماندگان	-9408
▁پرہیزگاری	-9409
▁گھنگھرووں	-9410
اخذ	-9411
اقم	-9412
اڑھ	-9413
تنب	-9414
حصر	-9415
حیط	-9416
حیف	-9417
قدس	-9418
قمہ	-9419
نڈے	-9420
واو	-9421
وکب	-9422
وگے	-9423
ٹرک	-9424
پیچ	-9425
کشو	-9426
کپن	-9427
ہوم	-9428
اخذۂ	-9429
اسنج	-9430
اعرہ	-9431
اعقہ	-9432
التو	-9433
زداں	-9434
شونت	-9435
فیسر	-9436
قراط	-9437
قلوں	-9438
لاوا	-9439
نڈتی	-9440
نگرو	-9441
واست	-9442
وافی	-9443
پسند	-9444
پنڈی	-9445
پھری	-9446
چیتا	-9447
ڈنڈی	-9448
ڈیلو	-9449
▁بحق	-9450
▁بزر	-9451
▁بمب	-9452
▁تخل	-9453
▁تلط	-9454
▁جچا	-9455
▁حصر	-9456
▁خصم	-9457
▁خفق	-9458
▁دزد	-9459
▁دغا	-9460
▁دغل	-9461
▁رجز	-9462
▁زکو	-9463
▁صمص	-9464
▁غذا	-9465
▁غصب	-9466
▁غوغ	-9467
▁فصا	-9468
▁فضل	-9469
▁فعل	-9470
▁قیص	-9471
▁لکد	-9472
▁نخش	-9473
▁نطع	-9474
▁کچل	-9475
▁کڑھ	-9476
▁گڑھ	-9477
▁ہزی	-9478
انصاف	-9479
اڑھیں	-9480
جدھار	-9481
رہویں	-9482
شگفتہ	-9483
قراری	-9484
لاحات	-9485
لاطوں	-9486
لیفون	-9487
نبیلی	-9488
وراگی	-9489
کھنڈے	-9490
ھرایا	-9491
▁ابتر	-9492
▁ازبس	-9493
▁اصطک	-9494
▁اظلم	-9495
▁الاپ	-9496
▁المث	-9497
▁امڈا	-9498
▁امڈے	-9499
جدھ	-9500
ضیع	-9501
ہاس	-9502
ٹکیں	-9503
▁تپس	-9504
▁حرز	-9505
▁عشو	-9506
▁ہاے	-9507
فشانی	-9508
▁اضطر	-9509
▁اگین	-9510
▁باجے	-9511
▁بحدی	-9512
▁بردن	-9513
▁برکت	-9514
▁بزور	-9515
▁بستۂ	-9516
▁بسنت	-9517
▁بمشک	-9518
▁بودش	-9519
▁بوذر	-9520
▁بٹتی	-9521
▁بگوش	-9522
▁بگڑا	-9523
▁بگڑو	-9524
▁بھاپ	-9525
▁بہرہ	-9526
▁بیسن	-9527
▁بیشۂ	-9528
▁بیضہ	-9529
▁تازی	-9530
▁تالا	-9531
▁تانک	-9532
▁تخلص	-9533
▁تظلم	-9534
▁تلطف	-9535
▁تلون	-9536
▁تمدن	-9537
▁تمغے	-9538
▁تنعم	-9539
▁تپتا	-9540
▁تڑکا	-9541
▁تھلگ	-9542
▁تہیۂ	-9543
▁تیشۂ	-9544
▁تیشے	-9545
▁جبہہ	-9546
▁جدال	-9547
▁جلسۂ	-9548
▁جڑیں	-9549
▁حرفت	-9550
▁حلاج	-9551
▁حلال	-9552
▁حلبی	-9553
▁حمام	-9554
▁خاصا	-9555
▁خلاق	-9556
▁خواج	-9557
▁خیرہ	-9558
▁خیمہ	-9559
▁دبتی	-9560
▁دستا	-9561
▁دفعہ	-9562
▁دفنا	-9563
▁دقیق	-9564
▁دلاس	-9565
▁دلاو	-9566
▁دلکش	-9567
▁دھرے	-9568
▁دہکی	-9569
▁دہکے	-9570
▁رباع	-9571
▁رسمس	-9572
▁رسید	-9573
▁رضام	-9574
▁رضیع	-9575
▁رفعت	-9576
▁رفقا	-9577
▁ریلے	-9578
▁زاید	-9579
▁زدنی	-9580
▁زریں	-9581
▁زنخد	-9582
▁زکات	-9583
▁زینہ	-9584
▁سبکد	-9585
▁سرجن	-9586
▁سفری	-9587
▁سفلہ	-9588
▁سہمے	-9589
▁سینک	-9590
▁صلاح	-9591
▁طعمہ	-9592
▁طفلک	-9593
▁طینت	-9594
▁عاصی	-9595
▁عاقل	-9596
▁عبور	-9597
▁عصمت	-9598
▁عنان	-9599
عظم	-9600
ایچے	-9601
دارم	-9602
ناہٹ	-9603
▁جزر	-9604
▁دجا	-9605
▁رچے	-9606
▁لجا	-9607
▁کٹھ	-9608
ادروں	-9609
شتہار	-9610
▁اعظم	-9611
▁بخشد	-9612
▁بداد	-9613
▁بربط	-9614
▁بھوگ	-9615
▁جمعی	-9616
▁خلعت	-9617
▁دادن	-9618
▁دادے	-9619
▁رحمی	-9620
▁سیال	-9621
▁شداد	-9622
▁عجلت	-9623
▁غدار	-9624
▁غریق	-9625
▁غزنو	-9626
▁غلاف	-9627
▁غواص	-9628
▁غوطے	-9629
▁فاقہ	-9630
▁فاقے	-9631
▁فشان	-9632
▁فگنی	-9633
▁قاصر	-9634
▁قاقم	-9635
▁قبلے	-9636
▁قدری	-9637
▁قرین	-9638
▁قریہ	-9639
▁قیود	-9640
▁لاحل	-9641
▁لایع	-9642
▁لایٹ	-9643
▁لٹتی	-9644
▁لڑتا	-9645
▁لکڑی	-9646
▁مارو	-9647
▁مالا	-9648
▁مبدل	-9649
▁محضر	-9650
▁محکو	-9651
▁مخفی	-9652
▁مخمل	-9653
▁مزدر	-9654
▁مزید	-9655
▁مصحف	-9656
▁مصرع	-9657
▁مضبو	-9658
▁معجز	-9659
▁معرض	-9660
▁معرک	-9661
▁مفسر	-9662
▁ملوا	-9663
▁مملو	-9664
▁موحد	-9665
▁مورد	-9666
▁مڑنے	-9667
▁ناسخ	-9668
▁نافۂ	-9669
▁نخشب	-9670
▁نخوا	-9671
▁ننگا	-9672
▁ننگی	-9673
▁ننھے	-9674
▁نوحۂ	-9675
▁نگین	-9676
▁نیرؔ	-9677
▁نیزہ	-9678
▁نیزۂ	-9679
▁وامق	-9680
▁وزیر	-9681
▁وطنی	-9682
▁وفات	-9683
▁وقار	-9684
▁وکیل	-9685
▁ٹیلے	-9686
▁پنہا	-9687
▁پولس	-9688
▁پڑاو	-9689
▁پکڑو	-9690
▁پکڑے	-9691
▁پیٹھ	-9692
▁پیچش	-9693
▁چرچے	-9694
▁چمٹا	-9695
▁چمکی	-9696
▁چنتا	-9697
▁چنتی	-9698
▁چنیے	-9699
اطع	-9700
دیڑ	-9701
ماق	-9702
حالی	-9703
ذبذب	-9704
قماق	-9705
▁اغن	-9706
▁اقا	-9707
▁رطل	-9708
▁رگڑ	-9709
▁شدن	-9710
▁قدی	-9711
▁پھس	-9712
▁پھک	-9713
▁کذب	-9714
▁کفک	-9715
▁کفۂ	-9716
سیمگی	-9717
▁اغلب	-9718
▁اموز	-9719
▁ببال	-9720
▁بچھے	-9721
▁بیوی	-9722
▁تشیب	-9723
▁تھکی	-9724
▁جالی	-9725
▁خارج	-9726
▁راجہ	-9727
▁راوی	-9728
▁ریزے	-9729
▁سوگو	-9730
▁شیخی	-9731
▁فتوے	-9732
▁قاطع	-9733
▁لالا	-9734
▁لہکی	-9735
▁مبال	-9736
▁مملک	-9737
▁مہذب	-9738
▁نقطے	-9739
▁پارک	-9740
▁پاکی	-9741
▁پھٹے	-9742
▁چورس	-9743
▁چومے	-9744
▁چوکا	-9745
▁چٹنی	-9746
▁چیون	-9747
▁چیٹک	-9748
▁ڈسنا	-9749
▁ڈگری	-9750
▁ڈھیر	-9751
▁کفنی	-9752
▁کمبل	-9753
▁کنڈی	-9754
▁کوکب	-9755
▁کٹیں	-9756
▁کچیں	-9757
▁کڑھا	-9758
▁کھرے	-9759
▁گالی	-9760
▁گاڑو	-9761
▁گروی	-9762
▁گشتن	-9763
▁گشتۂ	-9764
▁گفتۂ	-9765
▁گلبن	-9766
▁گمرہ	-9767
▁گننا	-9768
▁گورن	-9769
▁گھنش	-9770
▁گہنہ	-9771
▁ہدیہ	-9772
▁ہرجا	-9773
باریوں	-9774
تکھنڈے	-9775
شگافوں	-9776
لواییے	-9777
مردگاں	-9778
ندھاوٹ	-9779
▁ابلتی	-9780
▁ابھرا	-9781
▁ابھرے	-9782
▁اتارو	-9783
▁اتراو	-9784
▁اتفاق	-9785
▁اتہاس	-9786
▁ادھار	-9787
▁ارتبا	-9788
▁اسامی	-9789
▁استقل	-9790
▁استما	-9791
▁اسلوب	-9792
▁اسپیچ	-9793
▁اطراف	-9794
▁اعمار	-9795
▁اغنیا	-9796
▁افراط	-9797
▁افغاں	-9798
▁اقدار	-9799
اہے	-9800
روض	-9801
لیغ	-9802
ٹیو	-9803
کبر	-9804
رانہ	-9805
عایے	-9806
لویے	-9807
ہوری	-9808
یساں	-9809
یکھے	-9810
▁الن	-9811
▁بتو	-9812
▁تذک	-9813
▁خطی	-9814
▁ساح	-9815
▁طیش	-9816
▁مرت	-9817
▁مرہ	-9818
▁ملن	-9819
▁موذ	-9820
▁موٹ	-9821
▁ٹکے	-9822
▁پود	-9823
▁پیس	-9824
▁ڈرا	-9825
▁کتب	-9826
▁گلع	-9827
▁گھی	-9828
التوں	-9829
جھایی	-9830
ستوری	-9831
مرانی	-9832
گیروں	-9833
▁اشیا	-9834
▁النع	-9835
▁انفا	-9836
▁برتی	-9837
▁بلیغ	-9838
▁بنات	-9839
▁بنتے	-9840
▁تختہ	-9841
▁تختی	-9842
▁جمعہ	-9843
▁خفتن	-9844
▁دایر	-9845
▁سادے	-9846
▁شمول	-9847
▁لنگر	-9848
▁ماری	-9849
▁مریں	-9850
▁مزیل	-9851
▁مسطر	-9852
▁مصفا	-9853
▁موذن	-9854
▁نزار	-9855
▁نوری	-9856
▁پیسے	-9857
▁پینس	-9858
▁چمکے	-9859
▁چوٹی	-9860
▁گاگر	-9861
▁گدھا	-9862
▁گلعذ	-9863
▁الحاد	-9864
▁الحبس	-9865
▁الحقی	-9866
▁الحمد	-9867
▁الرغم	-9868
▁القدس	-9869
▁النعش	-9870
▁امراض	-9871
▁اموزی	-9872
▁امڈتی	-9873
▁انفاس	-9874
▁انکھی	-9875
▁اوباش	-9876
▁اولیا	-9877
▁اوچھی	-9878
▁اوڑھا	-9879
▁اوڑھے	-9880
▁اچھلے	-9881
▁اڑایا	-9882
▁اکارت	-9883
▁ایامے	-9884
▁ایثار	-9885
▁باختن	-9886
▁باشند	-9887
▁باطنی	-9888
▁بامرا	-9889
▁باندی	-9890
▁باولے	-9891
▁باہری	-9892
▁ببروں	-9893
▁بحثیں	-9894
▁بحران	-9895
▁بخشنا	-9896
▁بخیلی	-9897
▁برساو	-9898
▁بزرگی	-9899
زح	-9900
ڈل	-9901
ازن	-9902
الل	-9903
تیق	-9904
زگی	-9905
ساز	-9906
ضاب	-9907
عشق	-9908
قاب	-9909
نگھ	-9910
چتے	-9911
ہنی	-9912
ہنے	-9913
دانی	-9914
رانی	-9915
قباد	-9916
نگھٹ	-9917
▁احض	-9918
▁جسد	-9919
▁خلی	-9920
▁دون	-9921
▁دہک	-9922
▁سلب	-9923
▁سلے	-9924
▁شنگ	-9925
▁فتی	-9926
▁فہر	-9927
▁قزح	-9928
▁لاد	-9929
▁مڈل	-9930
▁پسی	-9931
▁پنچ	-9932
▁چنی	-9933
▁گرگ	-9934
▁گزٹ	-9935
▁بیاد	-9936
▁جچتے	-9937
▁حرکت	-9938
▁حملہ	-9939
▁خستۂ	-9940
▁خضاب	-9941
▁خلیق	-9942
▁خونا	-9943
▁دوجے	-9944
▁سرتا	-9945
▁سریں	-9946
▁سومن	-9947
▁عتیق	-9948
▁عہدی	-9949
▁فتور	-9950
▁مرغے	-9951
▁نانی	-9952
▁وصیت	-9953
▁چھپر	-9954
▁یافت	-9955
اللساں	-9956
ستاخیز	-9957
وتھایی	-9958
▁احضار	-9959
▁اقامت	-9960
▁العشق	-9961
▁القاب	-9962
▁امیدو	-9963
▁اورنگ	-9964
▁ایراد	-9965
▁بستیو	-9966
▁بسیرا	-9967
▁بشریت	-9968
▁بلاغت	-9969
▁بلاوا	-9970
▁بلاوز	-9971
▁بلاکش	-9972
▁بمبیی	-9973
▁بمشکل	-9974
▁بندھن	-9975
▁بنوگے	-9976
▁بوجھے	-9977
▁بولتی	-9978
▁بولیے	-9979
▁بٹاوں	-9980
▁بپھری	-9981
▁بچایا	-9982
▁بگاڑے	-9983
▁بگشتم	-9984
▁بگڑنا	-9985
▁بگڑیں	-9986
▁بھاٹا	-9987
▁بھایے	-9988
▁بھنیے	-9989
▁بھواں	-9990
▁بھوکا	-9991
▁بھکشو	-9992
▁بہتات	-9993
▁بہلاو	-9994
▁بہلتی	-9995
▁بیراگ	-9996
▁بیشتر	-9997
▁تاختن	-9998
▁تجکوں	-9999
لد	-10000
گت	-10001
ؔلد	-10002
بیہ	-10003
دیق	-10004
طرف	-10005
لاج	-10006
پند	-10007
کھے	-10008
ییز	-10009
بانگ	-10010
ستری	-10011
شیدہ	-10012
کھلا	-10013
گسوں	-10014
▁اقت	-10015
▁باگ	-10016
▁بیج	-10017
▁تبہ	-10018
▁توف	-10019
▁جوف	-10020
▁خرے	-10021
▁دکا	-10022
▁شاب	-10023
▁متع	-10024
▁پاے	-10025
▁کاں	-10026
▁گلچ	-10027
▁ہتھ	-10028
▁ہیج	-10029
▁یقی	-10030
ؔلدین	-10031
جداری	-10032
ٹاییں	-10033
▁ابلا	-10034
▁ازاں	-10035
▁اسرے	-10036
▁بھگت	-10037
▁جانک	-10038
▁طرحی	-10039
▁ظہیر	-10040
▁عرضی	-10041
▁مخلو	-10042
▁معدن	-10043
▁نسبی	-10044
▁نیچر	-10045
▁وصول	-10046
▁پرچہ	-10047
▁پہنے	-10048
▁کسوں	-10049
▁ابلاغ	-10050
▁اسپند	-10051
▁اقتضا	-10052
▁برطرف	-10053
▁تجارت	-10054
▁تحصیل	-10055
▁تذبذب	-10056
▁تذکرے	-10057
▁ترسنے	-10058
▁ترچھی	-10059
▁ترچھے	-10060
▁تشبیہ	-10061
▁تشریف	-10062
▁تشیبہ	-10063
▁تصدیق	-10064
▁تفریح	-10065
▁تقاضہ	-10066
▁تقدیس	-10067
▁تلاشا	-10068
▁تمازت	-10069
▁تمییز	-10070
▁توازن	-10071
▁توانا	-10072
▁توفیر	-10073
▁توڑنا	-10074
▁توڑنے	-10075
▁تپسیا	-10076
▁تھامو	-10077
▁تھکنے	-10078
▁تینوں	-10079
▁تیکھے	-10080
▁جاگنا	-10081
▁جاگیر	-10082
▁جتایا	-10083
▁جرایم	-10084
▁جزیرہ	-10085
▁جزیرۂ	-10086
▁جسموں	-10087
▁جفاخو	-10088
▁جگایا	-10089
▁جھاڑو	-10090
▁جھاڑی	-10091
▁جھرنا	-10092
▁جھلتی	-10093
▁جھلکا	-10094
▁جھمکے	-10095
▁جھنکا	-10096
▁جھولی	-10097
▁جھوما	-10098
▁جھپٹی	-10099
طح	-10100
حید	-10101
سیہ	-10102
غمی	-10103
میص	-10104
ندا	-10105
یکا	-10106
▁دج	-10107
ادھا	-10108
رویے	-10109
فایے	-10110
ھونس	-10111
ھیڑے	-10112
▁انب	-10113
▁انر	-10114
▁انف	-10115
▁انک	-10116
▁تنے	-10117
▁تیا	-10118
▁جوگ	-10119
▁قال	-10120
▁نجو	-10121
▁پرم	-10122
▁پنا	-10123
▁چہل	-10124
▁گنے	-10125
کایات	-10126
▁اتشک	-10127
▁انفص	-10128
▁برچھ	-10129
▁تیاگ	-10130
▁جامہ	-10131
▁جوار	-10132
▁جوشی	-10133
▁دجلہ	-10134
▁رنجہ	-10135
▁رہاں	-10136
▁قمیص	-10137
▁مسطح	-10138
▁مندے	-10139
▁موجب	-10140
▁ناقہ	-10141
▁نسیہ	-10142
▁ٹیکا	-10143
▁چلاو	-10144
▁چھلے	-10145
▁چھنا	-10146
▁کسوٹ	-10147
▁کمسن	-10148
▁گھلی	-10149
▁انبسا	-10150
▁اگلتا	-10151
▁بلغمی	-10152
▁بوندا	-10153
▁توحید	-10154
▁جوگیی	-10155
▁جہنمی	-10156
▁جیبوں	-10157
▁حاجیو	-10158
▁حادثے	-10159
▁حرفوں	-10160
▁حرماں	-10161
▁حسینہ	-10162
▁خانگی	-10163
▁خجستۂ	-10164
▁خراشی	-10165
▁خریدی	-10166
▁خزانی	-10167
▁خسارا	-10168
▁خسارہ	-10169
▁خسروؔ	-10170
▁خسروی	-10171
▁خشونت	-10172
▁خطرات	-10173
▁خفایی	-10174
▁خواست	-10175
▁دابتے	-10176
▁دایرہ	-10177
▁دایرے	-10178
▁دبانے	-10179
▁درایے	-10180
▁درہمی	-10181
▁دلاسا	-10182
▁دلاسہ	-10183
▁دلالہ	-10184
▁دلانے	-10185
▁دلاور	-10186
▁دوختہ	-10187
▁دولتے	-10188
▁دوپٹا	-10189
▁دگراں	-10190
▁دھرنا	-10191
▁دھمکی	-10192
▁دھونس	-10193
▁دھڑکا	-10194
▁دہکتی	-10195
▁رابطۂ	-10196
▁رادھا	-10197
▁رانیں	-10198
▁ردایی	-10199
جف	-10200
خی	-10201
سف	-10202
سیں	-10203
فرق	-10204
متع	-10205
کلی	-10206
ہود	-10207
▁زع	-10208
▁زغ	-10209
▁عو	-10210
زنوں	-10211
شناس	-10212
عادت	-10213
غنوں	-10214
▁احم	-10215
▁اگہ	-10216
▁بہن	-10217
▁تاد	-10218
▁خست	-10219
▁خسک	-10220
▁دیز	-10221
▁زغن	-10222
▁عوض	-10223
▁غرب	-10224
▁مکی	-10225
▁نجف	-10226
▁پاز	-10227
▁پرا	-10228
ڈیلیں	-10229
ھونرے	-10230
▁ابلق	-10231
▁اناج	-10232
▁تاسف	-10233
▁تودے	-10234
▁تیلی	-10235
▁دباو	-10236
▁رووے	-10237
▁زعفر	-10238
▁سپہر	-10239
▁لینی	-10240
▁مرغو	-10241
▁مکدر	-10242
▁نبھی	-10243
▁نیلی	-10244
▁پابہ	-10245
▁پرسا	-10246
▁کالب	-10247
▁یارا	-10248
▁یسیں	-10249
▁اشارۂ	-10250
▁امداد	-10251
▁بحدیث	-10252
▁برتیں	-10253
▁بھیجو	-10254
▁تادیب	-10255
▁ترانہ	-10256
▁خویاں	-10257
▁دلاوں	-10258
▁رسالے	-10259
▁رسموں	-10260
▁رسیدہ	-10261
▁رضایی	-10262
▁رعایۂ	-10263
▁رقصاں	-10264
▁رلاتی	-10265
▁روباہ	-10266
▁رومال	-10267
▁روویں	-10268
▁روپوش	-10269
▁روکتا	-10270
▁روکشی	-10271
▁روکنے	-10272
▁روکوں	-10273
▁رچانا	-10274
▁رچیتا	-10275
▁رکاوٹ	-10276
▁رکھاو	-10277
▁رہروو	-10278
▁ریختہ	-10279
▁ریشگی	-10280
▁زاویے	-10281
▁زایچے	-10282
▁زردار	-10283
▁زمزمے	-10284
▁زمینی	-10285
▁زناری	-10286
▁ساتھی	-10287
▁ساحری	-10288
▁سانحے	-10289
▁ستارو	-10290
▁سجادہ	-10291
▁سجدوں	-10292
▁سرانج	-10293
▁سرتاج	-10294
▁سردار	-10295
▁سرمدی	-10296
▁سرمست	-10297
▁سرمیی	-10298
▁سرکتے	-10299
ثی	-10300
قن	-10301
داش	-10302
راض	-10303
فاع	-10304
لیا	-10305
وثی	-10306
ٹھی	-10307
▁جک	-10308
▁لع	-10309
اسبہ	-10310
لاکی	-10311
▁بہو	-10312
▁تاو	-10313
▁تور	-10314
▁حفظ	-10315
▁ذقن	-10316
▁رعب	-10317
▁سبد	-10318
▁سنہ	-10319
▁لتا	-10320
▁منڈ	-10321
▁کسک	-10322
▁یغم	-10323
▁یکہ	-10324
راباد	-10325
ستانی	-10326
▁بشرط	-10327
▁بیضا	-10328
▁تابہ	-10329
▁جانم	-10330
▁جکڑا	-10331
▁خوشہ	-10332
▁ذوقؔ	-10333
▁روما	-10334
▁سووے	-10335
▁سیتے	-10336
▁سیپی	-10337
▁قلوب	-10338
▁لتاڑ	-10339
▁لعنت	-10340
▁مضمر	-10341
▁چڑھی	-10342
▁ڈرنا	-10343
▁کرسم	-10344
▁کٹنے	-10345
▁اندام	-10346
▁اکھڑا	-10347
▁ایلیا	-10348
▁تاویل	-10349
▁توراں	-10350
▁ستاتے	-10351
▁سرکشی	-10352
▁سزایے	-10353
▁سفینۂ	-10354
▁سقراط	-10355
▁سلگتی	-10356
▁سلگنے	-10357
▁سماجت	-10358
▁سمانے	-10359
▁سمتوں	-10360
▁سمٹتے	-10361
▁سمٹنے	-10362
▁سناوے	-10363
▁سنجاب	-10364
▁سنجان	-10365
▁سنورا	-10366
▁سنورے	-10367
▁سنگھا	-10368
▁سنہرا	-10369
▁سوادی	-10370
▁سوجھے	-10371
▁سودای	-10372
▁سپاہی	-10373
▁سکھلا	-10374
▁سیانا	-10375
▁سیروں	-10376
▁سینچو	-10377
▁سینچی	-10378
▁سینچے	-10379
▁سیکھے	-10380
▁شاباش	-10381
▁شاہدی	-10382
▁شایبۂ	-10383
▁شدتیں	-10384
▁شرماو	-10385
▁شمشان	-10386
▁شناور	-10387
▁شگوفہ	-10388
▁شہریت	-10389
▁شیشوں	-10390
▁شیفتۂ	-10391
▁صاحبو	-10392
▁صاعقہ	-10393
▁صمصام	-10394
▁صندلی	-10395
▁صییاد	-10396
▁ضعیفی	-10397
▁طاقوں	-10398
▁طبقوں	-10399
دس	-10400
رخ	-10401
صب	-10402
نر	-10403
حاد	-10404
حیے	-10405
سنے	-10406
نگے	-10407
واہ	-10408
ٹمی	-10409
ڈنگ	-10410
▁وی	-10411
▁پٹ	-10412
▁پچ	-10413
دازۂ	-10414
وریں	-10415
ولتے	-10416
ھیوں	-10417
▁توہ	-10418
▁زری	-10419
▁طوب	-10420
▁لگو	-10421
▁نرخ	-10422
▁پات	-10423
▁پلو	-10424
▁ڈنر	-10425
▁ڈھو	-10426
▁گاں	-10427
ٹولتے	-10428
ڈنگیں	-10429
ڑھیوں	-10430
▁ابست	-10431
▁اکلو	-10432
▁برقع	-10433
▁تعصب	-10434
▁جاگا	-10435
▁جبرا	-10436
▁جوتی	-10437
▁جھڑے	-10438
▁حساں	-10439
▁خمیر	-10440
▁سلوٹ	-10441
▁غازی	-10442
▁مقدس	-10443
▁نشور	-10444
▁نوشا	-10445
▁پکڑا	-10446
▁چوما	-10447
▁چھنی	-10448
▁گرنے	-10449
اییگاں	-10450
جدھانی	-10451
ستانوں	-10452
یناروں	-10453
▁اتحاد	-10454
▁اسٹمی	-10455
▁افواہ	-10456
▁اندھا	-10457
▁اٹھنا	-10458
▁بالین	-10459
▁بتانے	-10460
▁برچھی	-10461
▁توہین	-10462
▁حادثۂ	-10463
▁دوانی	-10464
▁رمزیت	-10465
▁سدھار	-10466
▁طبیعی	-10467
▁طریقۂ	-10468
▁طشتری	-10469
▁طلایی	-10470
▁طلسمی	-10471
▁ظاہری	-10472
▁ظہوری	-10473
▁عارضہ	-10474
▁عاریت	-10475
▁عشووں	-10476
▁عطارد	-10477
▁علاقے	-10478
▁علاوہ	-10479
▁علایق	-10480
▁عنادل	-10481
▁عندیہ	-10482
▁عیبوں	-10483
▁غزنوی	-10484
▁غلطاں	-10485
▁غلطیہ	-10486
▁غنچگی	-10487
▁غواصی	-10488
▁فارسی	-10489
▁فتنوں	-10490
▁فتیلہ	-10491
▁فراخی	-10492
▁فرقوں	-10493
▁فرماو	-10494
▁فرمود	-10495
▁فروشی	-10496
▁فصاحت	-10497
▁فصدیں	-10498
▁فہرست	-10499
خط	-10500
نف	-10501
خرا	-10502
ضاع	-10503
فشہ	-10504
قید	-10505
ندن	-10506
نیر	-10507
ییم	-10508
▁لل	-10509
اشیہ	-10510
العہ	-10511
سمیں	-10512
فیلی	-10513
نیری	-10514
▁اجر	-10515
▁اسم	-10516
▁الط	-10517
▁اکا	-10518
▁برش	-10519
▁تیل	-10520
▁ساہ	-10521
▁سرس	-10522
▁سیج	-10523
▁فون	-10524
▁قتا	-10525
▁ڈار	-10526
▁کاہ	-10527
▁الفر	-10528
▁اٹھو	-10529
▁بارہ	-10530
▁زندی	-10531
▁سالم	-10532
▁ساہو	-10533
▁ستاو	-10534
▁فخرا	-10535
▁قصاب	-10536
▁لللہ	-10537
▁لییم	-10538
▁مرگی	-10539
▁مصنف	-10540
▁نبات	-10541
▁نظیر	-10542
▁نعرہ	-10543
▁نقاد	-10544
▁نوخط	-10545
▁پارس	-10546
▁کستا	-10547
▁کندن	-10548
▁کڑوا	-10549
▁گھنا	-10550
اہرانہ	-10551
▁اعزاز	-10552
▁الطاف	-10553
▁اوضاع	-10554
▁اٹھکھ	-10555
▁بلاتی	-10556
▁بناتا	-10557
▁بناوٹ	-10558
▁بنفشہ	-10559
▁بیٹھو	-10560
▁تعبوں	-10561
▁تنقید	-10562
▁تیراک	-10563
▁حاشیہ	-10564
▁خدارا	-10565
▁رفویے	-10566
▁سرسری	-10567
▁طریقہ	-10568
▁قافلۂ	-10569
▁قبریں	-10570
▁قتالہ	-10571
▁قدریں	-10572
▁قرینے	-10573
▁قسمیں	-10574
▁قصبوں	-10575
▁قمقمہ	-10576
▁قوافی	-10577
▁قیصری	-10578
▁لاویں	-10579
▁لاٹھی	-10580
▁لبالب	-10581
▁لولاک	-10582
▁لوٹنا	-10583
▁لوٹیو	-10584
▁لٹاتی	-10585
▁لٹایے	-10586
▁لٹکتا	-10587
▁لپٹنا	-10588
▁لپٹیں	-10589
▁لڑکھڑ	-10590
▁لگانی	-10591
▁لگاوے	-10592
▁لہلہا	-10593
▁لہکتا	-10594
▁لیسنس	-10595
▁ماورا	-10596
▁ماہری	-10597
▁ماہیت	-10598
▁مایدۂ	-10599
دؔ	-10600
لط	-10601
یظ	-10602
لاو	-10603
لیت	-10604
وسر	-10605
ٹنی	-10606
ڑنے	-10607
ہات	-10608
ہوی	-10609
▁تگ	-10610
▁تۂ	-10611
▁لج	-10612
اشدؔ	-10613
اندن	-10614
طرنج	-10615
ودگی	-10616
یدار	-10617
▁برن	-10618
▁جیح	-10619
▁دنگ	-10620
▁سار	-10621
▁غیظ	-10622
▁لبا	-10623
▁متب	-10624
▁نہہ	-10625
▁ورم	-10626
اندار	-10627
بولیت	-10628
▁المی	-10629
▁انوک	-10630
▁بادی	-10631
▁بوقت	-10632
▁تاڑا	-10633
▁تجری	-10634
▁تسلط	-10635
▁جلیں	-10636
▁رخنۂ	-10637
▁روگی	-10638
▁صبور	-10639
▁نافہ	-10640
▁نواب	-10641
▁نٹنی	-10642
▁چوسر	-10643
▁ڈھنگ	-10644
▁افتاد	-10645
▁الباب	-10646
▁المیہ	-10647
▁باربد	-10648
▁بلبلہ	-10649
▁تجرید	-10650
▁جتلاو	-10651
▁جگانا	-10652
▁جیحوں	-10653
▁حواری	-10654
▁داراں	-10655
▁دہکتے	-10656
▁راشدؔ	-10657
▁رلاتا	-10658
▁رندھے	-10659
▁سناسی	-10660
▁شطرنج	-10661
▁عجایب	-10662
▁لجاتے	-10663
▁لمحات	-10664
▁لٹاتے	-10665
▁ماتوں	-10666
▁ماتیں	-10667
▁مایگی	-10668
▁متبسم	-10669
▁متعلق	-10670
▁متفرق	-10671
▁متمتع	-10672
▁متکبر	-10673
▁مجتنب	-10674
▁مجنون	-10675
▁محزوں	-10676
▁محصول	-10677
▁محلوں	-10678
▁مخلوق	-10679
▁مدانی	-10680
▁مدرسہ	-10681
▁مدفون	-10682
▁مراحل	-10683
▁مرتبہ	-10684
▁مرثیے	-10685
▁مرداں	-10686
▁مردوں	-10687
▁مرہون	-10688
▁مزدور	-10689
▁مسیلے	-10690
▁مشاطہ	-10691
▁مشتہر	-10692
▁مشربی	-10693
▁مشغول	-10694
▁مشورے	-10695
▁مشہود	-10696
▁مصطفی	-10697
▁مضبوط	-10698
▁مطعون	-10699
ٹر	-10700
اید	-10701
ایں	-10702
لوٹ	-10703
کیش	-10704
ینے	-10705
▁عہ	-10706
▁لن	-10707
▁گڑ	-10708
انٹر	-10709
▁ابھ	-10710
▁اہر	-10711
▁بدع	-10712
▁جمے	-10713
▁خشم	-10714
▁رجا	-10715
▁زبر	-10716
▁شاق	-10717
▁غلغ	-10718
▁لڑے	-10719
▁لیل	-10720
▁پرن	-10721
▁کوٹ	-10722
▁گاڑ	-10723
▁ہور	-10724
▁اتیں	-10725
▁اخرت	-10726
▁اشتی	-10727
▁تلوے	-10728
▁جلوا	-10729
▁جھنک	-10730
▁حداد	-10731
▁دانے	-10732
▁دوہر	-10733
▁سخنی	-10734
▁صادق	-10735
▁عہدہ	-10736
▁محلہ	-10737
▁کایا	-10738
▁کہنہ	-10739
▁گاتا	-10740
▁گالے	-10741
▁گننے	-10742
▁اجارا	-10743
▁اٹھیے	-10744
▁اہرمن	-10745
▁باایں	-10746
▁بارود	-10747
▁بدعمل	-10748
▁بدکیش	-10749
▁بلاتا	-10750
▁بوریے	-10751
▁بھاگی	-10752
▁رسانی	-10753
▁رہوار	-10754
▁سعادت	-10755
▁سلسلا	-10756
▁سماعت	-10757
▁عقاید	-10758
▁غلغلہ	-10759
▁قاصدا	-10760
▁لہلوٹ	-10761
▁معبود	-10762
▁معرفت	-10763
▁معروف	-10764
▁معرکۂ	-10765
▁معصیت	-10766
▁معیوب	-10767
▁مغبچہ	-10768
▁مغربی	-10769
▁مفتون	-10770
▁مقدار	-10771
▁مقروض	-10772
▁ملاتے	-10773
▁ملانے	-10774
▁ملبوں	-10775
▁ملوگے	-10776
▁ممبری	-10777
▁مملکت	-10778
▁منافق	-10779
▁مناوں	-10780
▁منجمل	-10781
▁منحصر	-10782
▁منقار	-10783
▁منواو	-10784
▁منڈیر	-10785
▁موافق	-10786
▁مولود	-10787
▁موکھے	-10788
▁موہوم	-10789
▁مٹاتا	-10790
▁مچایا	-10791
▁مکوکب	-10792
▁مکھڑے	-10793
▁مہندی	-10794
▁مہینے	-10795
▁میراؔ	-10796
▁میزاب	-10797
▁میٹھا	-10798
▁میکدۂ	-10799
سٹ	-10800
عاش	-10801
قعی	-10802
ناع	-10803
ییو	-10804
▁ڈب	-10805
▁ید	-10806
اریں	-10807
دمان	-10808
یبان	-10809
▁تزل	-10810
▁جتن	-10811
▁حجت	-10812
▁خشن	-10813
▁خنک	-10814
▁دلق	-10815
▁زیں	-10816
▁سبل	-10817
▁شار	-10818
▁شرق	-10819
▁شنو	-10820
▁ڈبڈ	-10821
▁گزا	-10822
▁ہیر	-10823
ھریاں	-10824
▁اونٹ	-10825
▁اگتے	-10826
▁باکی	-10827
▁تہاں	-10828
▁جلاو	-10829
▁درجے	-10830
▁دلیر	-10831
▁دھپا	-10832
▁راول	-10833
▁رتبے	-10834
▁رچنا	-10835
▁سرسر	-10836
▁صناع	-10837
▁علوم	-10838
▁فرسٹ	-10839
▁لیہو	-10840
▁نامع	-10841
▁نحیف	-10842
▁ننھا	-10843
▁نکما	-10844
▁چارے	-10845
▁کرمک	-10846
▁کسان	-10847
▁کمین	-10848
▁کھاٹ	-10849
▁گزیر	-10850
▁گزیں	-10851
ضاحتیں	-10852
▁اصولی	-10853
▁بشارت	-10854
▁بہکنے	-10855
▁بیکلی	-10856
▁ترانی	-10857
▁تزلزل	-10858
▁جاییو	-10859
▁جتنوں	-10860
▁خوردۂ	-10861
▁ستارا	-10862
▁ستانی	-10863
▁شاداں	-10864
▁شرارا	-10865
▁صلایے	-10866
▁ظرفوں	-10867
▁فاتحہ	-10868
▁قدیمی	-10869
▁لٹاتا	-10870
▁معترف	-10871
▁میکشی	-10872
▁نادار	-10873
▁ناساز	-10874
▁ناسخؔ	-10875
▁نامرد	-10876
▁ناچتا	-10877
▁ناگاہ	-10878
▁نباتی	-10879
▁نتیجے	-10880
▁نجومی	-10881
▁ندارم	-10882
▁نراسی	-10883
▁نرالا	-10884
▁نسلوں	-10885
▁نشینی	-10886
▁نظارا	-10887
▁نظموں	-10888
▁نقابی	-10889
▁نوالے	-10890
▁نکھرا	-10891
▁نگھرے	-10892
▁نہالی	-10893
▁نہایا	-10894
▁نہریں	-10895
▁نیارے	-10896
▁نیروے	-10897
▁نیساں	-10898
▁نیمچے	-10899
اکا	-10900
درہ	-10901
سوز	-10902
سیخ	-10903
شکش	-10904
قسم	-10905
قیم	-10906
▁ذی	-10907
اندۂ	-10908
تارے	-10909
▁توش	-10910
▁درا	-10911
▁زمن	-10912
▁سپن	-10913
▁شبی	-10914
▁شقی	-10915
▁فرب	-10916
▁لوث	-10917
▁نفر	-10918
▁وحش	-10919
▁کمک	-10920
▁کھج	-10921
▁اشام	-10922
▁اصیل	-10923
▁البم	-10924
▁اویس	-10925
▁ایاز	-10926
▁بستم	-10927
▁بھٹی	-10928
▁ترشی	-10929
▁ترین	-10930
▁تودہ	-10931
▁توشۂ	-10932
▁جملہ	-10933
▁جنبہ	-10934
▁رخوں	-10935
▁ساگر	-10936
▁سدرہ	-10937
▁سرفر	-10938
▁سفرہ	-10939
▁سنکھ	-10940
▁سنگت	-10941
▁سیتی	-10942
▁سینگ	-10943
▁شبان	-10944
▁شباہ	-10945
▁قداں	-10946
▁مقیم	-10947
▁وارا	-10948
▁ڈاکا	-10949
▁ڈھلو	-10950
▁کھدا	-10951
▁کھرا	-10952
▁کیجو	-10953
▁ہادی	-10954
▁اجداد	-10955
▁اوازہ	-10956
▁تنسیخ	-10957
▁توڑوں	-10958
▁حوران	-10959
▁دعایے	-10960
▁راندۂ	-10961
▁سنبلہ	-10962
▁شباہت	-10963
▁فربہی	-10964
▁قسمتی	-10965
▁لعلیں	-10966
▁لوٹوں	-10967
▁محباں	-10968
▁منقسم	-10969
▁وارنا	-10970
▁واسطا	-10971
▁واعظا	-10972
▁واعظو	-10973
▁واقعی	-10974
▁واقعے	-10975
▁وحشتے	-10976
▁وسیلہ	-10977
▁وہموں	-10978
▁ٹالنے	-10979
▁ٹالیں	-10980
▁ٹانکو	-10981
▁ٹوکتا	-10982
▁ٹہلتے	-10983
▁ٹیلوں	-10984
▁پاداش	-10985
▁پازند	-10986
▁پاشنہ	-10987
▁پانسہ	-10988
▁پایاں	-10989
▁پاینچ	-10990
▁پتوار	-10991
▁پرایی	-10992
▁پرخاش	-10993
▁پرخوں	-10994
▁پردگی	-10995
▁پردیش	-10996
▁پرسان	-10997
▁پرسوز	-10998
▁پرویں	-10999
گہ	-11000
اغل	-11001
بوہ	-11002
انوا	-11003
اییں	-11004
زباں	-11005
گیاں	-11006
▁اٹے	-11007
▁بچو	-11008
▁جہد	-11009
▁جیم	-11010
▁جیو	-11011
▁حسی	-11012
▁سمک	-11013
▁سنپ	-11014
▁طاس	-11015
▁عسل	-11016
▁قزا	-11017
▁منس	-11018
▁کوس	-11019
▁گسی	-11020
▁ہمر	-11021
کراتا	-11022
▁اجلی	-11023
▁اکھا	-11024
▁بستا	-11025
▁بسری	-11026
▁بوسی	-11027
▁بولو	-11028
▁بیلہ	-11029
▁تراب	-11030
▁تکبر	-11031
▁جناں	-11032
▁جھول	-11033
▁رازق	-11034
▁زنان	-11035
▁عظیم	-11036
▁قزاق	-11037
▁لیلے	-11038
▁مشہد	-11039
▁ملوں	-11040
▁وروں	-11041
▁پودا	-11042
▁کاسی	-11043
▁کاوی	-11044
▁ہنری	-11045
▁العین	-11046
▁الٹتے	-11047
▁انبوہ	-11048
▁ایینا	-11049
▁بسانی	-11050
▁بستگی	-11051
▁بندوق	-11052
▁حالوں	-11053
▁سنانی	-11054
▁سنپول	-11055
▁سوجھا	-11056
▁سہانی	-11057
▁سہیلی	-11058
▁شہباز	-11059
▁لطافت	-11060
▁متیاں	-11061
▁مسدود	-11062
▁مشاغل	-11063
▁منسلک	-11064
▁ناحیے	-11065
▁ندیاں	-11066
▁نوروز	-11067
▁پالسی	-11068
▁پریتم	-11069
▁پریوں	-11070
▁پسینہ	-11071
▁پلاتے	-11072
▁پلایی	-11073
▁پلٹتا	-11074
▁پناوے	-11075
▁پنچھی	-11076
▁پوجنا	-11077
▁پوروں	-11078
▁پٹکتا	-11079
▁پٹکنے	-11080
▁پڑھتا	-11081
▁پکڑتے	-11082
▁پھانس	-11083
▁پھاڑے	-11084
▁پھریے	-11085
▁پھسلی	-11086
▁پھلتے	-11087
▁پھندے	-11088
▁پھنکے	-11089
▁پھوٹا	-11090
▁پھوٹی	-11091
▁پھکنی	-11092
▁پیادے	-11093
▁پیرزن	-11094
▁پیروی	-11095
▁پیشکش	-11096
▁پیوست	-11097
▁پیٹتے	-11098
▁چاندی	-11099
حا	-11100
شہی	-11101
غیب	-11102
ھام	-11103
ہبی	-11104
▁طہ	-11105
انچہ	-11106
سرتا	-11107
نیوں	-11108
یشیا	-11109
▁امم	-11110
▁بھڑ	-11111
▁تکا	-11112
▁سول	-11113
▁سہم	-11114
▁غرف	-11115
▁نبی	-11116
▁گہی	-11117
اندلی	-11118
حسرتا	-11119
▁امدہ	-11120
▁اکھڑ	-11121
▁اگیں	-11122
▁بجان	-11123
▁بطحا	-11124
▁بگاڑ	-11125
▁تبدل	-11126
▁تھرڈ	-11127
▁خویش	-11128
▁دھام	-11129
▁دیول	-11130
▁دیوی	-11131
▁رہیو	-11132
▁سستا	-11133
▁شہاب	-11134
▁عہدے	-11135
▁غرفہ	-11136
▁قسمے	-11137
▁لبیک	-11138
▁مشین	-11139
▁نکمے	-11140
▁وصلت	-11141
▁چھنے	-11142
▁کاہی	-11143
▁کستی	-11144
▁اترنے	-11145
▁افتوں	-11146
▁ایشیا	-11147
▁بولنا	-11148
▁بھرنا	-11149
▁ترغیب	-11150
▁جگاتی	-11151
▁خطایے	-11152
▁درستی	-11153
▁دلانا	-11154
▁رہایش	-11155
▁عمریں	-11156
▁فرقاں	-11157
▁قافیہ	-11158
▁لکھیے	-11159
▁مذہبی	-11160
▁مستوں	-11161
▁مسلتی	-11162
▁ناقوس	-11163
▁وارنش	-11164
▁پیادہ	-11165
▁چاہنا	-11166
▁چراتے	-11167
▁چرانا	-11168
▁چشمگی	-11169
▁چشیدہ	-11170
▁چقماق	-11171
▁چلاتا	-11172
▁چمکاو	-11173
▁چنگیز	-11174
▁چومیں	-11175
▁چوگنی	-11176
▁چڑیاں	-11177
▁چکایی	-11178
▁چھایے	-11179
▁چھتوں	-11180
▁چھلنی	-11181
▁چھٹکی	-11182
▁چھپنا	-11183
▁چھڑکا	-11184
▁چھیلے	-11185
▁چھینا	-11186
▁چھینی	-11187
▁چہکار	-11188
▁چیخنے	-11189
▁چیخوں	-11190
▁چیروں	-11191
▁چیلوں	-11192
▁چینوں	-11193
▁ڈالیے	-11194
▁ڈانوا	-11195
▁ڈبونی	-11196
▁ڈبویے	-11197
▁ڈبڈبا	-11198
▁ڈراتی	-11199
بلک	-11200
طرتی	-11201
وندا	-11202
▁باڑ	-11203
▁تلف	-11204
▁جمن	-11205
▁ذکا	-11206
▁سجے	-11207
▁شدۂ	-11208
▁ضای	-11209
▁لٹی	-11210
▁نسر	-11211
▁ٹھن	-11212
▁گجر	-11213
▁انشا	-11214
▁برسی	-11215
▁بندو	-11216
▁بووے	-11217
▁بھوں	-11218
▁بیعت	-11219
▁ترسا	-11220
▁تریا	-11221
▁توشک	-11222
▁جلیے	-11223
▁خایی	-11224
▁دستہ	-11225
▁سمعۂ	-11226
▁سکنڈ	-11227
▁شمال	-11228
▁صفوں	-11229
▁ضایع	-11230
▁عذرا	-11231
▁لباں	-11232
▁معشو	-11233
▁مٹتی	-11234
▁ناتا	-11235
▁نشست	-11236
▁نشین	-11237
▁نوام	-11238
▁نوکر	-11239
▁پبلک	-11240
▁کاٹی	-11241
▁گرجا	-11242
▁الرسل	-11243
▁بلبلے	-11244
▁بچانا	-11245
▁ترایی	-11246
▁حنایے	-11247
▁حیرتی	-11248
▁دعویے	-11249
▁دلدار	-11250
▁دکھتے	-11251
▁راہبی	-11252
▁زندیق	-11253
▁شخصیت	-11254
▁طومار	-11255
▁فطرتی	-11256
▁قرباں	-11257
▁مارتا	-11258
▁مانگی	-11259
▁ملاتی	-11260
▁ناموں	-11261
▁نسبوں	-11262
▁نسریں	-11263
▁واروں	-11264
▁پرکھا	-11265
▁چلانے	-11266
▁ڈوبتی	-11267
▁ڈوبیں	-11268
▁ڈولیں	-11269
▁ڈھانپ	-11270
▁ڈھاکہ	-11271
▁ڈھلتا	-11272
▁ڈھلکی	-11273
▁ڈھوتا	-11274
▁کاتیں	-11275
▁کارگہ	-11276
▁کالبد	-11277
▁کانپے	-11278
▁کاوسی	-11279
▁کاٹتی	-11280
▁کاٹتے	-11281
▁کاٹنا	-11282
▁کبریا	-11283
▁کبھار	-11284
▁کترنا	-11285
▁کتنوں	-11286
▁کثافت	-11287
▁کرانی	-11288
▁کرسمس	-11289
▁کروگے	-11290
▁کسوٹی	-11291
▁کشایش	-11292
▁کشودہ	-11293
▁کلیاں	-11294
▁کلیجے	-11295
▁کمایا	-11296
▁کمھلا	-11297
▁کندھا	-11298
▁کندھے	-11299
حرف	-11300
منٹ	-11301
یفۂ	-11302
نوبر	-11303
ورتن	-11304
ٹایا	-11305
▁ارد	-11306
▁اری	-11307
▁ایت	-11308
▁ایو	-11309
▁بجے	-11310
▁ریل	-11311
▁عود	-11312
▁ملخ	-11313
▁مہہ	-11314
▁نثر	-11315
▁کسل	-11316
▁کوب	-11317
▁اڑنا	-11318
▁اڑیں	-11319
▁بانو	-11320
▁بیٹا	-11321
▁بیٹی	-11322
▁تاسی	-11323
▁ترسے	-11324
▁جلوس	-11325
▁جودت	-11326
▁جھکے	-11327
▁خارہ	-11328
▁خانا	-11329
▁خاور	-11330
▁خورد	-11331
▁دیوے	-11332
▁زخمہ	-11333
▁زنوں	-11334
▁عرصے	-11335
▁لہنا	-11336
▁لیٹا	-11337
▁ماتے	-11338
▁مناو	-11339
▁نگہد	-11340
▁چنوں	-11341
▁چھٹی	-11342
▁کبود	-11343
▁کروڑ	-11344
▁کسوت	-11345
▁کھپا	-11346
▁گاہک	-11347
▁باراں	-11348
▁بھاتے	-11349
▁بہاتے	-11350
▁دمکتا	-11351
▁ذریعہ	-11352
▁سنجوں	-11353
▁شکنوں	-11354
▁صحیفۂ	-11355
▁صنوبر	-11356
▁طرازی	-11357
▁غاروں	-11358
▁لاکھے	-11359
▁مساعد	-11360
▁ممکنہ	-11361
▁منحرف	-11362
▁مہنگی	-11363
▁نورتن	-11364
▁نہاتی	-11365
▁وانٹر	-11366
▁پوچھی	-11367
▁چرایے	-11368
▁چڑھاو	-11369
▁چیرتا	-11370
▁کودتے	-11371
▁کودنی	-11372
▁کودکی	-11373
▁کوٹھے	-11374
▁کٹایا	-11375
▁کٹورا	-11376
▁کپڑوں	-11377
▁کڑیوں	-11378
▁کھدیڑ	-11379
▁کھنچی	-11380
▁کھونی	-11381
▁کھووے	-11382
▁کھٹکے	-11383
▁کیفیؔ	-11384
▁گالوں	-11385
▁گرامی	-11386
▁گرایا	-11387
▁گرتیں	-11388
▁گزرنی	-11389
▁گزیدہ	-11390
▁گستری	-11391
▁گلباز	-11392
▁گلچین	-11393
▁گمرہی	-11394
▁گنواو	-11395
▁گورکن	-11396
▁گونجے	-11397
▁گھایل	-11398
▁گھسنے	-11399
یاس	-11400
ہانہ	-11401
یارہ	-11402
▁دھل	-11403
▁ستد	-11404
▁غرۂ	-11405
▁ورع	-11406
▁چیت	-11407
▁کدو	-11408
یاروں	-11409
▁احمد	-11410
▁انہم	-11411
▁بدوش	-11412
▁بچتے	-11413
▁بچنگ	-11414
▁ترنم	-11415
▁تھکا	-11416
▁جمتی	-11417
▁خصال	-11418
▁دھبا	-11419
▁زجاج	-11420
▁سمیت	-11421
▁سوسن	-11422
▁شگون	-11423
▁شہری	-11424
▁طناب	-11425
▁عجمی	-11426
▁عربی	-11427
▁واہی	-11428
▁ورود	-11429
▁پاسخ	-11430
▁پریم	-11431
▁ڈسنے	-11432
▁اداوں	-11433
▁الیاس	-11434
▁اڑاتی	-11435
▁بازان	-11436
▁بچیاں	-11437
▁تھمتی	-11438
▁جمانا	-11439
▁جنبان	-11440
▁جھاڑا	-11441
▁خرابہ	-11442
▁دبانا	-11443
▁دلاتا	-11444
▁دوپٹے	-11445
▁دکھوں	-11446
▁ذریعۂ	-11447
▁سلونا	-11448
▁سماتا	-11449
▁سوچنے	-11450
▁سیارہ	-11451
▁فریبم	-11452
▁لکھنی	-11453
▁مشاطۂ	-11454
▁مقتضا	-11455
▁مٹانا	-11456
▁مٹایی	-11457
▁مہنگے	-11458
▁نیامی	-11459
▁پایاب	-11460
▁پرواہ	-11461
▁پروتا	-11462
▁چبھیں	-11463
▁چھپنے	-11464
▁کراتا	-11465
▁گراتا	-11466
▁گھونپ	-11467
▁گھڑنے	-11468
▁گھیرے	-11469
▁ہرزگی	-11470
▁ہزیمت	-11471
▁ہلاتی	-11472
▁ہمتاب	-11473
▁ہمدرد	-11474
▁ہمراز	-11475
▁ہمراہ	-11476
▁ہمرہی	-11477
▁ہوجیو	-11478
▁ہوویں	-11479
▁ہویدا	-11480
▁ہیہات	-11481
▁یاسمن	-11482
▁یزداں	-11483
▁یقینی	-11484
▁یوسفؔ	-11485
▁یگانے	-11486
▁ابداری	-11487
▁ابرووں	-11488
▁ابستنی	-11489
▁ابنایے	-11490
▁ابھارا	-11491
▁ابھرتے	-11492
▁اتارتا	-11493
▁اتارنا	-11494
▁اتارنے	-11495
▁اتراتا	-11496
▁اتشکدہ	-11497
▁احمقوں	-11498
▁اختلاج	-11499
وبے	-11500
وسن	-11501
یام	-11502
شینہ	-11503
▁باف	-11504
▁تاڑ	-11505
▁تعب	-11506
▁خفی	-11507
▁سچے	-11508
▁شرک	-11509
▁عقب	-11510
▁قوس	-11511
▁لٹے	-11512
▁پٹے	-11513
▁کڑے	-11514
ریزوں	-11515
▁انجہ	-11516
▁بنیے	-11517
▁بچشم	-11518
▁بھنا	-11519
▁بہکی	-11520
▁بیٹے	-11521
▁بیڑا	-11522
▁تابش	-11523
▁تابع	-11524
▁تصرف	-11525
▁تنفس	-11526
▁جوڑے	-11527
▁راتو	-11528
▁رکنے	-11529
▁سہتی	-11530
▁شہرا	-11531
▁طوبی	-11532
▁فسان	-11533
▁لڑتے	-11534
▁مکھی	-11535
▁نقشا	-11536
▁نگہہ	-11537
▁پلٹا	-11538
▁پہرہ	-11539
▁چھڑی	-11540
▁کالا	-11541
▁کسنے	-11542
▁کنگر	-11543
▁گاڑے	-11544
▁گوٹے	-11545
▁اشیان	-11546
▁اندود	-11547
▁اندھے	-11548
▁اپمان	-11549
▁تراشی	-11550
▁ترانۂ	-11551
▁رہبری	-11552
▁سببوں	-11553
▁سمتیں	-11554
▁سمیٹا	-11555
▁شرارے	-11556
▁فالتو	-11557
▁مانگو	-11558
▁میزاں	-11559
▁نواوں	-11560
▁ٹوٹتا	-11561
▁ٹوٹنا	-11562
▁ٹہلنا	-11563
▁پڑوسن	-11564
▁چاردہ	-11565
▁چلتیں	-11566
▁ڈراتے	-11567
▁ڈرانے	-11568
▁کتمان	-11569
▁کھوٹے	-11570
▁گردون	-11571
▁اخفایے	-11572
▁ادمیوں	-11573
▁ادھڑتے	-11574
▁اذانوں	-11575
▁اذیتوں	-11576
▁اراستہ	-11577
▁ارتباط	-11578
▁ارتعاش	-11579
▁ارزدگی	-11580
▁ارغنوں	-11581
▁ازادوں	-11582
▁ازادگی	-11583
▁ازبسکہ	-11584
▁ازرانہ	-11585
▁ازردہؔ	-11586
▁ازماتے	-11587
▁ازماوں	-11588
▁استانہ	-11589
▁استانۂ	-11590
▁استانی	-11591
▁استماع	-11592
▁اسودگی	-11593
▁اسیروں	-11594
▁اشتراک	-11595
▁اشتہار	-11596
▁اشیانی	-11597
▁اشیانے	-11598
▁اصطکاک	-11599
ڑکی	-11600
▁زاغ	-11601
▁مرو	-11602
▁ٹٹی	-11603
▁باسن	-11604
▁بوتا	-11605
▁بکتے	-11606
▁بیاض	-11607
▁تپتی	-11608
▁رفتن	-11609
▁زہرا	-11610
▁مغنی	-11611
▁نیوش	-11612
▁پلتے	-11613
▁چپکا	-11614
▁چھیل	-11615
▁کتبہ	-11616
▁کساں	-11617
▁کھٹی	-11618
▁گلیم	-11619
▁گھٹی	-11620
▁ہمسر	-11621
▁اترنا	-11622
▁افگار	-11623
▁اللہی	-11624
▁انجیل	-11625
▁بلاول	-11626
▁جانتی	-11627
▁جلسوں	-11628
▁جھڑکی	-11629
▁خودوں	-11630
▁درگاہ	-11631
▁دھرتا	-11632
▁دھنیے	-11633
▁زمانۂ	-11634
▁سرایت	-11635
▁سڑکیں	-11636
▁صبحوں	-11637
▁مشورت	-11638
▁نگارے	-11639
▁نیلام	-11640
▁پھندا	-11641
▁پھیرے	-11642
▁چلاتی	-11643
▁کھاوں	-11644
▁گناتا	-11645
▁اتراتے	-11646
▁اضطرار	-11647
▁اعتراض	-11648
▁افتادۂ	-11649
▁افرنگی	-11650
▁افروزی	-11651
▁افزایش	-11652
▁افزایی	-11653
▁افلاکی	-11654
▁الاپوں	-11655
▁الجھتا	-11656
▁الجھوں	-11657
▁الفرصت	-11658
▁المثال	-11659
▁الوندی	-11660
▁الکٹرک	-11661
▁اماموں	-11662
▁امروہے	-11663
▁امنڈتی	-11664
▁انبساط	-11665
▁انتفاع	-11666
▁انجانے	-11667
▁انجمنی	-11668
▁انشایے	-11669
▁انفصال	-11670
▁انوکھی	-11671
▁انڈیلو	-11672
▁انگارے	-11673
▁انگشتر	-11674
▁انگنوں	-11675
▁انگیزی	-11676
▁انہماک	-11677
▁اوازیں	-11678
▁اوڑھتے	-11679
▁اپناتا	-11680
▁اپنانا	-11681
▁اچھالا	-11682
▁اچھلتا	-11683
▁اچھلتی	-11684
▁اچھلنا	-11685
▁اڑاییے	-11686
▁اکتارے	-11687
▁اکسانے	-11688
▁اکلوتا	-11689
▁اکھاڑے	-11690
▁اگاییں	-11691
▁اہستگی	-11692
▁ایجادی	-11693
▁ایفایے	-11694
▁اینٹوں	-11695
▁ایڑیوں	-11696
▁ایینوں	-11697
▁بادشہی	-11698
▁بارشوں	-11699
▁بارگاہ	-11700
▁بازندہ	-11701
▁بالاخر	-11702
▁بالیدہ	-11703
▁بامراد	-11704
▁باندھی	-11705
▁بانسری	-11706
▁بانسلی	-11707
▁بانویے	-11708
▁بانکپن	-11709
▁بتلاتا	-11710
▁بتلاوں	-11711
▁بجھاتا	-11712
▁بجھایا	-11713
▁بدخشان	-11714
▁بدلیاں	-11715
▁برداری	-11716
▁بررویے	-11717
▁برساتی	-11718
▁برساتے	-11719
▁برفیلی	-11720
▁بستانی	-11721
▁بسملوں	-11722
▁بلبلوں	-11723
▁بلوریں	-11724
▁بنجارے	-11725
▁بندگان	-11726
▁بندھیں	-11727
▁بوستان	-11728
▁بوستاں	-11729
▁بوندوں	-11730
▁بوچھار	-11731
▁بٹھاتا	-11732
▁بچھڑیں	-11733
▁بڑھاوں	-11734
▁بڑھایا	-11735
▁بڑھایی	-11736
▁بکھیرا	-11737
▁بکھیڑے	-11738
▁بھالتا	-11739
▁بھاگنے	-11740
▁بھروسے	-11741
▁بھلاوں	-11742
▁بھولتا	-11743
▁بھولوں	-11744
▁بھونرے	-11745
▁بھٹکتا	-11746
▁بھٹکتے	-11747
▁بھٹکیں	-11748
▁بھڑکتی	-11749
▁بھڑکتے	-11750
▁بھکاری	-11751
▁بھگونا	-11752
▁بھگویے	-11753
▁بھیگوں	-11754
▁بہاییں	-11755
▁بہتیرے	-11756
▁بہلایا	-11757
▁بیانوں	-11758
▁بیراگی	-11759
▁بیٹھتے	-11760
▁بیٹیاں	-11761
▁تابشیں	-11762
▁تابندہ	-11763
▁تابیاں	-11764
▁تامحیط	-11765
▁تخیلات	-11766
▁تراشتے	-11767
▁تربتیں	-11768
▁تریاکی	-11769
▁تسلیوں	-11770
▁تلاشیں	-11771
▁تمناوں	-11772
▁تواریخ	-11773
▁توانوں	-11774
▁تڑپایا	-11775
▁تھوکتے	-11776
▁تیلیوں	-11777
▁جانکاہ	-11778
▁جاودان	-11779
▁جتاییے	-11780
▁جنبانی	-11781
▁جوابوں	-11782
▁جوتیوں	-11783
▁جوشیاں	-11784
▁جٹاییں	-11785
▁جگاییے	-11786
▁جھجکتے	-11787
▁جھجکنے	-11788
▁جھریاں	-11789
▁جھلکار	-11790
▁جھلکتا	-11791
▁جھلکتی	-11792
▁جھومتا	-11793
▁جھوٹوں	-11794
▁جھکانے	-11795
▁جھکاوں	-11796
▁جھیلیں	-11797
▁حاسداں	-11798
▁حالتیں	-11799
▁حجابات	-11800
▁حریصوں	-11801
▁حریفوں	-11802
▁حسابوں	-11803
▁حسیناں	-11804
▁حوصلوں	-11805
▁حکایات	-11806
▁حکمتیں	-11807
▁حیرتوں	-11808
▁خانمان	-11809
▁خدایان	-11810
▁خرابوں	-11811
▁خراجات	-11812
▁خراشیں	-11813
▁خسروان	-11814
▁خفتگاں	-11815
▁خفقانی	-11816
▁خواجگی	-11817
▁خواندن	-11818
▁خوانوں	-11819
▁خواہان	-11820
▁خوبیاں	-11821
▁خوردار	-11822
▁خونابہ	-11823
▁خیراتی	-11824
▁خیرباد	-11825
▁خیزیاں	-11826
▁دادگان	-11827
▁دارایی	-11828
▁داغدار	-11829
▁دامانی	-11830
▁دانایے	-11831
▁دانشور	-11832
▁دربانی	-11833
▁دردناک	-11834
▁دریافت	-11835
▁دزدیدہ	-11836
▁دفنانے	-11837
▁دفنایے	-11838
▁دفینوں	-11839
▁دلبران	-11840
▁دلبراں	-11841
▁دماوند	-11842
▁دنبالۂ	-11843
▁دنیاوی	-11844
▁دوانوں	-11845
▁دودمان	-11846
▁دورباش	-11847
▁دوریاں	-11848
▁دوریوں	-11849
▁دوشیزہ	-11850
▁دوشینہ	-11851
▁دولتاں	-11852
▁دوپہری	-11853
▁دکھلاو	-11854
▁دھانوں	-11855
▁دھرموں	-11856
▁دھندلی	-11857
▁دھوکوں	-11858
▁دھڑکنا	-11859
▁دہراتا	-11860
▁دہرایے	-11861
▁دہقانی	-11862
▁دیباچۂ	-11863
▁دیکھنی	-11864
▁رازدار	-11865
▁رانجھا	-11866
▁رسیدنی	-11867
▁رضامند	-11868
▁رفعتوں	-11869
▁رفعتیں	-11870
▁رنجوری	-11871
▁رندانا	-11872
▁روحانی	-11873
▁روشناس	-11874
▁روٹھتا	-11875
▁روٹھتے	-11876
▁روٹھنے	-11877
▁روٹیاں	-11878
▁رویداد	-11879
▁رہنموں	-11880
▁رینگتی	-11881
▁زانووں	-11882
▁زاہداں	-11883
▁زایروں	-11884
▁زبانوں	-11885
▁زبانیں	-11886
▁زخمیوں	-11887
▁زعفراں	-11888
▁زمستاں	-11889
▁زنخدان	-11890
▁زندیقی	-11891
▁زنگاری	-11892
▁ساتواں	-11893
▁سازگار	-11894
▁سازیاں	-11895
▁ساعتوں	-11896
▁سامراج	-11897
▁سامعین	-11898
▁سانحات	-11899
▁سانولی	-11900
▁سایبان	-11901
▁ساییگی	-11902
▁ستاییں	-11903
▁سجاییں	-11904
▁سجھایی	-11905
▁سجھایے	-11906
▁سدھاری	-11907
▁سدھرنے	-11908
▁سراہنے	-11909
▁سرخوشی	-11910
▁سرشتاں	-11911
▁سرکایی	-11912
▁سرگشتۂ	-11913
▁سرگوشی	-11914
▁سفیہوں	-11915
▁سلوانے	-11916
▁سمجھاو	-11917
▁سمجھنا	-11918
▁سمجھنی	-11919
▁سناییؔ	-11920
▁سنجیدہ	-11921
▁سنواری	-11922
▁سنگھار	-11923
▁سوجھتا	-11924
▁سوزشیں	-11925
▁سومنات	-11926
▁سونپیں	-11927
▁سوییاں	-11928
▁سپاہیں	-11929
▁سکھیاں	-11930
▁سہاروں	-11931
▁سیاہاں	-11932
▁شاعروں	-11933
▁شاہانہ	-11934
▁شاہدان	-11935
▁شبستان	-11936
▁شرمانا	-11937
▁شرمایا	-11938
▁شرمایی	-11939
▁شرمگیں	-11940
▁شریفوں	-11941
▁شناساں	-11942
▁شناسوں	-11943
▁شنوایی	-11944
▁شوریدۂ	-11945
▁شگوفوں	-11946
▁شہزادی	-11947
▁شہزادے	-11948
▁شہسوار	-11949
▁شیطانی	-11950
▁شیفتگی	-11951
▁صحراوں	-11952
▁صدہزار	-11953
▁صفیران	-11954
▁صفیروں	-11955
▁صلیبوں	-11956
▁صندلیں	-11957
▁ضمیروں	-11958
▁طالبان	-11959
▁طبیبوں	-11960
▁طلبگار	-11961
▁طلعتوں	-11962
▁طوبایے	-11963
▁طورمار	-11964
▁عارفوں	-11965
▁عاصیوں	-11966
▁عاقلوں	-11967
▁عزیزان	-11968
▁عیسایی	-11969
▁غارتگر	-11970
▁غریبان	-11971
▁غزالوں	-11972
▁غلتیدن	-11973
▁غلطانی	-11974
▁غوغایے	-11975
▁غیرتیں	-11976
▁فانوسی	-11977
▁فرزانہ	-11978
▁فرزندی	-11979
▁فرقتیں	-11980
▁فرماتی	-11981
▁فرمانے	-11982
▁فرمایا	-11983
▁فرمودۂ	-11984
▁فرہادؔ	-11985
▁فریفتہ	-11986
▁فریفتۂ	-11987
▁فصیلوں	-11988
▁فگاراں	-11989
▁فیصلوں	-11990
▁قافلوں	-11991
▁قسمتوں	-11992
▁قہقہوں	-11993
▁لالچوں	-11994
▁لاہوتی	-11995
▁لایعنی	-11996
▁لشکروں	-11997
▁لولویے	-11998
▁لہرانے	-11999
▁مالیدہ	-12000
▁ماندگی	-12001
▁مانگنا	-12002
▁مبالغے	-12003
▁مجبورا	-12004
▁مجذوبی	-12005
▁محاسبہ	-12006
▁محتاجی	-12007
▁محکومی	-12008
▁مدارات	-12009
▁مدعایے	-12010
▁مردگاں	-12011
▁مرغولہ	-12012
▁مریضان	-12013
▁مریضوں	-12014
▁مسافرو	-12015
▁مستانا	-12016
▁مستانی	-12017
▁مستانے	-12018
▁مستفسر	-12019
▁مستیاں	-12020
▁مسرتوں	-12021
▁مسکراو	-12022
▁مشاعرہ	-12023
▁مشاہدۂ	-12024
▁مشکبار	-12025
▁مشیروں	-12026
▁مطالعہ	-12027
▁معشوقی	-12028
▁معمورہ	-12029
▁معمولی	-12030
▁مفلساں	-12031
▁مقامات	-12032
▁ملکوتی	-12033
▁منجملۂ	-12034
▁منصوبے	-12035
▁منصورؔ	-12036
▁مواخذۂ	-12037
▁موافقت	-12038
▁موروثی	-12039
▁موسیقی	-12040
▁مولایے	-12041
▁موندنی	-12042
▁مٹھایی	-12043
▁مچانوں	-12044
▁مہمانی	-12045
▁مہینوں	-12046
▁میخانے	-12047
▁مینایی	-12048
▁میکشوں	-12049
▁میہمان	-12050
▁ناخنوں	-12051
▁ناداری	-12052
▁نارنجی	-12053
▁ناسازی	-12054
▁ناشناس	-12055
▁ناقبول	-12056
▁نالیدن	-12057
▁ناموری	-12058
▁ناپدید	-12059
▁ناپیدا	-12060
▁نباہتا	-12061
▁نباہتے	-12062
▁نباہیں	-12063
▁نبھاتے	-12064
▁نبھانا	-12065
▁نبھایی	-12066
▁نذرانہ	-12067
▁نزدیکی	-12068
▁نسبتیں	-12069
▁نظاموں	-12070
▁نواسنج	-12071
▁نواموز	-12072
▁نوایان	-12073
▁نواییں	-12074
▁نوجوان	-12075
▁نکالنا	-12076
▁نکالیں	-12077
▁نکشادہ	-12078
▁نکشودہ	-12079
▁نکھرتا	-12080
▁نکھرنے	-12081
▁نہاییں	-12082
▁نہنگوں	-12083
▁نیکیاں	-12084
▁وادیوں	-12085
▁وارفتہ	-12086
▁واقعات	-12087
▁وحشیوں	-12088
▁وزیروں	-12089
▁ٹانکتی	-12090
▁ٹٹولتے	-12091
▁ٹپکانے	-12092
▁ٹکراتا	-12093
▁ٹکرایی	-12094
▁ٹھکراو	-12095
▁ٹھہراو	-12096
▁ٹھہرتا	-12097
▁ٹھہرتے	-12098
▁پابوسی	-12099
▁پامالی	-12100
▁پایندہ	-12101
▁پاینچے	-12102
▁پتنگوں	-12103
▁پتھراو	-12104
▁پربتوں	-12105
▁پرنیاں	-12106
▁پروانۂ	-12107
▁پروردہ	-12108
▁پرکھتا	-12109
▁پرکھنے	-12110
▁پستیاں	-12111
▁پلوایی	-12112
▁پوچھتی	-12113
▁پکارتا	-12114
▁پگڈنڈی	-12115
▁پگھلنا	-12116
▁پھراتا	-12117
▁پھسلنے	-12118
▁پھنستا	-12119
▁پھنسوں	-12120
▁پھوٹتی	-12121
▁پھوٹنے	-12122
▁پھوڑتی	-12123
▁پھوڑیے	-12124
▁پھڑکتا	-12125
▁پھیرتا	-12126
▁پھیلیں	-12127
▁پہناتا	-12128
▁پہنچتی	-12129
▁پہنچنے	-12130
▁پہنچوں	-12131
▁پیاروں	-12132
▁پیاسوں	-12133
▁پیرانہ	-12134
▁پیرایۂ	-12135
▁پیرہنی	-12136
▁پیمانا	-12137
▁پیمایش	-12138
▁پیوستہ	-12139
▁پیوندی	-12140
▁چادروں	-12141
▁چاندنا	-12142
▁چمکاتی	-12143
▁چمکایا	-12144
▁چنانچہ	-12145
▁چنبیلی	-12146
▁چنگیزی	-12147
▁چوراہے	-12148
▁چٹکیاں	-12149
▁چڑھایے	-12150
▁چکراتے	-12151
▁چھریاں	-12152
▁چھلاوا	-12153
▁چھلکتا	-12154
▁چھناکا	-12155
▁چھوٹوں	-12156
▁چھوڑنا	-12157
▁چھوڑیو	-12158
▁چھپاتا	-12159
▁چھپانے	-12160
▁چھپاوں	-12161
▁چھپکلی	-12162
▁چھڑاتی	-12163
▁چھڑانا	-12164
▁چھڑکتا	-12165
▁چھیڑتے	-12166
▁چھیڑنا	-12167
▁چینیاں	-12168
▁چیونٹی	-12169
▁ڈاڑھیں	-12170
▁ڈوبایا	-12171
▁کارساز	-12172
▁کاریاں	-12173
▁کانپتے	-12174
▁کاکلیں	-12175
▁کروڑوں	-12176
▁کرگسوں	-12177
▁کستوری	-12178
▁کشتگان	-12179
▁کشتیاں	-12180
▁کشتیوں	-12181
▁کلیجوں	-12182
▁کمتریں	-12183
▁کڑھانا	-12184
▁کھاویں	-12185
▁کھاییو	-12186
▁کھجاتا	-12187
▁کھلانے	-12188
▁کھلاڑی	-12189
▁کھنچتے	-12190
▁کھودیں	-12191
▁کھولنا	-12192
▁کھولنے	-12193
▁کھولیو	-12194
▁کھوییں	-12195
▁کھٹکتے	-12196
▁کھپاتا	-12197
▁کھپانا	-12198
▁کھیلتا	-12199
▁کھیلیں	-12200
▁کھینچو	-12201
▁کہاروں	-12202
▁کہلانے	-12203
▁کیقباد	-12204
▁گالیوں	-12205
▁گدایاں	-12206
▁گردانی	-12207
▁گردیدہ	-12208
▁گرفتگی	-12209
▁گزارتا	-12210
▁گزاروں	-12211
▁گزشتگی	-12212
▁گساراں	-12213
▁گسیختہ	-12214
▁گلبانگ	-12215
▁گلدستہ	-12216
▁گلدستے	-12217
▁گلعذار	-12218
▁گمرہاں	-12219
▁گناہاں	-12220
▁گنتیوں	-12221
▁گنجینے	-12222
▁گنوانے	-12223
▁گنواوں	-12224
▁گنوایے	-12225
▁گونجتا	-12226
▁گونجیں	-12227
▁گھنگرو	-12228
▁گھنیری	-12229
▁گھولیے	-12230
▁گھونٹا	-12231
▁گہوارہ	-12232
▁گیرایی	-12233
▁ہتھیار	-12234
▁ہجرتوں	-12235
▁ہمزباں	-12236
▁ہمسایۂ	-12237
▁ہنساتا	-12238
▁ہنسانا	-12239
▁ہنسانے	-12240
▁ہنسایی	-12241
▁ہولناک	-12242
▁ہیجانی	-12243
▁یارانا	-12244
▁یارانے	-12245
▁یاسمیں	-12246
▁یعقوبؔ	-12247
▁یغمایی	-12248
▁یکتایے	-12249
▁یگانہؔ	-12250
▁اختیاری	-12251
▁ارایشیں	-12252
▁ارمانوں	-12253
▁ارمیدگی	-12254
▁استغراق	-12255
▁استقلال	-12256
▁اغوشیاں	-12257
▁افلاطوں	-12258
▁اقراروں	-12259
▁الجھاتا	-12260
▁الجھنوں	-12261
▁الحقیقت	-12262
▁امروہوی	-12263
▁انجانوں	-12264
▁انجہانی	-12265
▁اندھاری	-12266
▁انوراگی	-12267
▁انڈیلیں	-12268
▁انکاروں	-12269
▁انکھیوں	-12270
▁انگاروں	-12271
▁انگلینڈ	-12272
▁اوفتادہ	-12273
▁اچھالتا	-12274
▁ایمانوں	-12275
▁ایوانوں	-12276
▁بادشاہی	-12277
▁باشندوں	-12278
▁باغبانی	-12279
▁باندازۂ	-12280
▁باندھیے	-12281
▁بتلاییں	-12282
▁بدگمانی	-12283
▁براییوں	-12284
▁برداراں	-12285
▁بردباری	-12286
▁برچھیاں	-12287
▁بغاوتوں	-12288
▁بلندیاں	-12289
▁بلواییے	-12290
▁بلڈنگیں	-12291
▁بچھاییں	-12292
▁بکھرانے	-12293
▁بھڑکاتی	-12294
▁بہلاییے	-12295
▁بیانیاں	-12296
▁بیقراری	-12297
▁بیماروں	-12298
▁بیکرانہ	-12299
▁بیکرانی	-12300
▁تاجوروں	-12301
▁تازیانے	-12302
▁ترازویے	-12303
▁تراشیدہ	-12304
▁ترکمانی	-12305
▁تمناییں	-12306
▁تڑپاییں	-12307
▁تڑپاییے	-12308
▁تکراروں	-12309
▁تکلیفوں	-12310
▁جادوگری	-12311
▁جبراییل	-12312
▁جستجویے	-12313
▁جمعیتیں	-12314
▁جگمگاتی	-12315
▁جگمگاتے	-12316
▁جھکاییں	-12317
▁جہالتوں	-12318
▁حجابیاں	-12319
▁حریفانہ	-12320
▁حفاظتیں	-12321
▁حقیقتوں	-12322
▁حویلیوں	-12323
▁حکمرانی	-12324
▁حکومتیں	-12325
▁خانقاہی	-12326
▁خداوندو	-12327
▁خداییاں	-12328
▁خراباتی	-12329
▁خسروانہ	-12330
▁خودبخود	-12331
▁خوردگاں	-12332
▁خوشحالی	-12333
▁داستانی	-12334
▁دالانوں	-12335
▁درخواست	-12336
▁درمیانی	-12337
▁دلبرانہ	-12338
▁دکھاویں	-12339
▁دکھلایے	-12340
▁دھاندلی	-12341
▁دھمکیاں	-12342
▁دھندلکے	-12343
▁دیوتاوں	-12344
▁راہزنوں	-12345
▁رباعیاں	-12346
▁رستاخیز	-12347
▁رسمسانے	-12348
▁رفاقتیں	-12349
▁روانیاں	-12350
▁روزگاری	-12351
▁رہنمایے	-12352
▁سازگاری	-12353
▁سبکدستی	-12354
▁سرانجام	-12355
▁سرسراتے	-12356
▁سرفروشی	-12357
▁سرگرداں	-12358
▁سلطانوں	-12359
▁سمجھوتہ	-12360
▁سنوارنا	-12361
▁سنواریں	-12362
▁سنپولیے	-12363
▁سنگھاسن	-12364
▁سوداگری	-12365
▁سوراخوں	-12366
▁سچاییوں	-12367
▁سکھاییں	-12368
▁سینکڑوں	-12369
▁سیڑھیوں	-12370
▁شادیانہ	-12371
▁شاعرانہ	-12372
▁شامیانہ	-12373
▁شاییگاں	-12374
▁شرارتیں	-12375
▁شرماییے	-12376
▁صحراگرد	-12377
▁طرازیاں	-12378
▁عبادتیں	-12379
▁عنوانوں	-12380
▁غارتگری	-12381
▁فرزانوں	-12382
▁فرنگیوں	-12383
▁فقیرانہ	-12384
▁فوجداری	-12385
▁قاہرانہ	-12386
▁قلندروں	-12387
▁لہراییں	-12388
▁لہلہاتا	-12389
▁لہلہاتے	-12390
▁مبتلایے	-12391
▁مرجھاتے	-12392
▁مرجھانے	-12393
▁مسافران	-12394
▁مستجابی	-12395
▁مظلوموں	-12396
▁مقبولیت	-12397
▁ملامتوں	-12398
▁منجدھار	-12399
▁میزبانی	-12400
▁میناروں	-12401
▁میہمانی	-12402
▁ناانصاف	-12403
▁ناخداوں	-12404
▁ناشگفتہ	-12405
▁نامرادی	-12406
▁نامعلوم	-12407
▁نخواستہ	-12408
▁نوازندہ	-12409
▁نکھارنا	-12410
▁نگہداری	-12411
▁نیازیوں	-12412
▁واحسرتا	-12413
▁وارفتگی	-12414
▁والہانہ	-12415
▁وضاحتیں	-12416
▁ٹھکراتا	-12417
▁ٹھیکیاں	-12418
▁ٹیلیفون	-12419
▁پارساوں	-12420
▁پاییدار	-12421
▁پتھرایا	-12422
▁پرفشانی	-12423
▁پروفیسر	-12424
▁پوشاکیں	-12425
▁پچھتایے	-12426
▁پھواریں	-12427
▁پھونکتا	-12428
▁پھونکنے	-12429
▁پھیلانے	-12430
▁پہاڑیوں	-12431
▁پہنچاتا	-12432
▁پہنچانے	-12433
▁پہنچایی	-12434
▁پہچانتی	-12435
▁پیداوار	-12436
▁پیراستہ	-12437
▁چوتھایی	-12438
▁چوکیدار	-12439
▁چھپاییں	-12440
▁چھیڑوگے	-12441
▁چھیڑییے	-12442
▁ڈھانپنے	-12443
▁ڈھونڈتی	-12444
▁ڈھونڈنا	-12445
▁ڈھونڈھے	-12446
▁کارخانۂ	-12447
▁کافرانہ	-12448
▁کامرانی	-12449
▁کماندار	-12450
▁کمزوروں	-12451
▁کھلوانے	-12452
▁کھلوایے	-12453
▁کھلونوں	-12454
▁کھلکھلا	-12455
▁کھیتیاں	-12456
▁کھینچنا	-12457
▁کہانیوں	-12458
▁کہلاییں	-12459
▁کہکشانی	-12460
▁کیمیایے	-12461
▁گدایانہ	-12462
▁گندھاوٹ	-12463
▁گنواییں	-12464
▁گنگناتا	-12465
▁گنگناتے	-12466
▁گنگناہٹ	-12467
▁گورستاں	-12468
▁گورنمنٹ	-12469
▁گوشوارہ	-12470
▁گھبراتی	-12471
▁گھبرایی	-12472
▁گھروندا	-12473
▁گھنشیام	-12474
▁گھونگھٹ	-12475
▁گھٹنیوں	-12476
▁ہتکھنڈے	-12477
▁ہنساییں	-12478
▁ہنگاموں	-12479
▁یکبارگی	-12480
▁ازمایشوں	-12481
▁استغنایے	-12482
▁اشناییاں	-12483
▁اصطلاحات	-12484
▁التجاییں	-12485
▁امیدواری	-12486
▁انقلابات	-12487
▁انگریزوں	-12488
▁انگیزیاں	-12489
▁اٹھکھٹوں	-12490
▁بااللساں	-12491
▁باشندگاں	-12492
▁بربادیاں	-12493
▁بوچھاروں	-12494
▁بیابانوں	-12495
▁جھلملایے	-12496
▁جھٹلاییں	-12497
▁حیدراباد	-12498
▁خداوندان	-12499
▁دکھیاروں	-12500
▁دھندلکوں	-12501
▁دیوانگان	-12502
▁راجدھانی	-12503
▁راولپنڈی	-12504
▁راہگیروں	-12505
▁رسواییوں	-12506
▁رنگینیوں	-12507
▁زندانیوں	-12508
▁سراسیمگی	-12509
▁سرمستیاں	-12510
▁سرگردانی	-12511
▁سمجھاویں	-12512
▁سنبھالنا	-12513
▁سوداییان	-12514
▁سوداییوں	-12515
▁سوگواروں	-12516
▁شبستانوں	-12517
▁صحراییوں	-12518
▁غلطیہایے	-12519
▁فرنگیانہ	-12520
▁قلندرانہ	-12521
▁لڑکھڑاتے	-12522
▁مجبوریوں	-12523
▁محرومیاں	-12524
▁محشرستان	-12525
▁مسلمانوں	-12526
▁ملاقاتوں	-12527
▁نامراداں	-12528
▁نامہرباں	-12529
▁نرگسستاں	-12530
▁نگارخانۂ	-12531
▁پابندیوں	-12532
▁پادشاہوں	-12533
▁پایمالوں	-12534
▁پاییداری	-12535
▁پچھتاوگے	-12536
▁پگھلاییں	-12537
▁پیمبرانہ	-12538
▁چالاکیاں	-12539
▁ڈھلوانوں	-12540
▁کھلواییں	-12541
▁گلباریوں	-12542
▁گھبراییں	-12543
▁گہراییوں	-12544
▁گیارہویں	-12545
▁ہنساییاں	-12546
▁یادگاریں	-12547
▁اختیاریاں	-12548
▁اعتدالیوں	-12549
▁انگڑاییوں	-12550
▁بدگمانیاں	-12551
▁خودداریوں	-12552
▁دادخواہوں	-12553
▁دشوارپسند	-12554
▁سرفرازیاں	-12555
▁شادمانیاں	-12556
▁فخراؔلدین	-12557
▁موشگافیاں	-12558
▁ناامیدانہ	-12559
▁پرچھاییوں	-12560
▁پریشانیاں	-12561
▁گریبانیاں	-12562
▁انتظارستاں	-12563
▁خاراشگافوں	-12564
▁واماندگیاں	-12565
تز	-12566
ثہ	-12567
حذ	-12568
دک	-12569
زر	-12570
سش	-12571
غی	-12572
فد	-12573
قط	-12574
لگ	-12575
مخ	-12576
مڈ	-12577
وخ	-12578
وط	-12579
وو	-12580
ڈت	-12581
ڈس	-12582
کب	-12583
گج	-12584
ھگ	-12585
یح	-12586
احش	-12587
ادق	-12588
ازگ	-12589
اصر	-12590
اقہ	-12591
الس	-12592
اہگ	-12593
بلۂ	-12594
بھے	-12595
تاں	-12596
تجا	-12597
تسب	-12598
تظر	-12599
حب	-12600
خز	-12601
فک	-12602
نؔ	-12603
نظ	-12604
کف	-12605
ابط	-12606
ابہ	-12607
ادگ	-12608
تکھ	-12609
تگی	-12610
تہر	-12611
جزی	-12612
جلت	-12613
جگی	-12614
جیر	-12615
حاب	-12616
حسا	-12617
حظہ	-12618
حلے	-12619
حمد	-12620
حوم	-12621
خاط	-12622
خزن	-12623
خفا	-12624
خنہ	-12625
خیا	-12626
دلی	-12627
دنگ	-12628
دوس	-12629
دیث	-12630
ذاق	-12631
ذبے	-12632
راح	-12633
راگ	-12634
رای	-12635
رزے	-12636
رقت	-12637
رقہ	-12638
رما	-12639
رکہ	-12640
رہو	-12641
ریغ	-12642
زرگ	-12643
ساد	-12644
سبت	-12645
ستح	-12646
سطہ	-12647
سطے	-12648
سلۂ	-12649
سلی	-12650
سپا	-12651
سکہ	-12652
شرد	-12653
شقی	-12654
شنہ	-12655
شنی	-12656
صاد	-12657
صام	-12658
صمت	-12659
صوم	-12660
صید	-12661
طاب	-12662
طال	-12663
طور	-12664
ظلو	-12665
ظیم	-12666
عای	-12667
عتا	-12668
عظا	-12669
عظو	-12670
عقہ	-12671
عنۂ	-12672
عنی	-12673
عوی	-12674
عیا	-12675
عید	-12676
عیف	-12677
غذی	-12678
غرب	-12679
غزش	-12680
غلے	-12681
فاخ	-12682
فقا	-12683
فنی	-12684
فید	-12685
قدے	-12686
قعہ	-12687
قعے	-12688
قفہ	-12689
قلی	-12690
قوق	-12691
قہہ	-12692
لسف	-12693
لما	-12694
لنگ	-12695
لنی	-12696
لول	-12697
لون	-12698
لوگ	-12699
حو	-12700
خج	-12701
عش	-12702
نذ	-12703
کچ	-12704
ہچ	-12705
ازک	-12706
الق	-12707
بھر	-12708
بہم	-12709
تگر	-12710
تین	-12711
حان	-12712
ختی	-12713
دلے	-12714
راو	-12715
رتب	-12716
رنگ	-12717
رنے	-12718
رگر	-12719
زتی	-12720
ستو	-12721
سمت	-12722
شیب	-12723
صفا	-12724
علے	-12725
عیں	-12726
غاز	-12727
فلے	-12728
لوۂ	-12729
لوی	-12730
لچے	-12731
لیز	-12732
لیہ	-12733
لےپ	-12734
ماو	-12735
مبر	-12736
متی	-12737
مدی	-12738
ملو	-12739
منگ	-12740
موز	-12741
مچے	-12742
مکے	-12743
مید	-12744
میی	-12745
ناج	-12746
ناظ	-12747
نجی	-12748
نسر	-12749
نشت	-12750
نقا	-12751
نگت	-12752
نھا	-12753
نہا	-12754
نیم	-12755
نیے	-12756
واد	-12757
واز	-12758
ورس	-12759
ورک	-12760
ورۂ	-12761
وما	-12762
ونگ	-12763
ونہ	-12764
ونے	-12765
وہر	-12766
ویا	-12767
ٹکی	-12768
پتے	-12769
پنڈ	-12770
پکی	-12771
پھر	-12772
چید	-12773
ڈار	-12774
ڈتی	-12775
ڈرے	-12776
ڈنڈ	-12777
ڑتا	-12778
ڑکپ	-12779
کاب	-12780
کبۂ	-12781
کرخ	-12782
کرہ	-12783
کلو	-12784
کلے	-12785
کنہ	-12786
کنی	-12787
کھل	-12788
گای	-12789
گتے	-12790
گرم	-12791
گرو	-12792
گرچ	-12793
گوف	-12794
ھاپ	-12795
ھرت	-12796
ھرم	-12797
ھوا	-12798
ھور	-12799
تخ	-12800
صع	-12801
فش	-12802
ادل	-12803
اکھ	-12804
باہ	-12805
ترے	-12806
تفا	-12807
تلا	-12808
تیل	-12809
ثوں	-12810
ذرے	-12811
ربت	-12812
رست	-12813
ریج	-12814
زرے	-12815
ستخ	-12816
ستش	-12817
ستغ	-12818
سلا	-12819
شست	-12820
شند	-12821
شون	-12822
صلت	-12823
طلا	-12824
قلا	-12825
لاش	-12826
لست	-12827
مدا	-12828
مست	-12829
میز	-12830
ندش	-12831
ننا	-12832
نڈا	-12833
کلا	-12834
کھر	-12835
کید	-12836
گند	-12837
ھدا	-12838
ھکر	-12839
ھکھ	-12840
ہتی	-12841
ہرم	-12842
ہرہ	-12843
ہلی	-12844
ہنگ	-12845
ہکی	-12846
یدر	-12847
یرگ	-12848
یزگ	-12849
یزۂ	-12850
یسؔ	-12851
یست	-12852
یسن	-12853
یسی	-12854
یسے	-12855
یشے	-12856
یصر	-12857
یفت	-12858
یقل	-12859
یلا	-12860
یمۂ	-12861
یمے	-12862
ینگ	-12863
یید	-12864
▁جد	-12865
▁شف	-12866
▁صن	-12867
▁طف	-12868
▁طی	-12869
▁غف	-12870
▁لخ	-12871
▁لچ	-12872
▁وس	-12873
▁وط	-12874
▁پخ	-12875
▁کذ	-12876
▁گب	-12877
▁ہج	-12878
ابات	-12879
ابال	-12880
ابان	-12881
اباں	-12882
ابتے	-12883
ابست	-12884
ابطہ	-12885
ابطۂ	-12886
ابید	-12887
احبو	-12888
احشہ	-12889
ادان	-12890
ادثہ	-12891
ادثے	-12892
ادیا	-12893
اراب	-12894
اراج	-12895
ارتگ	-12896
ارتی	-12897
ارسا	-12898
ارفت	-12899
اؔ	-12900
چق	-12901
کم	-12902
ادا	-12903
اگر	-12904
بتے	-12905
بلا	-12906
بھو	-12907
ترف	-12908
ثرت	-12909
جدا	-12910
حیل	-12911
داق	-12912
داو	-12913
داک	-12914
دھو	-12915
رمی	-12916
رنہ	-12917
سست	-12918
صدا	-12919
ظاہ	-12920
علق	-12921
غال	-12922
فین	-12923
قتو	-12924
قند	-12925
لیج	-12926
لیو	-12927
منؔ	-12928
نجش	-12929
وچھ	-12930
ٹتی	-12931
پکا	-12932
پہر	-12933
چھو	-12934
چھڑ	-12935
ڈال	-12936
ڈوں	-12937
کھو	-12938
ھان	-12939
ھوت	-12940
ھوو	-12941
ھوٹ	-12942
ھوپ	-12943
ھوک	-12944
ھوگ	-12945
یفا	-12946
▁طم	-12947
ادھے	-12948
اریت	-12949
ازان	-12950
ازوں	-12951
ازگی	-12952
ازیا	-12953
اسوں	-12954
اطگی	-12955
افلے	-12956
الات	-12957
الاک	-12958
الشت	-12959
امور	-12960
امہر	-12961
اندا	-12962
انست	-12963
انکو	-12964
انکے	-12965
انہؔ	-12966
انہہ	-12967
اوند	-12968
اڑوں	-12969
اہرا	-12970
اہیا	-12971
ایان	-12972
ایدہ	-12973
ایگی	-12974
بادت	-12975
بالؔ	-12976
بالۂ	-12977
باچۂ	-12978
باہی	-12979
بایی	-12980
بخود	-12981
بدوں	-12982
براں	-12983
بریں	-12984
بسکہ	-12985
بچوں	-12986
تاتے	-12987
تارا	-12988
تانہ	-12989
تانی	-12990
تانے	-12991
تریں	-12992
تھرا	-12993
تیجہ	-12994
تیجے	-12995
تیدن	-12996
ثاری	-12997
ثبات	-12998
جدوں	-12999
غش	-13000
ادخ	-13001
اہا	-13002
اہز	-13003
بند	-13004
بنے	-13005
تنے	-13006
ثان	-13007
خلا	-13008
خنے	-13009
خوت	-13010
دنے	-13011
ذات	-13012
ذری	-13013
ستف	-13014
شبی	-13015
شری	-13016
صاب	-13017
صری	-13018
فیے	-13019
لبگ	-13020
لھے	-13021
لہا	-13022
نجف	-13023
نری	-13024
نکا	-13025
ٹاو	-13026
ٹنے	-13027
پری	-13028
چنگ	-13029
ڈنے	-13030
کرر	-13031
کیا	-13032
گنے	-13033
یشی	-13034
یلے	-13035
▁بص	-13036
▁غا	-13037
▁غب	-13038
▁غن	-13039
▁فش	-13040
▁فع	-13041
▁فک	-13042
▁فگ	-13043
▁فہ	-13044
▁قا	-13045
▁قف	-13046
▁قو	-13047
▁لق	-13048
اداں	-13049
ادوں	-13050
ارنے	-13051
ارگر	-13052
افیہ	-13053
اہیے	-13054
تایی	-13055
جاری	-13056
جدیں	-13057
جھتا	-13058
جھنا	-13059
جھنی	-13060
جھنے	-13061
جھوں	-13062
جھیو	-13063
جیدہ	-13064
حران	-13065
حضرت	-13066
حفیؔ	-13067
ختصر	-13068
دالت	-13069
دانہ	-13070
دانے	-13071
داوں	-13072
داگر	-13073
دبیر	-13074
دردی	-13075
دستۂ	-13076
دیدہ	-13077
ذبات	-13078
ذبوں	-13079
ذوبی	-13080
رادی	-13081
راری	-13082
رازی	-13083
راست	-13084
راشی	-13085
رالے	-13086
رامی	-13087
رانے	-13088
ردار	-13089
ردگی	-13090
رقند	-13091
رمید	-13092
رنیں	-13093
ریدہ	-13094
ریعہ	-13095
ریقت	-13096
ریقہ	-13097
ریچے	-13098
زادۂ	-13099
بع	-13100
جۂ	-13101
دح	-13102
شع	-13103
اتو	-13104
ادن	-13105
ارب	-13106
امع	-13107
باک	-13108
تدا	-13109
تیج	-13110
جتے	-13111
دری	-13112
ربی	-13113
رفت	-13114
ریش	-13115
ریق	-13116
ریچ	-13117
ریۂ	-13118
شام	-13119
ضاح	-13120
ضطر	-13121
عری	-13122
فری	-13123
مام	-13124
مری	-13125
نید	-13126
وطہ	-13127
وکھ	-13128
ٹیک	-13129
کرم	-13130
گام	-13131
گلی	-13132
گڑی	-13133
گھر	-13134
ھرن	-13135
ھیو	-13136
▁حذ	-13137
▁حش	-13138
▁حص	-13139
▁عف	-13140
▁نط	-13141
ادثۂ	-13142
ادگی	-13143
اراں	-13144
امان	-13145
امرا	-13146
امری	-13147
امیں	-13148
اننے	-13149
انیت	-13150
جایے	-13151
دازہ	-13152
داوا	-13153
راپا	-13154
زادی	-13155
زالی	-13156
زانی	-13157
زایش	-13158
زدور	-13159
زدگی	-13160
زندی	-13161
زوری	-13162
ساتے	-13163
سازی	-13164
ساعد	-13165
سانہ	-13166
سانی	-13167
سایہ	-13168
سایۂ	-13169
سبوں	-13170
ستور	-13171
ستوں	-13172
سداں	-13173
سلنے	-13174
سیدہ	-13175
شردن	-13176
شریت	-13177
شقاں	-13178
شمنی	-13179
شمکش	-13180
شندہ	-13181
شوار	-13182
شودہ	-13183
شیار	-13184
صراں	-13185
صنام	-13186
طایے	-13187
طراف	-13188
عاری	-13189
عانی	-13190
علیں	-13191
عیفی	-13192
غایے	-13193
غرور	-13194
غفرت	-13195
فاظت	-13196
فانہ	-13197
فانی	-13198
فاوں	-13199
رز	-13200
رص	-13201
سؔ	-13202
پم	-13203
ھت	-13204
ابش	-13205
اتح	-13206
الؔ	-13207
الا	-13208
الغ	-13209
الو	-13210
الچ	-13211
ایک	-13212
جال	-13213
جدۂ	-13214
خال	-13215
ختص	-13216
خلو	-13217
خنی	-13218
رتی	-13219
رتے	-13220
رسل	-13221
رنج	-13222
سال	-13223
شال	-13224
ظال	-13225
غار	-13226
قال	-13227
لاڑ	-13228
لتے	-13229
متے	-13230
مند	-13231
منو	-13232
مون	-13233
نتے	-13234
نسی	-13235
چار	-13236
ڈتے	-13237
ھوڑ	-13238
ہال	-13239
یکد	-13240
یکش	-13241
▁زب	-13242
▁زخ	-13243
▁زش	-13244
▁زو	-13245
▁غس	-13246
الان	-13247
النا	-13248
الیا	-13249
الیں	-13250
امید	-13251
انتے	-13252
ترام	-13253
جالت	-13254
جھتے	-13255
رورت	-13256
سموں	-13257
فایی	-13258
فتوں	-13259
فتہؔ	-13260
فوری	-13261
فوگر	-13262
فیدی	-13263
قانی	-13264
قاہی	-13265
قایے	-13266
قبول	-13267
قتول	-13268
قوبؔ	-13269
قہوں	-13270
قیقت	-13271
لاتے	-13272
لاسل	-13273
لاوں	-13274
لایا	-13275
لایے	-13276
لتاں	-13277
لدین	-13278
لسفی	-13279
لفوں	-13280
لملا	-13281
لناک	-13282
لوار	-13283
لوان	-13284
لواں	-13285
لودا	-13286
لوطن	-13287
لولے	-13288
لونا	-13289
لوند	-13290
لونے	-13291
لوگے	-13292
لیجا	-13293
لیجہ	-13294
لیخا	-13295
لیقہ	-13296
لینڈ	-13297
مایا	-13298
مایت	-13299
اپ	-13300
بذ	-13301
ثب	-13302
دز	-13303
ذت	-13304
طف	-13305
فز	-13306
لح	-13307
ڈن	-13308
کج	-13309
گڈ	-13310
ارج	-13311
ارگ	-13312
برا	-13313
تات	-13314
ترا	-13315
حرا	-13316
حیں	-13317
خوا	-13318
خیں	-13319
داگ	-13320
درا	-13321
راث	-13322
راد	-13323
راش	-13324
ریض	-13325
ریک	-13326
زاب	-13327
زور	-13328
ستج	-13329
سرا	-13330
سوم	-13331
صرا	-13332
فیں	-13333
قرا	-13334
قیا	-13335
نان	-13336
ودا	-13337
ومے	-13338
وگر	-13339
وید	-13340
ڑکھ	-13341
کرا	-13342
ھتی	-13343
ھلے	-13344
یکر	-13345
یکس	-13346
یکن	-13347
▁خت	-13348
▁شط	-13349
▁غذ	-13350
اریک	-13351
التا	-13352
انتا	-13353
انگا	-13354
بالغ	-13355
تانا	-13356
خنوں	-13357
ریوں	-13358
شانے	-13359
شقان	-13360
مایش	-13361
متزا	-13362
مریں	-13363
منون	-13364
منیں	-13365
مکتا	-13366
ناری	-13367
نازے	-13368
ناظر	-13369
نانی	-13370
نبور	-13371
نبیت	-13372
نجور	-13373
ندلا	-13374
ندلک	-13375
ندلی	-13376
ندنی	-13377
ندیا	-13378
ندیں	-13379
نستا	-13380
نشیا	-13381
نمست	-13382
نٹوں	-13383
نچات	-13384
نچتے	-13385
نڈھا	-13386
نگتی	-13387
نگنا	-13388
نگھر	-13389
نہان	-13390
نہای	-13391
نہوں	-13392
وارپ	-13393
وانے	-13394
واوں	-13395
وایی	-13396
وراہ	-13397
ورتے	-13398
وردہ	-13399
ؔل	-13400
تض	-13401
ثۂ	-13402
ثے	-13403
جذ	-13404
جچ	-13405
حج	-13406
حس	-13407
دڑ	-13408
دگ	-13409
ذم	-13410
رغ	-13411
رپ	-13412
زغ	-13413
زف	-13414
زٹ	-13415
شس	-13416
ضؔ	-13417
ضط	-13418
طش	-13419
طک	-13420
عس	-13421
عو	-13422
قز	-13423
لغ	-13424
لھ	-13425
مھ	-13426
نغ	-13427
نھ	-13428
وذ	-13429
وظ	-13430
ٹٹ	-13431
ٹہ	-13432
ھد	-13433
یٹ	-13434
ارض	-13435
بدم	-13436
ثیں	-13437
دبۂ	-13438
دکی	-13439
ذاب	-13440
ریع	-13441
طیں	-13442
عضا	-13443
فلو	-13444
لاہ	-13445
ماش	-13446
میں	-13447
نای	-13448
وحؔ	-13449
ڈیں	-13450
ڑھے	-13451
ھاک	-13452
ھیت	-13453
ھین	-13454
یرؔ	-13455
ییگ	-13456
▁حف	-13457
▁خی	-13458
▁رش	-13459
▁صہ	-13460
▁نف	-13461
اتیا	-13462
انیا	-13463
حبان	-13464
دازے	-13465
نارے	-13466
وردی	-13467
وروز	-13468
ورچے	-13469
ورکن	-13470
ورید	-13471
وسفؔ	-13472
ومیں	-13473
وندو	-13474
ونٹی	-13475
وٹتی	-13476
وٹٹے	-13477
وٹکے	-13478
وکنا	-13479
وکید	-13480
وییں	-13481
ٹانا	-13482
ٹکتا	-13483
ٹکتے	-13484
ٹکنے	-13485
پاتا	-13486
پاری	-13487
پانا	-13488
پسیں	-13489
پڑوں	-13490
پکیں	-13491
پیاں	-13492
پیدا	-13493
پیدن	-13494
پیدہ	-13495
چاتے	-13496
چانا	-13497
چانی	-13498
چانے	-13499
اچ	-13500
بم	-13501
بٹ	-13502
بگ	-13503
ثن	-13504
جک	-13505
حؔ	-13506
حز	-13507
خۂ	-13508
دب	-13509
دش	-13510
ذل	-13511
رث	-13512
سڑ	-13513
شل	-13514
ضے	-13515
طی	-13516
ظن	-13517
فگ	-13518
لص	-13519
لپ	-13520
لچ	-13521
مچ	-13522
نپ	-13523
ٹن	-13524
پج	-13525
پے	-13526
چس	-13527
ہف	-13528
یذ	-13529
یپ	-13530
ادھ	-13531
بدل	-13532
بنا	-13533
جرا	-13534
جزے	-13535
حیا	-13536
دای	-13537
دنی	-13538
ذرا	-13539
راس	-13540
ستن	-13541
سطا	-13542
سمی	-13543
شنگ	-13544
صیا	-13545
ضام	-13546
ضبو	-13547
لعت	-13548
مرت	-13549
نگس	-13550
وجد	-13551
پاہ	-13552
ڈنا	-13553
ھبر	-13554
ہند	-13555
ہون	-13556
یود	-13557
یگی	-13558
▁ثو	-13559
▁مڈ	-13560
▁ہت	-13561
ابیا	-13562
اکام	-13563
بورا	-13564
دیمی	-13565
طیوں	-13566
عیوں	-13567
نانا	-13568
ناوے	-13569
ندان	-13570
نچان	-13571
ٹکنا	-13572
چایے	-13573
چلنا	-13574
چوڑی	-13575
چکتی	-13576
چھار	-13577
چھلے	-13578
چھنے	-13579
چھوں	-13580
چھڑے	-13581
چھیا	-13582
چیاں	-13583
چیدہ	-13584
ڈھال	-13585
ڑانے	-13586
کاتی	-13587
کامی	-13588
کانہ	-13589
کانے	-13590
کایت	-13591
کایے	-13592
کتاب	-13593
کشاں	-13594
کلیں	-13595
کنوں	-13596
کڑوں	-13597
کھات	-13598
کھار	-13599
بخ	-13600
بظ	-13601
ثو	-13602
حص	-13603
خذ	-13604
خش	-13605
خہ	-13606
ذی	-13607
رح	-13608
رع	-13609
سج	-13610
سز	-13611
شؔ	-13612
شج	-13613
صف	-13614
فن	-13615
قص	-13616
مف	-13617
مم	-13618
نع	-13619
وث	-13620
وض	-13621
ٹل	-13622
پو	-13623
پچ	-13624
پک	-13625
پہ	-13626
چت	-13627
ڈو	-13628
ھب	-13629
ھٹ	-13630
ہذ	-13631
اان	-13632
ارم	-13633
اغی	-13634
امح	-13635
اڑی	-13636
بھی	-13637
تال	-13638
تبر	-13639
تمت	-13640
حبو	-13641
حری	-13642
دام	-13643
رات	-13644
سرے	-13645
عرہ	-13646
فلک	-13647
فیس	-13648
لبی	-13649
متا	-13650
ناٹ	-13651
ٹار	-13652
ٹال	-13653
ھلو	-13654
یاض	-13655
یرب	-13656
یمہ	-13657
▁تظ	-13658
▁ذر	-13659
▁شخ	-13660
▁قض	-13661
بیعت	-13662
تاری	-13663
حریر	-13664
رافی	-13665
زانہ	-13666
سایا	-13667
ستیا	-13668
صلگی	-13669
مکیں	-13670
ناسب	-13671
وانہ	-13672
ورتی	-13673
ومیت	-13674
کھاں	-13675
کھتا	-13676
کھنڈ	-13677
کھوں	-13678
کھیں	-13679
کھیے	-13680
کیدن	-13681
گاتی	-13682
گانا	-13683
گانے	-13684
گاڑو	-13685
گران	-13686
گشتۂ	-13687
گوفہ	-13688
گولا	-13689
گولہ	-13690
گولے	-13691
گونے	-13692
گویے	-13693
گڑتے	-13694
گڑوں	-13695
گینہ	-13696
ھالو	-13697
ھالی	-13698
ھاوں	-13699
ؔح	-13700
بؔ	-13701
بق	-13702
بچ	-13703
خؔ	-13704
خس	-13705
خض	-13706
زک	-13707
سق	-13708
طو	-13709
عض	-13710
غن	-13711
فؔ	-13712
قۂ	-13713
لز	-13714
مص	-13715
مق	-13716
مڑ	-13717
نز	-13718
ٹت	-13719
ٹم	-13720
ڈھ	-13721
ڑت	-13722
کع	-13723
کڑ	-13724
گب	-13725
گف	-13726
ہہ	-13727
اصد	-13728
اطہ	-13729
جلی	-13730
جید	-13731
حال	-13732
رجھ	-13733
شدر	-13734
صای	-13735
صور	-13736
ظری	-13737
عدا	-13738
عوب	-13739
غفر	-13740
غمہ	-13741
قاں	-13742
قدر	-13743
لیر	-13744
وست	-13745
ٹنا	-13746
ڑنا	-13747
کال	-13748
ھاڑ	-13749
ہلو	-13750
ہنش	-13751
یاف	-13752
یتا	-13753
یرۂ	-13754
یوہ	-13755
▁دز	-13756
▁شس	-13757
اریا	-13758
استہ	-13759
امنا	-13760
امنے	-13761
اہتا	-13762
خشان	-13763
غربی	-13764
فویے	-13765
قیقی	-13766
نجار	-13767
کارے	-13768
گشتہ	-13769
ھانا	-13770
ھانی	-13771
ھاچھ	-13772
ھاڑو	-13773
ھاکہ	-13774
ھران	-13775
ھرتا	-13776
ھرتی	-13777
ھرنے	-13778
ھریا	-13779
ھریں	-13780
ھریے	-13781
ھواں	-13782
ھولی	-13783
ھولے	-13784
ھوما	-13785
ھونگ	-13786
ھونی	-13787
ھونے	-13788
ھوڑے	-13789
ھویی	-13790
ھیلا	-13791
ھیلی	-13792
ھیمے	-13793
ھینا	-13794
ھینی	-13795
ھینے	-13796
ھیون	-13797
ھیکا	-13798
ہادؔ	-13799
بڑ	-13800
بک	-13801
تذ	-13802
تغ	-13803
حن	-13804
ذۂ	-13805
رؔ	-13806
رن	-13807
سخ	-13808
شے	-13809
لخ	-13810
لش	-13811
مث	-13812
مس	-13813
مظ	-13814
نص	-13815
ٹھ	-13816
پل	-13817
چش	-13818
گچ	-13819
ںؔ	-13820
ھپ	-13821
ادب	-13822
ارو	-13823
ثات	-13824
حقی	-13825
حنا	-13826
دات	-13827
دست	-13828
سام	-13829
طیا	-13830
ظار	-13831
علی	-13832
فوں	-13833
قدہ	-13834
نست	-13835
ڈھے	-13836
ڑوا	-13837
ھاس	-13838
ھمی	-13839
ھنا	-13840
ھیج	-13841
ھید	-13842
یاج	-13843
یسو	-13844
یقت	-13845
▁رج	-13846
▁غد	-13847
▁وج	-13848
▁وق	-13849
▁چگ	-13850
▁ڈن	-13851
▁گچ	-13852
جابی	-13853
خشاں	-13854
داقت	-13855
دستہ	-13856
رابی	-13857
سارہ	-13858
مانے	-13859
نگیا	-13860
نہیں	-13861
ورنے	-13862
وریے	-13863
ٹاتے	-13864
کروں	-13865
ھاری	-13866
ھانے	-13867
ھونا	-13868
ہانت	-13869
ہانے	-13870
ہباں	-13871
ہتوں	-13872
ہران	-13873
ہرتا	-13874
ہرتے	-13875
ہرست	-13876
ہرنا	-13877
ہرنے	-13878
ہریا	-13879
ہناں	-13880
ہکار	-13881
ہیلی	-13882
ہینہ	-13883
یارت	-13884
یاضی	-13885
یالی	-13886
یالے	-13887
یداد	-13888
یدان	-13889
یداں	-13890
یدتے	-13891
یدوں	-13892
یدھا	-13893
یدھی	-13894
یدھے	-13895
یراب	-13896
یراد	-13897
یراگ	-13898
یرنگ	-13899
او	-13900
دع	-13901
شب	-13902
شح	-13903
ضم	-13904
ضہ	-13905
ظت	-13906
عر	-13907
غف	-13908
قض	-13909
لڈ	-13910
مب	-13911
مذ	-13912
نن	-13913
وچ	-13914
وڑ	-13915
پت	-13916
پھ	-13917
چم	-13918
چٹ	-13919
ڈٹ	-13920
ڈے	-13921
ڑن	-13922
ھچ	-13923
یج	-13924
امہ	-13925
توے	-13926
تید	-13927
جیں	-13928
ریص	-13929
شاک	-13930
صفی	-13931
طوں	-13932
فاس	-13933
لقت	-13934
لکھ	-13935
ولا	-13936
ویز	-13937
ڈرا	-13938
کیت	-13939
ھوج	-13940
ھود	-13941
ھوی	-13942
ھیس	-13943
ھیں	-13944
ہیے	-13945
یزب	-13946
یعت	-13947
ینا	-13948
▁عک	-13949
▁قن	-13950
▁مگ	-13951
اناں	-13952
برات	-13953
بران	-13954
حانہ	-13955
رالا	-13956
ساوی	-13957
سویی	-13958
شکیں	-13959
غانہ	-13960
فسوں	-13961
ماتے	-13962
نجین	-13963
ندوی	-13964
نگھا	-13965
وبنا	-13966
ڑھتے	-13967
یایی	-13968
یروے	-13969
یزاب	-13970
یستی	-13971
یسنس	-13972
یسوا	-13973
یسوی	-13974
یلیف	-13975
ینار	-13976
یندہ	-13977
یواں	-13978
یکار	-13979
یکان	-13980
یکاں	-13981
یکلی	-13982
یکھو	-13983
یکھی	-13984
یکیا	-13985
ییاد	-13986
یینا	-13987
یینے	-13988
ییگی	-13989
▁ابج	-13990
▁ابہ	-13991
▁اتن	-13992
▁اتہ	-13993
▁اجن	-13994
▁احب	-13995
▁ارش	-13996
▁اسپ	-13997
▁اصو	-13998
▁اضط	-13999
اا	-14000
اث	-14001
اگ	-14002
تد	-14003
تو	-14004
تک	-14005
جس	-14006
جش	-14007
حک	-14008
خف	-14009
ذہ	-14010
زت	-14011
صن	-14012
صہ	-14013
طغ	-14014
ظف	-14015
ظل	-14016
ظو	-14017
ظے	-14018
عق	-14019
غب	-14020
غس	-14021
لر	-14022
چپ	-14023
گڑ	-14024
ابی	-14025
ادش	-14026
ارؔ	-14027
است	-14028
انپ	-14029
انچ	-14030
اہب	-14031
اہش	-14032
بلے	-14033
تنہ	-14034
حسی	-14035
ذلی	-14036
روی	-14037
ستم	-14038
شنا	-14039
شنے	-14040
ظہر	-14041
ماز	-14042
منا	-14043
ویت	-14044
ٹتے	-14045
پیں	-14046
کھت	-14047
ھاو	-14048
ھنی	-14049
ہتے	-14050
ہست	-14051
ہیں	-14052
▁ذک	-14053
▁قز	-14054
▁گج	-14055
▁یس	-14056
املہ	-14057
انند	-14058
اہتے	-14059
رایی	-14060
رمند	-14061
ریجن	-14062
ریدی	-14063
سارا	-14064
لبلے	-14065
میدی	-14066
نچیں	-14067
وبتا	-14068
ودان	-14069
کشوں	-14070
ھاگی	-14071
ھیرے	-14072
ہایی	-14073
▁اخب	-14074
▁اسل	-14075
▁اطا	-14076
▁اطف	-14077
▁اظہ	-14078
▁اعج	-14079
▁اعز	-14080
▁اعظ	-14081
▁اعم	-14082
▁اغم	-14083
▁افا	-14084
▁اقب	-14085
▁اقد	-14086
▁اقو	-14087
▁الج	-14088
▁الد	-14089
▁الز	-14090
▁الل	-14091
▁انق	-14092
▁انو	-14093
▁اپم	-14094
▁اکث	-14095
▁اید	-14096
▁باط	-14097
▁ببر	-14098
▁بدد	-14099
تظ	-14100
دث	-14101
دغ	-14102
زع	-14103
سح	-14104
سد	-14105
شغ	-14106
صا	-14107
صی	-14108
طب	-14109
عے	-14110
فٹ	-14111
قح	-14112
مج	-14113
وپ	-14114
ٹو	-14115
پڑ	-14116
پگ	-14117
چب	-14118
ھس	-14119
ھک	-14120
ھہ	-14121
یث	-14122
ازے	-14123
اضا	-14124
تصل	-14125
حشت	-14126
خوں	-14127
دتا	-14128
ریے	-14129
زرا	-14130
طاں	-14131
عور	-14132
غلب	-14133
غول	-14134
قتض	-14135
لوک	-14136
ندل	-14137
نچہ	-14138
ورو	-14139
ووں	-14140
ویی	-14141
ٹان	-14142
ٹور	-14143
چتی	-14144
ڈان	-14145
ڑکن	-14146
کست	-14147
کھٹ	-14148
کھڑ	-14149
ہیا	-14150
یاح	-14151
▁جف	-14152
▁خف	-14153
▁عت	-14154
▁غض	-14155
▁قش	-14156
▁لش	-14157
▁ود	-14158
جھتی	-14159
حایی	-14160
راگر	-14161
ربار	-14162
زایی	-14163
زیاں	-14164
شانہ	-14165
فروش	-14166
فلوں	-14167
لبوں	-14168
نچنا	-14169
کھنے	-14170
ھالا	-14171
یایے	-14172
یسوں	-14173
▁اجز	-14174
▁برح	-14175
▁برر	-14176
▁برو	-14177
▁برچ	-14178
▁بزد	-14179
▁بلو	-14180
▁بھب	-14181
▁بھپ	-14182
▁بھگ	-14183
▁بہز	-14184
▁بہش	-14185
▁بیز	-14186
▁بیڑ	-14187
▁بیہ	-14188
▁تای	-14189
▁تبر	-14190
▁تجد	-14191
▁تجل	-14192
▁تجک	-14193
▁تحق	-14194
▁تذب	-14195
▁تشو	-14196
▁تشہ	-14197
▁تفص	-14198
▁تقل	-14199
تش	-14200
تگ	-14201
جل	-14202
جم	-14203
جڑ	-14204
خد	-14205
ذق	-14206
زی	-14207
طا	-14208
عج	-14209
عط	-14210
غو	-14211
قش	-14212
قم	-14213
لن	-14214
مش	-14215
کذ	-14216
گھ	-14217
گۂ	-14218
ھڑ	-14219
ہج	-14220
ہز	-14221
یو	-14222
یچ	-14223
امو	-14224
اوس	-14225
اہک	-14226
تلے	-14227
جھت	-14228
دوگ	-14229
راغ	-14230
ستگ	-14231
سند	-14232
شوں	-14233
صیہ	-14234
ضای	-14235
غلو	-14236
غوں	-14237
قنا	-14238
لاس	-14239
مگی	-14240
نار	-14241
ڈور	-14242
کدر	-14243
کڑی	-14244
گال	-14245
ھوے	-14246
ھیم	-14247
▁ظر	-14248
▁وظ	-14249
▁گف	-14250
ارنا	-14251
امال	-14252
املے	-14253
دایے	-14254
رابر	-14255
روان	-14256
طانی	-14257
ظاہر	-14258
ماری	-14259
ناتا	-14260
ناکا	-14261
وازہ	-14262
وراک	-14263
ٹھتے	-14264
کاوں	-14265
کرنے	-14266
ھاند	-14267
ھوار	-14268
یادہ	-14269
یدنی	-14270
▁اود	-14271
▁بدو	-14272
▁تشن	-14273
▁تما	-14274
▁تمد	-14275
▁تمغ	-14276
▁تمک	-14277
▁تمی	-14278
▁توا	-14279
▁توس	-14280
▁تون	-14281
▁تکب	-14282
▁تکر	-14283
▁تکل	-14284
▁تکم	-14285
▁تکی	-14286
▁تیک	-14287
▁جاد	-14288
▁جاس	-14289
▁جای	-14290
▁جبی	-14291
▁جرع	-14292
▁جلس	-14293
▁جنب	-14294
▁جوا	-14295
▁جود	-14296
▁جول	-14297
▁جوہ	-14298
▁جوی	-14299
بص	-14300
تف	-14301
جگ	-14302
رش	-14303
رڈ	-14304
سک	-14305
شخ	-14306
طپ	-14307
ظا	-14308
عن	-14309
عک	-14310
فض	-14311
فغ	-14312
فے	-14313
قؔ	-14314
پخ	-14315
پد	-14316
ارس	-14317
ارپ	-14318
امر	-14319
امل	-14320
بتی	-14321
ترم	-14322
تھا	-14323
خیے	-14324
دان	-14325
درت	-14326
راپ	-14327
رنا	-14328
زنی	-14329
ستق	-14330
ضلا	-14331
ضیا	-14332
طرے	-14333
فاں	-14334
فیا	-14335
لین	-14336
نبر	-14337
ندھ	-14338
ورد	-14339
وشت	-14340
وقت	-14341
پتا	-14342
پیت	-14343
چھت	-14344
گرگ	-14345
گنا	-14346
ہیب	-14347
یاہ	-14348
یرہ	-14349
یمی	-14350
▁ذم	-14351
▁رط	-14352
▁رن	-14353
▁نذ	-14354
▁کچ	-14355
اتھا	-14356
اران	-14357
اہتی	-14358
اہری	-14359
بتیں	-14360
تایا	-14361
جھان	-14362
حریک	-14363
دستے	-14364
رایم	-14365
ستار	-14366
نجتا	-14367
وران	-14368
ورتا	-14369
پاوں	-14370
ڑکنا	-14371
کھتی	-14372
▁اوپ	-14373
▁ایل	-14374
▁بتل	-14375
▁جار	-14376
▁حدا	-14377
▁حرا	-14378
▁حرک	-14379
▁حسو	-14380
▁حفا	-14381
▁حکو	-14382
▁خای	-14383
▁خرو	-14384
▁خوگ	-14385
▁داخ	-14386
▁داو	-14387
▁درب	-14388
▁درج	-14389
▁درش	-14390
▁درن	-14391
▁درک	-14392
▁درگ	-14393
▁درہ	-14394
▁دشن	-14395
▁دشو	-14396
▁دعو	-14397
▁دلب	-14398
▁دلت	-14399
بب	-14400
تص	-14401
ثم	-14402
رب	-14403
زؔ	-14404
غز	-14405
غض	-14406
غل	-14407
لذ	-14408
مؔ	-14409
مز	-14410
مض	-14411
وؔ	-14412
پب	-14413
کث	-14414
گش	-14415
یخ	-14416
یگ	-14417
ادؔ	-14418
ازو	-14419
ثال	-14420
خان	-14421
دلا	-14422
دمی	-14423
دھے	-14424
ریں	-14425
سات	-14426
شگی	-14427
صلۂ	-14428
ضور	-14429
طلب	-14430
طگی	-14431
عرا	-14432
فنا	-14433
لفا	-14434
متح	-14435
مرا	-14436
مور	-14437
ننے	-14438
وٹٹ	-14439
ویس	-14440
چاں	-14441
ڑات	-14442
گات	-14443
ہشت	-14444
ہین	-14445
یحت	-14446
یدو	-14447
یشت	-14448
▁اظ	-14449
▁بپ	-14450
▁جش	-14451
▁جٹ	-14452
▁خب	-14453
▁رغ	-14454
▁پذ	-14455
▁گت	-14456
▁یت	-14457
اردہ	-14458
افقت	-14459
انجھ	-14460
بالہ	-14461
ثانی	-14462
جاتی	-14463
جھاو	-14464
راوے	-14465
فلیں	-14466
لگوں	-14467
ٹایے	-14468
ھرتھ	-14469
ھولا	-14470
یرات	-14471
یراہ	-14472
یرتا	-14473
یکدۂ	-14474
▁برم	-14475
▁تمت	-14476
▁توق	-14477
▁درف	-14478
▁دلج	-14479
▁دلہ	-14480
▁دند	-14481
▁دوج	-14482
▁دوہ	-14483
▁دوی	-14484
▁دیب	-14485
▁دیج	-14486
▁ذلی	-14487
▁راد	-14488
▁راغ	-14489
▁رتب	-14490
▁رشت	-14491
▁رضی	-14492
▁رفا	-14493
▁روو	-14494
▁رچا	-14495
▁رچی	-14496
▁رہب	-14497
▁رہت	-14498
▁رہر	-14499
بغ	-14500
خا	-14501
دخ	-14502
دھ	-14503
سس	-14504
صم	-14505
ضۂ	-14506
فح	-14507
لل	-14508
پش	-14509
کد	-14510
کۂ	-14511
ہش	-14512
انو	-14513
ایا	-14514
باع	-14515
بھا	-14516
جام	-14517
جحر	-14518
حدی	-14519
خاں	-14520
خلص	-14521
دہز	-14522
دیا	-14523
ذوب	-14524
رمت	-14525
ریا	-14526
زتا	-14527
ستک	-14528
سرو	-14529
ظام	-14530
غری	-14531
غنا	-14532
فتن	-14533
فیک	-14534
لاق	-14535
نات	-14536
ندۂ	-14537
نگل	-14538
ورج	-14539
ورہ	-14540
ٹھو	-14541
پیا	-14542
کوم	-14543
ھیا	-14544
ھیڑ	-14545
یال	-14546
ییا	-14547
▁تز	-14548
▁دخ	-14549
▁سز	-14550
▁سس	-14551
▁سق	-14552
▁سڑ	-14553
▁مف	-14554
▁نج	-14555
▁نر	-14556
▁نچ	-14557
▁پد	-14558
البا	-14559
بووں	-14560
ختار	-14561
ربان	-14562
رمان	-14563
سیلے	-14564
ولیں	-14565
کھڑے	-14566
ھونک	-14567
ھویں	-14568
ہرتی	-14569
ہنگی	-14570
یدرا	-14571
▁برب	-14572
▁حاف	-14573
▁خصو	-14574
▁دخت	-14575
▁دلد	-14576
▁دلف	-14577
▁ریح	-14578
▁زاہ	-14579
▁زرخ	-14580
▁زلی	-14581
▁زنب	-14582
▁زنہ	-14583
▁ساج	-14584
▁ساخ	-14585
▁ساع	-14586
▁سای	-14587
▁سبھ	-14588
▁سبی	-14589
▁ستو	-14590
▁سرج	-14591
▁سرش	-14592
▁سرف	-14593
▁سمج	-14594
▁سمع	-14595
▁سنس	-14596
▁سوخ	-14597
▁سوک	-14598
▁سپا	-14599
نح	-14600
وع	-14601
کٹ	-14602
گد	-14603
گم	-14604
ہس	-14605
انق	-14606
ایگ	-14607
تھر	-14608
جاہ	-14609
جھے	-14610
حبت	-14611
دھی	-14612
ریی	-14613
زمۂ	-14614
زید	-14615
شرب	-14616
شرط	-14617
صال	-14618
ضوں	-14619
علو	-14620
فرا	-14621
قاہ	-14622
لنا	-14623
لوط	-14624
لیق	-14625
مجھ	-14626
نتا	-14627
نسا	-14628
وصل	-14629
وون	-14630
ٹلا	-14631
ڈتا	-14632
ڈھا	-14633
ڈیل	-14634
کاو	-14635
کھن	-14636
گرؔ	-14637
ھیک	-14638
ھیگ	-14639
یلو	-14640
یکھ	-14641
▁رل	-14642
▁قہ	-14643
▁نغ	-14644
▁نپ	-14645
▁ٹٹ	-14646
▁ڈا	-14647
▁ڈٹ	-14648
▁گش	-14649
اتاں	-14650
ازار	-14651
الید	-14652
الیے	-14653
انور	-14654
انپا	-14655
اہیں	-14656
بانے	-14657
تایش	-14658
جاتے	-14659
جییے	-14660
خموں	-14661
دادا	-14662
درسے	-14663
راوں	-14664
سانا	-14665
قلال	-14666
نجفہ	-14667
ورست	-14668
ٹانے	-14669
ھوکا	-14670
▁الق	-14671
▁بچپ	-14672
▁توت	-14673
▁حاد	-14674
▁خات	-14675
▁خاش	-14676
▁راو	-14677
▁سوغ	-14678
▁سکن	-14679
▁شبن	-14680
▁شدا	-14681
▁شرا	-14682
▁شعا	-14683
▁شعب	-14684
▁شعل	-14685
▁شمی	-14686
▁شنی	-14687
▁شکو	-14688
▁شگا	-14689
▁شیع	-14690
▁صاع	-14691
▁صان	-14692
▁صرا	-14693
▁صفح	-14694
▁صلی	-14695
▁صیا	-14696
▁ضام	-14697
▁طار	-14698
▁طال	-14699
تپ	-14700
حم	-14701
زگ	-14702
صۂ	-14703
نق	-14704
چگ	-14705
ہل	-14706
ااب	-14707
ارک	-14708
ازل	-14709
اقت	-14710
الۂ	-14711
انج	-14712
انش	-14713
انم	-14714
انن	-14715
انٹ	-14716
بیز	-14717
تان	-14718
جان	-14719
حوں	-14720
خار	-14721
ختے	-14722
ران	-14723
زال	-14724
زان	-14725
زیت	-14726
سزا	-14727
سنا	-14728
سید	-14729
صان	-14730
ضان	-14731
طان	-14732
ظوں	-14733
عان	-14734
عتد	-14735
عوں	-14736
فتو	-14737
لود	-14738
ناص	-14739
ٹول	-14740
ٹکا	-14741
پان	-14742
پوں	-14743
پیے	-14744
چتا	-14745
چگی	-14746
ڈھو	-14747
کیر	-14748
گتی	-14749
ہار	-14750
یرک	-14751
▁حز	-14752
▁دق	-14753
ادید	-14754
ارست	-14755
انان	-14756
بانا	-14757
تالہ	-14758
تایے	-14759
دگان	-14760
رمای	-14761
زانے	-14762
شادہ	-14763
ضواں	-14764
ظاری	-14765
قتوں	-14766
لساں	-14767
لکیں	-14768
مانۂ	-14769
مایل	-14770
مبری	-14771
ھایے	-14772
ھوتا	-14773
یمان	-14774
▁برک	-14775
▁سوم	-14776
▁طرا	-14777
▁طعم	-14778
▁طیا	-14779
▁عاد	-14780
▁عال	-14781
▁عبر	-14782
▁عتی	-14783
▁عقی	-14784
▁غاز	-14785
▁غال	-14786
▁غای	-14787
▁غلا	-14788
▁غوط	-14789
▁فاص	-14790
▁فرص	-14791
▁فرع	-14792
▁فرہ	-14793
▁قات	-14794
▁قاد	-14795
▁قاق	-14796
▁قام	-14797
▁قان	-14798
▁قصب	-14799
تؔ	-14800
تق	-14801
ضل	-14802
لج	-14803
نط	-14804
ڈا	-14805
ہؔ	-14806
یص	-14807
اال	-14808
ارث	-14809
ارخ	-14810
ارغ	-14811
امے	-14812
اور	-14813
ثیے	-14814
جاد	-14815
جست	-14816
حتا	-14817
دنا	-14818
ذار	-14819
ذکر	-14820
زری	-14821
سطر	-14822
شیز	-14823
صنا	-14824
عمت	-14825
غام	-14826
فار	-14827
فلا	-14828
لنے	-14829
لور	-14830
لیے	-14831
نرے	-14832
وتا	-14833
چیے	-14834
ڑان	-14835
ڑیے	-14836
گلے	-14837
ھاگ	-14838
ہاں	-14839
ہرا	-14840
ہرۂ	-14841
یاک	-14842
یمر	-14843
یمن	-14844
▁خض	-14845
▁زج	-14846
▁غی	-14847
▁لف	-14848
▁وگ	-14849
اتھے	-14850
اریے	-14851
اموں	-14852
انتی	-14853
ایٹی	-14854
جربے	-14855
دایش	-14856
رتیں	-14857
شارت	-14858
ناتے	-14859
نازہ	-14860
ناصر	-14861
نچوں	-14862
نگتا	-14863
نگتے	-14864
وبار	-14865
ہراب	-14866
یشیں	-14867
▁امو	-14868
▁توب	-14869
▁توج	-14870
▁سمر	-14871
▁قمق	-14872
▁قمی	-14873
▁قنا	-14874
▁لات	-14875
▁لاز	-14876
▁لحا	-14877
▁لغز	-14878
▁لگت	-14879
▁لہک	-14880
▁لیٹ	-14881
▁ماح	-14882
▁ماض	-14883
▁ماف	-14884
▁مبت	-14885
▁متا	-14886
▁مجت	-14887
▁مجک	-14888
▁محا	-14889
▁محب	-14890
▁محج	-14891
▁محر	-14892
▁محز	-14893
▁محش	-14894
▁محف	-14895
▁محی	-14896
▁مرش	-14897
▁مرق	-14898
▁مرک	-14899
حظ	-14900
زب	-14901
طگ	-14902
عز	-14903
فخ	-14904
ہگ	-14905
ابع	-14906
بیا	-14907
بیک	-14908
تاہ	-14909
تیر	-14910
تیش	-14911
جتی	-14912
جزہ	-14913
جھن	-14914
ذبہ	-14915
رید	-14916
شیر	-14917
شیم	-14918
صاں	-14919
طلو	-14920
ظیر	-14921
عاں	-14922
غرا	-14923
غیر	-14924
لال	-14925
ونک	-14926
ڈیر	-14927
ڑیا	-14928
کات	-14929
کور	-14930
ھٹی	-14931
ہتا	-14932
ہیۂ	-14933
یرت	-14934
یرز	-14935
یرن	-14936
یٹک	-14937
یین	-14938
▁شت	-14939
▁شج	-14940
▁طش	-14941
▁چس	-14942
▁چق	-14943
▁ہس	-14944
اتیں	-14945
ارسی	-14946
السی	-14947
اوار	-14948
اکیں	-14949
ایست	-14950
بوبہ	-14951
بویی	-14952
جوان	-14953
خارہ	-14954
دایی	-14955
▁	-14956
ا	-14957
ی	-14958
ہ	-14959
و	-14960
ر	-14961
ک	-14962
ے	-14963
ن	-14964
م	-14965
ت	-14966
ں	-14967
س	-14968
ب	-14969
د	-14970
ھ	-14971
ل	-14972
ج	-14973
گ	-14974
پ	-14975
ش	-14976
ز	-14977
چ	-14978
خ	-14979
ق	-14980
ف	-14981
ع	-14982
ح	-14983
غ	-14984
ص	-14985
ط	-14986
ٹ	-14987
ڑ	-14988
ظ	-14989
ؔ	-14990
ۂ	-14991
ض	-14992
ذ	-14993
ڈ	-14994
ث	-14995
